#ifndef FASHION_MNIST_MODEL_DATA_H
#define FASHION_MNIST_MODEL_DATA_H

#include <pgmspace.h>

const unsigned char fashion_mnist_model_tflite[] PROGMEM = {
  0x1c, 0x00, 0x00, 0x00, 0x54, 0x46, 0x4c, 0x33, 0x14, 0x00, 0x20, 0x00,
  0x1c, 0x00, 0x18, 0x00, 0x14, 0x00, 0x10, 0x00, 0x0c, 0x00, 0x00, 0x00,
  0x08, 0x00, 0x04, 0x00, 0x14, 0x00, 0x00, 0x00, 0x1c, 0x00, 0x00, 0x00,
  0x98, 0x00, 0x00, 0x00, 0xf0, 0x00, 0x00, 0x00, 0xf0, 0x4d, 0x00, 0x00,
  0x00, 0x4e, 0x00, 0x00, 0x48, 0x5a, 0x00, 0x00, 0x03, 0x00, 0x00, 0x00,
  0x01, 0x00, 0x00, 0x00, 0x10, 0x00, 0x00, 0x00, 0x00, 0x00, 0x0a, 0x00,
  0x10, 0x00, 0x0c, 0x00, 0x08, 0x00, 0x04, 0x00, 0x0a, 0x00, 0x00, 0x00,
  0x0c, 0x00, 0x00, 0x00, 0x1c, 0x00, 0x00, 0x00, 0x3c, 0x00, 0x00, 0x00,
  0x0f, 0x00, 0x00, 0x00, 0x73, 0x65, 0x72, 0x76, 0x69, 0x6e, 0x67, 0x5f,
  0x64, 0x65, 0x66, 0x61, 0x75, 0x6c, 0x74, 0x00, 0x01, 0x00, 0x00, 0x00,
  0x04, 0x00, 0x00, 0x00, 0x90, 0xff, 0xff, 0xff, 0x0c, 0x00, 0x00, 0x00,
  0x04, 0x00, 0x00, 0x00, 0x08, 0x00, 0x00, 0x00, 0x64, 0x65, 0x6e, 0x73,
  0x65, 0x5f, 0x31, 0x33, 0x00, 0x00, 0x00, 0x00, 0x01, 0x00, 0x00, 0x00,
  0x04, 0x00, 0x00, 0x00, 0xe2, 0xb1, 0xff, 0xff, 0x04, 0x00, 0x00, 0x00,
  0x0e, 0x00, 0x00, 0x00, 0x64, 0x65, 0x6e, 0x73, 0x65, 0x5f, 0x31, 0x31,
  0x5f, 0x69, 0x6e, 0x70, 0x75, 0x74, 0x00, 0x00, 0x02, 0x00, 0x00, 0x00,
  0x34, 0x00, 0x00, 0x00, 0x04, 0x00, 0x00, 0x00, 0xdc, 0xff, 0xff, 0xff,
  0x0f, 0x00, 0x00, 0x00, 0x04, 0x00, 0x00, 0x00, 0x13, 0x00, 0x00, 0x00,
  0x43, 0x4f, 0x4e, 0x56, 0x45, 0x52, 0x53, 0x49, 0x4f, 0x4e, 0x5f, 0x4d,
  0x45, 0x54, 0x41, 0x44, 0x41, 0x54, 0x41, 0x00, 0x08, 0x00, 0x0c, 0x00,
  0x08, 0x00, 0x04, 0x00, 0x08, 0x00, 0x00, 0x00, 0x0e, 0x00, 0x00, 0x00,
  0x04, 0x00, 0x00, 0x00, 0x13, 0x00, 0x00, 0x00, 0x6d, 0x69, 0x6e, 0x5f,
  0x72, 0x75, 0x6e, 0x74, 0x69, 0x6d, 0x65, 0x5f, 0x76, 0x65, 0x72, 0x73,
  0x69, 0x6f, 0x6e, 0x00, 0x10, 0x00, 0x00, 0x00, 0xfc, 0x4c, 0x00, 0x00,
  0xf4, 0x4c, 0x00, 0x00, 0xbc, 0x4c, 0x00, 0x00, 0x34, 0x4c, 0x00, 0x00,
  0xf4, 0x4b, 0x00, 0x00, 0xc4, 0x4a, 0x00, 0x00, 0x54, 0x4a, 0x00, 0x00,
  0xc4, 0x00, 0x00, 0x00, 0xbc, 0x00, 0x00, 0x00, 0xb4, 0x00, 0x00, 0x00,
  0xac, 0x00, 0x00, 0x00, 0xa4, 0x00, 0x00, 0x00, 0x9c, 0x00, 0x00, 0x00,
  0x94, 0x00, 0x00, 0x00, 0x74, 0x00, 0x00, 0x00, 0x04, 0x00, 0x00, 0x00,
  0x9e, 0xb2, 0xff, 0xff, 0x04, 0x00, 0x00, 0x00, 0x60, 0x00, 0x00, 0x00,
  0x0c, 0x00, 0x00, 0x00, 0x08, 0x00, 0x0e, 0x00, 0x08, 0x00, 0x04, 0x00,
  0x08, 0x00, 0x00, 0x00, 0x10, 0x00, 0x00, 0x00, 0x28, 0x00, 0x00, 0x00,
  0x00, 0x00, 0x06, 0x00, 0x08, 0x00, 0x04, 0x00, 0x06, 0x00, 0x00, 0x00,
  0x04, 0x00, 0x00, 0x00, 0x01, 0x00, 0x00, 0x00, 0xeb, 0x03, 0x00, 0x00,
  0x0c, 0x00, 0x18, 0x00, 0x14, 0x00, 0x10, 0x00, 0x0c, 0x00, 0x04, 0x00,
  0x0c, 0x00, 0x00, 0x00, 0x76, 0xc3, 0xe2, 0x31, 0x9f, 0xf9, 0x47, 0x9b,
  0x02, 0x00, 0x00, 0x00, 0x02, 0x00, 0x00, 0x00, 0x04, 0x00, 0x00, 0x00,
  0x06, 0x00, 0x00, 0x00, 0x32, 0x2e, 0x32, 0x30, 0x2e, 0x30, 0x00, 0x00,
  0x0a, 0xb3, 0xff, 0xff, 0x04, 0x00, 0x00, 0x00, 0x10, 0x00, 0x00, 0x00,
  0x31, 0x2e, 0x31, 0x34, 0x2e, 0x30, 0x00, 0x00, 0x00, 0x00, 0x00, 0x00,
  0x00, 0x00, 0x00, 0x00, 0xf0, 0xb2, 0xff, 0xff, 0xf4, 0xb2, 0xff, 0xff,
  0xf8, 0xb2, 0xff, 0xff, 0xfc, 0xb2, 0xff, 0xff, 0x00, 0xb3, 0xff, 0xff,
  0x04, 0xb3, 0xff, 0xff, 0x3e, 0xb3, 0xff, 0xff, 0x04, 0x00, 0x00, 0x00,
  0x80, 0x49, 0x00, 0x00, 0xd7, 0x00, 0x00, 0x23, 0xba, 0xa5, 0xbd, 0xcc,
  0xe6, 0xdf, 0xd4, 0x15, 0x00, 0x1a, 0x21, 0xff, 0x15, 0x00, 0xea, 0xdb,
  0xbc, 0x81, 0x85, 0xb2, 0x29, 0x27, 0xff, 0x26, 0x00, 0x00, 0x00, 0x00,
  0xd1, 0xd9, 0xc6, 0xe9, 0xe4, 0x01, 0x00, 0x13, 0xff, 0x24, 0x25, 0x2c,
  0x2a, 0x1a, 0x16, 0x00, 0xf2, 0xe7, 0xda, 0xe7, 0xff, 0x2d, 0x15, 0x00,
  0x0d, 0xd3, 0xe4, 0xea, 0xda, 0xe2, 0xe6, 0x02, 0x02, 0x00, 0xff, 0xf0,
  0x15, 0x22, 0x23, 0x1d, 0x0e, 0xff, 0xff, 0xec, 0x00, 0xf4, 0x1b, 0x1b,
  0xff, 0x0f, 0x13, 0x28, 0xe3, 0xf0, 0x2b, 0xff, 0x02, 0x03, 0xf1, 0xf2,
  0xe8, 0x00, 0x00, 0xff, 0xff, 0xff, 0x10, 0xff, 0xff, 0xff, 0xff, 0xff,
  0xff, 0x00, 0x11, 0x21, 0x1e, 0x18, 0x0d, 0x13, 0x00, 0xfe, 0xe8, 0x18,
  0x13, 0x02, 0x01, 0xea, 0xf0, 0x00, 0x0f, 0xff, 0xff, 0xff, 0xff, 0xff,
  0xf0, 0xff, 0xff, 0xff, 0xff, 0xff, 0x00, 0x21, 0x18, 0xff, 0xfe, 0xee,
  0x45, 0xfe, 0xff, 0x01, 0x30, 0x01, 0x01, 0xf2, 0xeb, 0x00, 0xff, 0xff,
  0xff, 0xff, 0x0b, 0xff, 0xff, 0xff, 0xff, 0xff, 0xff, 0x00, 0x00, 0x13,
  0x15, 0x18, 0xfe, 0x22, 0x29, 0x14, 0xfe, 0x01, 0x2a, 0x18, 0x16, 0x0d,
  0x00, 0xeb, 0xff, 0xff, 0xff, 0xff, 0xff, 0xff, 0xff, 0xff, 0xff, 0xff,
  0xff, 0x00, 0x1a, 0x28, 0x1e, 0x23, 0xfe, 0x0f, 0x3a, 0x0d, 0xff, 0x01,
  0x26, 0x12, 0x11, 0x01, 0x00, 0xef, 0xff, 0xff, 0xff, 0xf2, 0xee, 0xec,
  0xee, 0xff, 0xff, 0xff, 0xee, 0x00, 0x11, 0x17, 0x1e, 0x17, 0xfe, 0x23,
  0x46, 0xff, 0x16, 0x29, 0x2f, 0x14, 0x0d, 0x00, 0xf3, 0x00, 0x0c, 0xff,
  0xff, 0xff, 0xff, 0xff, 0xff, 0xff, 0xff, 0xff, 0xff, 0x0d, 0x13, 0x18,
  0x0d, 0xff, 0xff, 0x2e, 0x28, 0x00, 0x00, 0x23, 0x1b, 0x17, 0x00, 0xff,
  0x00, 0x10, 0xff, 0xff, 0xf1, 0xfe, 0xff, 0xf0, 0xff, 0xff, 0x12, 0xff,
  0xe7, 0xff, 0x10, 0x0e, 0x10, 0xff, 0x00, 0x0f, 0xf2, 0xe7, 0xef, 0xed,
  0x01, 0x00, 0x01, 0xed, 0x00, 0x13, 0xff, 0xff, 0xec, 0xe9, 0xff, 0xe3,
  0xff, 0xff, 0x10, 0xff, 0xff, 0x0e, 0xff, 0xff, 0xff, 0xe4, 0xe2, 0xed,
  0x25, 0xe9, 0x00, 0x01, 0x00, 0x00, 0x00, 0xff, 0xff, 0x0d, 0x0b, 0xfe,
  0xf2, 0xe9, 0xff, 0xff, 0xff, 0xff, 0x0e, 0x11, 0xff, 0xff, 0xff, 0xff,
  0xff, 0xd4, 0xc7, 0xf1, 0x5f, 0xff, 0x01, 0x01, 0x00, 0xff, 0x00, 0xf2,
  0xf2, 0x00, 0xff, 0xfe, 0xf1, 0xf2, 0xe3, 0xeb, 0xff, 0xff, 0xff, 0xff,
  0xff, 0xff, 0xff, 0xf2, 0xed, 0xce, 0xcc, 0xec, 0x2f, 0x00, 0xf2, 0x00,
  0x00, 0x14, 0x00, 0xff, 0x00, 0x00, 0xff, 0xff, 0xfe, 0xfe, 0xff, 0xe7,
  0xff, 0xff, 0xff, 0xff, 0xed, 0xff, 0xff, 0xe7, 0xff, 0xda, 0xff, 0x26,
  0x18, 0xf1, 0xee, 0x00, 0x00, 0xff, 0x00, 0xff, 0xff, 0xff, 0x15, 0x10,
  0xfe, 0xff, 0xff, 0xec, 0xff, 0x0c, 0xff, 0xff, 0xff, 0xff, 0xff, 0xff,
  0xff, 0xe9, 0xe0, 0x2e, 0x1a, 0x02, 0x01, 0x01, 0x00, 0x00, 0x0d, 0xff,
  0xff, 0xff, 0xff, 0xff, 0xfe, 0xfe, 0x0d, 0xfe, 0xff, 0x14, 0xff, 0xff,
  0xff, 0x00, 0xed, 0xff, 0xff, 0xf2, 0x00, 0x24, 0x18, 0x00, 0x00, 0x17,
  0xff, 0x00, 0x0d, 0x0e, 0xff, 0x0f, 0xff, 0xff, 0xff, 0xff, 0xff, 0xff,
  0xff, 0xff, 0xff, 0xff, 0xff, 0xff, 0x00, 0xff, 0xff, 0xff, 0x00, 0x1c,
  0x1e, 0xff, 0x00, 0xf2, 0x00, 0x00, 0x00, 0xff, 0xff, 0x11, 0xff, 0xff,
  0xfe, 0x0e, 0xff, 0xf0, 0xff, 0xff, 0xff, 0x00, 0xff, 0xff, 0x00, 0xff,
  0xff, 0x00, 0xff, 0x15, 0x00, 0x0e, 0x00, 0x00, 0xeb, 0x00, 0x00, 0xff,
  0x0c, 0x12, 0x11, 0x18, 0xff, 0xff, 0xff, 0xff, 0xff, 0xff, 0xff, 0xff,
  0xff, 0xff, 0x00, 0xff, 0xec, 0x12, 0xf2, 0x01, 0xd6, 0xe6, 0xff, 0x00,
  0x00, 0x00, 0x00, 0xff, 0x11, 0xff, 0x0c, 0xff, 0xff, 0x0d, 0x12, 0xff,
  0x0f, 0xff, 0xff, 0xed, 0x00, 0x00, 0xf0, 0x13, 0xff, 0x21, 0x00, 0x01,
  0xd5, 0xd2, 0xdf, 0xf2, 0xe9, 0x00, 0xff, 0xff, 0xff, 0xff, 0x13, 0xff,
  0xff, 0xff, 0x19, 0xff, 0xee, 0xff, 0xff, 0xff, 0x00, 0xff, 0x00, 0x00,
  0xee, 0x17, 0x00, 0xf0, 0xe0, 0x00, 0x00, 0x00, 0x00, 0x00, 0x00, 0xff,
  0xff, 0xff, 0x0d, 0x0e, 0xff, 0x0e, 0x19, 0xff, 0xff, 0xff, 0xff, 0xef,
  0x00, 0xff, 0x00, 0x0f, 0xff, 0x0d, 0x00, 0x00, 0xda, 0xe2, 0x00, 0x00,
  0x00, 0x00, 0xff, 0xed, 0x00, 0x0c, 0x13, 0xff, 0xff, 0xff, 0x0d, 0xff,
  0xff, 0xff, 0xff, 0x00, 0x00, 0xff, 0x00, 0x17, 0xff, 0x13, 0x13, 0x00,
  0xdb, 0xe4, 0x00, 0x17, 0x00, 0x00, 0xff, 0xff, 0xe9, 0xff, 0x0e, 0xff,
  0xff, 0xff, 0xff, 0xff, 0xff, 0xff, 0x00, 0x00, 0xe8, 0xff, 0xf3, 0x00,
  0x00, 0x00, 0x11, 0xd7, 0xf2, 0xf0, 0x00, 0x10, 0x0e, 0xea, 0xf1, 0xe6,
  0x00, 0x00, 0xff, 0xff, 0xff, 0xed, 0xf2, 0xf1, 0xff, 0xff, 0x00, 0x00,
  0x01, 0xff, 0xf3, 0x00, 0x1c, 0x00, 0x12, 0x00, 0x02, 0x01, 0x00, 0x01,
  0x00, 0xf2, 0xdb, 0xe7, 0x00, 0x00, 0x00, 0xff, 0xff, 0xe6, 0xff, 0xff,
  0x00, 0xff, 0x00, 0x01, 0x01, 0xe4, 0x00, 0x0e, 0x0e, 0xf3, 0x00, 0x00,
  0x21, 0x12, 0xe1, 0xf1, 0x00, 0xff, 0xdc, 0xe5, 0xff, 0x0f, 0xf3, 0x00,
  0xff, 0xf3, 0xef, 0xe6, 0x00, 0x00, 0x00, 0x13, 0x00, 0xf1, 0x00, 0x15,
  0xe7, 0xeb, 0xf1, 0xe8, 0x00, 0x00, 0x21, 0x27, 0x21, 0x26, 0x0d, 0xff,
  0xfe, 0xea, 0xed, 0x00, 0xff, 0xff, 0x13, 0x00, 0x00, 0xe9, 0x00, 0x1b,
  0x1e, 0x2f, 0x22, 0x3a, 0x2f, 0x00, 0xde, 0xe7, 0x00, 0x00, 0xea, 0xe1,
  0x00, 0x1b, 0x16, 0x00, 0x1c, 0xe8, 0x00, 0xec, 0xed, 0x01, 0xdc, 0xec,
  0xec, 0xe9, 0xcf, 0xe3, 0x00, 0x17, 0x36, 0x00, 0xe8, 0xec, 0x17, 0x00,
  0x00, 0x00, 0xcc, 0xda, 0x00, 0x23, 0x00, 0x1b, 0x00, 0x00, 0xd8, 0xce,
  0xd8, 0xd4, 0xd7, 0xbf, 0xc7, 0xcf, 0xe5, 0x00, 0x00, 0x00, 0x29, 0x21,
  0x00, 0x1f, 0x00, 0x00, 0x1a, 0x00, 0x00, 0xd8, 0x00, 0x00, 0x00, 0x00,
  0x01, 0x00, 0x01, 0x01, 0xda, 0xdf, 0x00, 0xe5, 0x00, 0x01, 0x01, 0x00,
  0x00, 0xe6, 0x00, 0x15, 0x15, 0x00, 0x24, 0x00, 0x1c, 0x1b, 0x15, 0xe4,
  0x00, 0x00, 0x00, 0x00, 0x00, 0x01, 0x01, 0xff, 0x00, 0xff, 0xff, 0xe7,
  0xe2, 0xdd, 0xe1, 0xe8, 0x00, 0x01, 0x00, 0x00, 0x23, 0x1b, 0x00, 0x00,
  0x00, 0x00, 0x23, 0x00, 0x18, 0x15, 0x00, 0x00, 0x00, 0x01, 0x14, 0x00,
  0x00, 0xff, 0x00, 0xff, 0xe2, 0x00, 0x01, 0x01, 0x00, 0x1f, 0x00, 0x2a,
  0x14, 0x00, 0x00, 0x16, 0xed, 0x00, 0xe3, 0xd4, 0x00, 0x00, 0x19, 0x02,
  0x01, 0x01, 0x00, 0xde, 0xe2, 0xff, 0xfe, 0x17, 0xd6, 0xb3, 0xd4, 0xe3,
  0x16, 0x00, 0x34, 0x15, 0x20, 0x2b, 0xcb, 0xb7, 0x2c, 0xc0, 0xed, 0xd5,
  0xe6, 0xe6, 0x02, 0x02, 0x01, 0x01, 0xe0, 0xea, 0xfe, 0xff, 0x20, 0x02,
  0x01, 0xfe, 0x12, 0x01, 0x01, 0x18, 0x1e, 0x00, 0x2e, 0x27, 0xbd, 0xdf,
  0xd5, 0x1e, 0x13, 0x00, 0x00, 0x00, 0xe5, 0xeb, 0xe7, 0xb7, 0xda, 0x2a,
  0x03, 0x15, 0x41, 0x01, 0xcd, 0xcf, 0xac, 0xc5, 0x01, 0x13, 0xff, 0xfe,
  0x24, 0xff, 0x2b, 0xe3, 0x14, 0x9d, 0xda, 0xdf, 0xe3, 0xd7, 0xeb, 0x14,
  0x15, 0x18, 0x16, 0xff, 0x00, 0x00, 0x21, 0x19, 0xcc, 0xa1, 0x81, 0xb3,
  0xed, 0x01, 0x01, 0x02, 0x1c, 0x17, 0x18, 0xe9, 0xbb, 0x93, 0x9a, 0xc7,
  0xc4, 0xb6, 0xfe, 0xff, 0xee, 0x28, 0x14, 0x02, 0x22, 0x13, 0xfe, 0xed,
  0xda, 0x9d, 0xb9, 0x00, 0x16, 0x17, 0xe4, 0xd5, 0x00, 0x00, 0x00, 0x01,
  0xa6, 0xb5, 0xc5, 0xd9, 0xff, 0x12, 0xff, 0x16, 0x31, 0x20, 0xff, 0xcf,
  0xff, 0x2a, 0x14, 0xe8, 0xfd, 0xd7, 0xed, 0x01, 0x3f, 0x18, 0x01, 0x00,
  0x22, 0x00, 0xc7, 0xed, 0x98, 0x98, 0xcd, 0x17, 0xfe, 0x20, 0x23, 0x36,
  0x31, 0xff, 0xea, 0xd2, 0x00, 0xff, 0x00, 0x00, 0xfe, 0xea, 0xff, 0x1a,
  0x1c, 0x23, 0x16, 0xff, 0x13, 0x00, 0xd9, 0xaf, 0xec, 0xe6, 0xfc, 0xe8,
  0xfd, 0xff, 0x1c, 0x33, 0x00, 0xff, 0x00, 0x13, 0x00, 0x00, 0x00, 0xff,
  0x1c, 0xff, 0xdd, 0xed, 0x00, 0x21, 0x17, 0xff, 0x00, 0xdf, 0xd1, 0xa7,
  0xfd, 0x15, 0x1e, 0xe3, 0xff, 0x34, 0x21, 0x00, 0x00, 0xe5, 0xe8, 0xdc,
  0xff, 0xe9, 0x00, 0x01, 0x00, 0x1f, 0xff, 0x1e, 0x12, 0xff, 0x00, 0xff,
  0xde, 0xc3, 0xa5, 0xc4, 0x45, 0x2a, 0xfc, 0xdd, 0xe4, 0x37, 0x1b, 0x00,
  0xff, 0xff, 0xe8, 0xdf, 0x00, 0x00, 0x01, 0x19, 0xff, 0x1c, 0x17, 0x1a,
  0xff, 0xff, 0x14, 0x14, 0xd0, 0xbd, 0xde, 0xe9, 0x21, 0xfe, 0xe7, 0xe9,
  0xff, 0x2f, 0x2b, 0xff, 0x00, 0x00, 0x00, 0xe3, 0x00, 0xff, 0x00, 0x00,
  0x01, 0x15, 0x13, 0x21, 0x19, 0x1f, 0x17, 0xe0, 0xe7, 0xcc, 0xfe, 0x00,
  0x01, 0x27, 0xff, 0xff, 0x1b, 0x3e, 0x1a, 0x1c, 0x14, 0x00, 0x00, 0x17,
  0x00, 0x00, 0x00, 0x00, 0x01, 0x01, 0x1b, 0x1b, 0x00, 0xff, 0x13, 0x01,
  0x01, 0x01, 0x00, 0xe2, 0x01, 0x2d, 0x23, 0x14, 0x19, 0x29, 0x01, 0x01,
  0x00, 0x00, 0x01, 0x01, 0x01, 0x01, 0x1a, 0xe5, 0xec, 0x01, 0x01, 0x01,
  0x01, 0x17, 0x01, 0x01, 0x14, 0x01, 0x01, 0x1e, 0xcf, 0xff, 0x25, 0x2e,
  0x12, 0x00, 0xe2, 0x00, 0x00, 0x00, 0x00, 0x00, 0x01, 0x01, 0x00, 0x00,
  0x00, 0x00, 0xff, 0xff, 0xff, 0x01, 0x01, 0x01, 0x01, 0x29, 0x1d, 0x30,
  0x00, 0x1e, 0x2a, 0x1c, 0xfd, 0x31, 0xe2, 0xff, 0xfe, 0xfe, 0xfe, 0xfe,
  0xfe, 0xfe, 0xfd, 0xcd, 0xcd, 0xd1, 0xd7, 0xfc, 0xfd, 0xe4, 0xfe, 0xfe,
  0xfe, 0x16, 0x16, 0x00, 0x00, 0x19, 0x43, 0x2f, 0xfe, 0xfe, 0xfd, 0xfd,
  0xe5, 0xfd, 0xfe, 0xfe, 0xfe, 0xe9, 0xdb, 0xa8, 0xce, 0xb7, 0xe3, 0xe9,
  0xfd, 0xfe, 0xfe, 0xfd, 0xe4, 0xff, 0x1e, 0xc9, 0x21, 0x00, 0x1c, 0x00,
  0x00, 0xff, 0xff, 0x15, 0x15, 0xfe, 0x1c, 0xff, 0xff, 0xec, 0xe5, 0x00,
  0x00, 0x00, 0x00, 0xeb, 0xeb, 0xfe, 0x00, 0x00, 0x26, 0x00, 0x00, 0xe6,
  0x1d, 0xe9, 0x00, 0x00, 0xe4, 0xe7, 0x02, 0x00, 0x14, 0x00, 0x00, 0x00,
  0x00, 0x00, 0x00, 0x00, 0x00, 0x02, 0xec, 0xe0, 0xc8, 0xde, 0xdc, 0x03,
  0x00, 0x00, 0x00, 0x00, 0x00, 0xe1, 0xdf, 0xcb, 0xbd, 0xbd, 0xe2, 0x00,
  0x00, 0x00, 0x00, 0x00, 0x00, 0x00, 0x01, 0x1d, 0x00, 0x00, 0x00, 0x00,
  0xe9, 0x00, 0xff, 0xeb, 0xff, 0xff, 0x12, 0x00, 0xd6, 0x00, 0xff, 0xd9,
  0xe1, 0xec, 0x00, 0x00, 0x00, 0x00, 0x00, 0x00, 0x00, 0x00, 0x14, 0x00,
  0x17, 0x00, 0x00, 0x00, 0xe1, 0xd9, 0xdd, 0xcf, 0xd7, 0xc6, 0xff, 0xe4,
  0xde, 0x00, 0x00, 0x00, 0x00, 0xff, 0xff, 0x15, 0x01, 0x13, 0x18, 0x13,
  0x00, 0x1b, 0x00, 0x00, 0x01, 0x01, 0x01, 0x01, 0xe0, 0xe4, 0xce, 0xd2,
  0xda, 0xdc, 0x00, 0x00, 0xe2, 0x00, 0x00, 0x00, 0x00, 0xe2, 0xda, 0x13,
  0x01, 0x25, 0x1c, 0x01, 0x01, 0x1c, 0x01, 0x01, 0xde, 0x01, 0x01, 0x01,
  0xe9, 0xea, 0xc4, 0xdf, 0xeb, 0xe1, 0x00, 0x00, 0x00, 0x00, 0x00, 0xda,
  0xdd, 0xe0, 0xcc, 0x00, 0x01, 0x14, 0x01, 0x01, 0xe8, 0xe5, 0xe2, 0xdf,
  0xe8, 0x01, 0x01, 0x01, 0xe1, 0xe9, 0xe1, 0x00, 0x00, 0x00, 0x00, 0x00,
  0x61, 0xd8, 0xd5, 0xb6, 0x33, 0x48, 0x5e, 0x3c, 0xfd, 0x25, 0x54, 0x2c,
  0x41, 0x41, 0x00, 0x41, 0x2b, 0x21, 0xff, 0xff, 0xe2, 0x49, 0x37, 0x26,
  0xc2, 0xea, 0x13, 0xcb, 0x1c, 0xe4, 0xb1, 0xbc, 0x03, 0xeb, 0x2d, 0x28,
  0x34, 0x3a, 0x20, 0x1e, 0x1f, 0x29, 0x1c, 0x00, 0x21, 0x1e, 0x3a, 0x00,
  0xff, 0xff, 0xff, 0xe3, 0xa1, 0xc8, 0xcb, 0xb0, 0x2a, 0x1b, 0x04, 0x9c,
  0xe3, 0xe4, 0x02, 0x03, 0x01, 0x16, 0x00, 0xff, 0xff, 0xff, 0x33, 0xff,
  0xff, 0xdc, 0x00, 0xe5, 0xe8, 0x01, 0xea, 0xdf, 0xdd, 0xc4, 0x04, 0xbd,
  0x7f, 0x03, 0xd9, 0x03, 0x01, 0x02, 0xc0, 0x01, 0x01, 0x00, 0x00, 0x01,
  0x00, 0xff, 0x00, 0x16, 0x00, 0xe8, 0x00, 0xda, 0x00, 0xe9, 0xee, 0xc7,
  0xb9, 0x01, 0x03, 0x03, 0x42, 0x03, 0x01, 0xc3, 0x01, 0x02, 0x01, 0x02,
  0x01, 0x00, 0x00, 0x28, 0x01, 0xff, 0x15, 0x00, 0x00, 0x00, 0xff, 0xe5,
  0xdf, 0xe0, 0xd5, 0xd6, 0xbb, 0xde, 0x02, 0xde, 0xd3, 0x03, 0x1a, 0x02,
  0xdd, 0x01, 0x01, 0x02, 0x01, 0x18, 0x1b, 0x00, 0x00, 0x00, 0x00, 0x00,
  0xeb, 0xe4, 0xdd, 0xe4, 0xde, 0xe2, 0x00, 0xdf, 0x00, 0xd1, 0x04, 0xcd,
  0xec, 0x04, 0xe4, 0x02, 0x02, 0x01, 0x02, 0x02, 0x01, 0x35, 0x18, 0x17,
  0xff, 0xff, 0x00, 0xd7, 0xe7, 0x00, 0xdd, 0xd9, 0x01, 0x00, 0x00, 0xec,
  0xe4, 0xe3, 0xd4, 0xcd, 0x02, 0xeb, 0xed, 0x18, 0x02, 0x01, 0x02, 0x02,
  0x01, 0x32, 0x15, 0x18, 0xff, 0x00, 0x00, 0x00, 0x00, 0x00, 0xdd, 0xd4,
  0x01, 0x00, 0x00, 0x01, 0xeb, 0xff, 0xe5, 0x3b, 0x03, 0x01, 0xd9, 0x03,
  0xeb, 0x02, 0x03, 0x02, 0xe6, 0x00, 0x00, 0x00, 0xff, 0x00, 0x00, 0x00,
  0x00, 0xd5, 0xe1, 0xe4, 0x01, 0x00, 0x00, 0x00, 0xd1, 0xfe, 0xcd, 0xed,
  0xa7, 0x31, 0xe2, 0x03, 0x03, 0x02, 0x03, 0x02, 0x01, 0x17, 0x00, 0x00,
  0xff, 0x00, 0xff, 0x00, 0xe6, 0xd9, 0xff, 0xff, 0x21, 0x00, 0xff, 0xff,
  0x1a, 0xfd, 0xc9, 0x16, 0x12, 0x01, 0x04, 0x1b, 0x03, 0x02, 0x03, 0x17,
  0x01, 0x14, 0x00, 0xff, 0xff, 0x00, 0xff, 0xe9, 0xff, 0xff, 0xff, 0xeb,
  0x00, 0x14, 0xff, 0xff, 0x12, 0x15, 0xfc, 0x12, 0x23, 0x19, 0xe1, 0x1e,
  0x19, 0x02, 0x03, 0x1c, 0x01, 0x13, 0x00, 0xff, 0xff, 0x00, 0xff, 0xe7,
  0xff, 0xff, 0xff, 0xff, 0x32, 0x1c, 0xff, 0xff, 0xff, 0xff, 0xfd, 0x00,
  0xd4, 0xd5, 0xf2, 0x17, 0x03, 0xed, 0x03, 0x03, 0x01, 0x00, 0x00, 0xff,
  0xff, 0x00, 0x12, 0xe9, 0xeb, 0xff, 0xff, 0x00, 0x1d, 0x00, 0x00, 0x00,
  0x00, 0xff, 0xe8, 0xe3, 0xe0, 0xa8, 0xd7, 0x03, 0x03, 0x17, 0x03, 0x03,
  0x01, 0x00, 0x00, 0xff, 0xff, 0x1c, 0xff, 0xff, 0xff, 0xff, 0xff, 0x00,
  0x00, 0x01, 0x00, 0xe5, 0xff, 0xff, 0xfe, 0xff, 0xbf, 0xc7, 0xcd, 0x03,
  0x03, 0x03, 0x03, 0x03, 0x01, 0x00, 0xff, 0xff, 0x00, 0xff, 0xff, 0xea,
  0xff, 0x00, 0xff, 0x00, 0x00, 0x00, 0x00, 0xda, 0xec, 0xe9, 0xfe, 0xfd,
  0xed, 0xe0, 0xdc, 0x04, 0x03, 0x03, 0x03, 0x02, 0x18, 0xff, 0xff, 0xfe,
  0xff, 0xff, 0xff, 0xff, 0xff, 0xff, 0xff, 0x00, 0x01, 0xe4, 0xeb, 0xec,
  0x00, 0xec, 0xfe, 0x11, 0xd4, 0xe6, 0x02, 0x03, 0xee, 0x02, 0x02, 0x1d,
  0x26, 0xff, 0xff, 0x12, 0xff, 0xff, 0xff, 0xff, 0xff, 0xff, 0xff, 0x00,
  0x1c, 0x00, 0xec, 0x00, 0x00, 0x00, 0x13, 0xfc, 0xca, 0x13, 0x01, 0x01,
  0x1d, 0x01, 0x02, 0x18, 0x00, 0x19, 0x1c, 0xff, 0x00, 0xff, 0x23, 0xff,
  0xff, 0xff, 0xff, 0xff, 0x01, 0x01, 0x01, 0xe7, 0x01, 0x01, 0xff, 0xfe,
  0xdc, 0xfe, 0xeb, 0x16, 0x00, 0x01, 0x01, 0x1d, 0x1c, 0x18, 0xff, 0x14,
  0x1d, 0x1d, 0x1b, 0xff, 0xff, 0xff, 0xff, 0xff, 0x01, 0x01, 0x01, 0xe4,
  0x17, 0x00, 0xff, 0xfd, 0xdb, 0xed, 0x01, 0x01, 0x01, 0x1c, 0x28, 0x27,
  0x1c, 0xff, 0x20, 0x2e, 0xff, 0x1e, 0x16, 0xff, 0xfe, 0xfe, 0xfe, 0xfe,
  0x1b, 0x1c, 0x01, 0x00, 0x13, 0x23, 0xff, 0xc0, 0xe2, 0x03, 0xef, 0xcf,
  0x01, 0x01, 0x22, 0x19, 0xff, 0x2f, 0x1b, 0x28, 0x15, 0x20, 0xfe, 0xff,
  0xff, 0xff, 0xe4, 0xff, 0x00, 0x01, 0x01, 0xe8, 0x00, 0x1d, 0xe9, 0xe0,
  0x31, 0x1d, 0xe9, 0xe9, 0x02, 0x02, 0x27, 0x00, 0xff, 0x22, 0x2d, 0x2d,
  0xff, 0x24, 0x29, 0xff, 0xff, 0xff, 0xff, 0xfe, 0x00, 0x01, 0x01, 0x01,
  0x01, 0x01, 0x02, 0x00, 0x06, 0xeb, 0xec, 0x02, 0xe4, 0x02, 0x02, 0x00,
  0xff, 0x19, 0x2b, 0x14, 0x15, 0x23, 0xff, 0xff, 0xff, 0xff, 0xff, 0xfe,
  0x13, 0x02, 0x02, 0x01, 0xec, 0x25, 0x21, 0x05, 0xef, 0xdb, 0x02, 0x01,
  0x01, 0x01, 0x20, 0x00, 0x26, 0x17, 0x20, 0xff, 0xff, 0xff, 0xff, 0xff,
  0xfe, 0xfe, 0xfe, 0xfe, 0xff, 0x16, 0x02, 0xde, 0x01, 0x02, 0x1a, 0x1f,
  0xce, 0xd8, 0x00, 0xed, 0x16, 0x01, 0x00, 0x15, 0x14, 0xfe, 0xff, 0x1a,
  0xff, 0xff, 0xff, 0xff, 0x14, 0xfe, 0x1c, 0x25, 0xff, 0x1b, 0x02, 0x00,
  0x18, 0x01, 0x21, 0x30, 0x03, 0xea, 0xdc, 0x01, 0x00, 0x00, 0x19, 0x19,
  0xfe, 0xfe, 0x12, 0x19, 0xff, 0xff, 0xfe, 0xfe, 0x1d, 0xfe, 0x23, 0xfe,
  0x1c, 0x2f, 0x19, 0x00, 0x00, 0x01, 0xec, 0xd8, 0xef, 0x3d, 0x01, 0x27,
  0x00, 0x00, 0xff, 0xfe, 0xfe, 0xfe, 0xfe, 0x1d, 0xfe, 0xfe, 0xfe, 0xfe,
  0x11, 0xfd, 0x16, 0xfe, 0x33, 0x30, 0x1c, 0x00, 0x00, 0x27, 0x17, 0xec,
  0x7e, 0x55, 0x63, 0x5f, 0x24, 0x00, 0xff, 0xfd, 0xfe, 0xff, 0xfe, 0xfe,
  0xfe, 0x1e, 0x1d, 0xfe, 0x16, 0xfd, 0x12, 0xfd, 0xfe, 0xe4, 0x00, 0x00,
  0x00, 0x00, 0x03, 0x34, 0x00, 0x00, 0x00, 0x00, 0x00, 0x00, 0x00, 0x00,
  0x00, 0x00, 0x00, 0x00, 0x00, 0x00, 0x00, 0x00, 0x00, 0x00, 0x00, 0x00,
  0x00, 0x00, 0x00, 0x00, 0x00, 0x00, 0x00, 0x00, 0x00, 0x00, 0x00, 0x00,
  0x00, 0x00, 0x00, 0x00, 0x00, 0x00, 0x00, 0x00, 0x00, 0x00, 0x00, 0x00,
  0x00, 0x00, 0x00, 0x00, 0x00, 0x00, 0x00, 0x00, 0x00, 0x00, 0x00, 0x00,
  0x00, 0x00, 0x00, 0x00, 0x00, 0x00, 0x00, 0x00, 0x00, 0x00, 0x00, 0x00,
  0x00, 0x00, 0x00, 0x00, 0x00, 0x00, 0x00, 0x00, 0x00, 0x00, 0x00, 0x00,
  0x00, 0x00, 0x00, 0x00, 0x00, 0x00, 0x00, 0x00, 0x00, 0x00, 0x00, 0x00,
  0x00, 0x00, 0x00, 0x00, 0x00, 0x00, 0x00, 0x00, 0x00, 0x00, 0x00, 0x00,
  0x00, 0x00, 0x00, 0x00, 0x00, 0x00, 0x00, 0x00, 0x00, 0x00, 0x00, 0x00,
  0x00, 0x00, 0x00, 0x00, 0x00, 0x00, 0x00, 0x00, 0x00, 0x00, 0x00, 0x00,
  0x00, 0x00, 0x00, 0x00, 0x00, 0x00, 0x00, 0x00, 0x00, 0x00, 0x00, 0x00,
  0x00, 0x00, 0x00, 0x00, 0x00, 0x00, 0x00, 0x00, 0x00, 0x00, 0x00, 0x00,
  0x00, 0x00, 0x00, 0x00, 0x00, 0x00, 0x00, 0x00, 0x00, 0x00, 0x00, 0x00,
  0x00, 0x00, 0x00, 0x00, 0x00, 0x00, 0x00, 0x00, 0x00, 0x00, 0x00, 0x00,
  0x00, 0x00, 0x00, 0x00, 0x00, 0x00, 0x00, 0x00, 0x00, 0x00, 0x00, 0x00,
  0x00, 0x00, 0x00, 0x00, 0x00, 0x00, 0x00, 0x00, 0x00, 0x00, 0x00, 0x00,
  0x00, 0x00, 0x00, 0x00, 0x00, 0x00, 0x00, 0x00, 0x00, 0x00, 0x00, 0x00,
  0x00, 0x00, 0x00, 0x00, 0x00, 0x00, 0x00, 0x00, 0x00, 0x00, 0x00, 0x00,
  0x00, 0x00, 0x00, 0x00, 0x00, 0x00, 0x00, 0x00, 0x00, 0x00, 0x00, 0x00,
  0x00, 0x00, 0x00, 0x00, 0x00, 0x00, 0x00, 0x00, 0x00, 0x00, 0x00, 0x00,
  0x00, 0x00, 0x00, 0x00, 0x00, 0x00, 0x00, 0x00, 0x00, 0x00, 0x00, 0x00,
  0x00, 0x00, 0x00, 0x00, 0x00, 0x00, 0x00, 0x00, 0x00, 0x00, 0x00, 0x00,
  0x00, 0x00, 0x00, 0x00, 0x00, 0x00, 0x00, 0x00, 0x00, 0x00, 0x00, 0x00,
  0x00, 0x00, 0x00, 0x00, 0x00, 0x00, 0x00, 0x00, 0x00, 0x00, 0x00, 0x00,
  0x00, 0x00, 0x00, 0x00, 0x00, 0x00, 0x00, 0x00, 0x00, 0x00, 0x00, 0x00,
  0x00, 0x00, 0x00, 0x00, 0x00, 0x00, 0x00, 0x00, 0x00, 0x00, 0x00, 0x00,
  0x00, 0x00, 0x00, 0x00, 0x00, 0x00, 0x00, 0x00, 0x00, 0x00, 0x00, 0x00,
  0x00, 0x00, 0x00, 0x00, 0x00, 0x00, 0x00, 0x00, 0x00, 0x00, 0x00, 0x00,
  0x00, 0x00, 0x00, 0x00, 0x00, 0x00, 0x00, 0x00, 0x00, 0x00, 0x00, 0x00,
  0x00, 0x00, 0x00, 0x00, 0x00, 0x00, 0x00, 0x00, 0x00, 0x00, 0x00, 0x00,
  0x00, 0x00, 0x00, 0x00, 0x00, 0x00, 0x00, 0x00, 0x00, 0x00, 0x00, 0x00,
  0x00, 0x00, 0x00, 0x00, 0x00, 0x00, 0x00, 0x00, 0x00, 0x00, 0x00, 0x00,
  0x00, 0x00, 0x00, 0x00, 0x00, 0x00, 0x00, 0x00, 0x00, 0x00, 0x00, 0x00,
  0x00, 0x00, 0x00, 0x00, 0x00, 0x00, 0x00, 0x00, 0x00, 0x00, 0x00, 0x00,
  0x00, 0x00, 0x00, 0x00, 0x00, 0x00, 0x00, 0x00, 0x00, 0x00, 0x00, 0x00,
  0x00, 0x00, 0x00, 0x00, 0x00, 0x00, 0x00, 0x00, 0x00, 0x00, 0x00, 0x00,
  0x00, 0x00, 0x00, 0x00, 0x00, 0x00, 0x00, 0x00, 0x00, 0x00, 0x00, 0x00,
  0x00, 0x00, 0x00, 0x00, 0x00, 0x00, 0x00, 0x00, 0x00, 0x00, 0x00, 0x00,
  0x00, 0x00, 0x00, 0x00, 0x00, 0x00, 0x00, 0x00, 0x00, 0x00, 0x00, 0x00,
  0x00, 0x00, 0x00, 0x00, 0x00, 0x00, 0x00, 0x00, 0x00, 0x00, 0x00, 0x00,
  0x00, 0x00, 0x00, 0x00, 0x00, 0x00, 0x00, 0x00, 0x00, 0x00, 0x00, 0x00,
  0x00, 0x00, 0x00, 0x00, 0x00, 0x00, 0x00, 0x00, 0x00, 0x00, 0x00, 0x00,
  0x00, 0x00, 0x00, 0x00, 0x00, 0x00, 0x00, 0x00, 0x00, 0x00, 0x00, 0x00,
  0x00, 0x00, 0x00, 0x00, 0x00, 0x00, 0x00, 0x00, 0x00, 0x00, 0x00, 0x00,
  0x00, 0x00, 0x00, 0x00, 0x00, 0x00, 0x00, 0x00, 0x00, 0x00, 0x00, 0x00,
  0x00, 0x00, 0x00, 0x00, 0x00, 0x00, 0x00, 0x00, 0x00, 0x00, 0x00, 0x00,
  0x00, 0x00, 0x00, 0x00, 0x00, 0x00, 0x00, 0x00, 0x00, 0x00, 0x00, 0x00,
  0x00, 0x00, 0x00, 0x00, 0x00, 0x00, 0x00, 0x00, 0x00, 0x00, 0x00, 0x00,
  0x00, 0x00, 0x00, 0x00, 0x00, 0x00, 0x00, 0x00, 0x00, 0x00, 0x00, 0x00,
  0x00, 0x00, 0x00, 0x00, 0x00, 0x00, 0x00, 0x00, 0x00, 0x00, 0x00, 0x00,
  0x00, 0x00, 0x00, 0x00, 0x00, 0x00, 0x00, 0x00, 0x00, 0x00, 0x00, 0x00,
  0x00, 0x00, 0x00, 0x00, 0x00, 0x00, 0x00, 0x00, 0x00, 0x00, 0x00, 0x00,
  0x00, 0x00, 0x00, 0x00, 0x00, 0x00, 0x00, 0x00, 0x00, 0x00, 0x00, 0x00,
  0x00, 0x00, 0x00, 0x00, 0x00, 0x00, 0x00, 0x00, 0x00, 0x00, 0x00, 0x00,
  0x00, 0x00, 0x00, 0x00, 0x00, 0x00, 0x00, 0x00, 0x00, 0x00, 0x00, 0x00,
  0x00, 0x00, 0x00, 0x00, 0x00, 0x00, 0x00, 0x00, 0x00, 0x00, 0x00, 0x00,
  0x00, 0x00, 0x00, 0x00, 0x00, 0x00, 0x00, 0x00, 0x00, 0x00, 0x00, 0x00,
  0x00, 0x00, 0x00, 0x00, 0x00, 0x00, 0x00, 0x00, 0x00, 0x00, 0x00, 0x00,
  0x00, 0x00, 0x00, 0x00, 0x00, 0x00, 0x00, 0x00, 0x00, 0x00, 0x00, 0x00,
  0x00, 0x00, 0x00, 0x00, 0x00, 0x00, 0x00, 0x00, 0x00, 0x00, 0x00, 0x00,
  0x00, 0x00, 0x00, 0x00, 0x00, 0x00, 0x00, 0x00, 0x00, 0x00, 0x00, 0x00,
  0x00, 0x00, 0x00, 0x00, 0x00, 0x00, 0x00, 0x00, 0x00, 0x00, 0x00, 0x00,
  0x00, 0x00, 0x00, 0x00, 0x00, 0x00, 0x00, 0x00, 0x00, 0x00, 0x00, 0x00,
  0x00, 0x00, 0x00, 0x00, 0x00, 0x00, 0x00, 0x00, 0x00, 0x00, 0x00, 0x00,
  0x00, 0x00, 0x00, 0x00, 0x00, 0x00, 0x00, 0x00, 0x00, 0x00, 0x49, 0x58,
  0x04, 0xca, 0xa1, 0xaf, 0xcc, 0x05, 0x49, 0x52, 0x5a, 0x41, 0x46, 0x46,
  0x65, 0x49, 0x03, 0x27, 0x00, 0xc5, 0xc1, 0xd4, 0x21, 0x1b, 0xff, 0x2e,
  0x1b, 0x26, 0x3a, 0x4b, 0x04, 0xe8, 0xbf, 0xeb, 0x05, 0x04, 0x1f, 0x45,
  0x50, 0x7d, 0x7f, 0x5e, 0x5e, 0x34, 0x03, 0x1a, 0x01, 0x1b, 0x01, 0x04,
  0xfd, 0x41, 0x00, 0x00, 0x27, 0x2f, 0x22, 0x51, 0x03, 0x04, 0x02, 0x01,
  0xe4, 0x03, 0x03, 0x03, 0x03, 0x30, 0x37, 0x1c, 0x02, 0x01, 0xd4, 0x01,
  0x00, 0x33, 0x43, 0x04, 0x03, 0x33, 0xfe, 0x00, 0x00, 0x34, 0x41, 0xfd,
  0x05, 0x21, 0x02, 0xd1, 0xe9, 0x04, 0x03, 0x01, 0x03, 0xe9, 0x03, 0x02,
  0x02, 0xe5, 0xe3, 0x01, 0xdb, 0x01, 0x54, 0x38, 0x36, 0x28, 0x01, 0x00,
  0xff, 0x23, 0x01, 0x20, 0x2f, 0x2c, 0x19, 0xc6, 0x02, 0xea, 0xd9, 0x01,
  0x00, 0x00, 0xd5, 0x01, 0x02, 0xe2, 0xd5, 0xd6, 0xd6, 0x00, 0x23, 0x30,
  0x27, 0x26, 0xfd, 0x00, 0x45, 0x03, 0xfe, 0x02, 0x4d, 0x1d, 0x03, 0xd5,
  0x02, 0x05, 0xe1, 0xe5, 0x00, 0x00, 0x00, 0x01, 0xe6, 0x04, 0xd9, 0xd4,
  0xcd, 0xe3, 0x1a, 0x26, 0xd9, 0x49, 0x02, 0x03, 0x63, 0x3c, 0xfe, 0x28,
  0x1d, 0x02, 0x03, 0xff, 0x02, 0x04, 0x04, 0x04, 0x02, 0x02, 0x01, 0x02,
  0x05, 0x05, 0x03, 0xd6, 0xdf, 0x01, 0x02, 0x02, 0x02, 0x40, 0x55, 0x03,
  0x5d, 0x2e, 0x1e, 0x2b, 0x02, 0x1b, 0x1c, 0x00, 0x03, 0x04, 0x03, 0x05,
  0x03, 0x03, 0x02, 0x04, 0x05, 0x05, 0x03, 0x01, 0x00, 0x02, 0x1d, 0x00,
  0x00, 0x6a, 0x1d, 0x03, 0x25, 0x25, 0x3b, 0x05, 0x4a, 0x2b, 0x2c, 0x00,
  0x03, 0x04, 0xea, 0x03, 0x02, 0x03, 0x02, 0x02, 0x05, 0x06, 0x03, 0xe7,
  0xff, 0x02, 0x02, 0xe4, 0x00, 0x04, 0x36, 0x05, 0x31, 0xe0, 0x30, 0x3c,
  0x4b, 0x31, 0x02, 0x00, 0x2d, 0x25, 0x04, 0x04, 0x02, 0x03, 0x02, 0x03,
  0x04, 0x05, 0x03, 0xff, 0xfe, 0x01, 0x02, 0x00, 0xe6, 0x00, 0x36, 0x05,
  0xde, 0x03, 0x00, 0x00, 0x43, 0x2d, 0xe3, 0x00, 0x1b, 0x04, 0x04, 0x04,
  0x03, 0x03, 0x02, 0x03, 0x04, 0x04, 0x04, 0xff, 0x17, 0x01, 0x01, 0x01,
  0x00, 0xfd, 0x01, 0x2a, 0x04, 0x39, 0x2d, 0xe0, 0x21, 0x1a, 0x01, 0xfe,
  0x01, 0x04, 0x03, 0x02, 0x02, 0x04, 0x02, 0x02, 0x04, 0xec, 0x05, 0xff,
  0xfd, 0xdf, 0xe3, 0x00, 0x00, 0xfc, 0x27, 0x25, 0x66, 0x42, 0x22, 0xe5,
  0x29, 0xff, 0xd1, 0xfe, 0x00, 0x04, 0x03, 0x02, 0x03, 0x04, 0x02, 0x03,
  0x04, 0x04, 0x05, 0xff, 0xfc, 0xe3, 0xd8, 0xfe, 0x1d, 0xd1, 0x01, 0x03,
  0x27, 0x5a, 0x02, 0x01, 0x1f, 0xe9, 0xfd, 0xfd, 0x01, 0x04, 0x03, 0x02,
  0x03, 0x03, 0x02, 0x04, 0x04, 0x04, 0xde, 0x00, 0xfa, 0xd0, 0xfe, 0x01,
  0xe4, 0xd4, 0x02, 0x36, 0x18, 0xfe, 0xd2, 0xc9, 0xe3, 0xb9, 0xc8, 0xfd,
  0x01, 0x04, 0x04, 0x03, 0x03, 0x02, 0x01, 0x03, 0x05, 0x03, 0xe9, 0xe5,
  0xfa, 0xd5, 0xb5, 0xd4, 0xc7, 0xd4, 0xce, 0x39, 0x2d, 0x33, 0x03, 0xda,
  0xdd, 0xaf, 0xdd, 0xfd, 0xdc, 0x03, 0x03, 0x01, 0x03, 0x02, 0x02, 0x01,
  0x04, 0x03, 0xeb, 0xe3, 0xf9, 0xe3, 0xad, 0xd8, 0xcc, 0xc9, 0xe3, 0x03,
  0xfe, 0x03, 0xd7, 0xd6, 0xbf, 0xa7, 0xff, 0xfe, 0x02, 0x05, 0x03, 0x25,
  0x04, 0x04, 0x03, 0x03, 0x05, 0x04, 0x06, 0xd7, 0xfa, 0xdd, 0xa9, 0xc7,
  0xe1, 0xd8, 0x00, 0x00, 0xfd, 0x02, 0xe2, 0xe2, 0xc0, 0xbd, 0x29, 0xe2,
  0x03, 0x05, 0x02, 0x03, 0x03, 0x02, 0x00, 0x02, 0x03, 0x02, 0x04, 0xe1,
  0xc6, 0xb0, 0xd3, 0x9e, 0xc0, 0xd9, 0x00, 0x00, 0x25, 0xfe, 0x00, 0xc9,
  0xa3, 0xa9, 0xff, 0xfd, 0x02, 0x03, 0x03, 0x05, 0x03, 0x01, 0x01, 0x02,
  0xe3, 0x02, 0x03, 0x03, 0xda, 0xb4, 0xb5, 0x9e, 0xba, 0xe0, 0x00, 0x1e,
  0x21, 0xff, 0xdf, 0xd0, 0xc4, 0x95, 0xe6, 0xfe, 0x20, 0x02, 0x03, 0x04,
  0x01, 0x01, 0x00, 0x02, 0x02, 0x02, 0x03, 0x03, 0xff, 0xc6, 0xb1, 0xb6,
  0xa9, 0x02, 0xff, 0x19, 0x00, 0xdf, 0xe9, 0xbc, 0xaf, 0xa2, 0xfe, 0xff,
  0x02, 0x02, 0x05, 0x02, 0x02, 0x02, 0xe5, 0x02, 0x02, 0x02, 0x02, 0x03,
  0xff, 0xd7, 0x92, 0xa4, 0x9d, 0xdb, 0xff, 0x00, 0x26, 0xe7, 0xc6, 0xcf,
  0xb1, 0x96, 0xe2, 0x01, 0x02, 0x03, 0x05, 0x02, 0x02, 0x01, 0xea, 0x02,
  0xe3, 0x02, 0xe5, 0x03, 0x00, 0xfb, 0x95, 0x90, 0xb0, 0xd6, 0x00, 0x00,
  0x00, 0xe5, 0xe3, 0xc8, 0xa4, 0x8e, 0xcc, 0xe2, 0x02, 0x03, 0x04, 0x02,
  0x02, 0xe7, 0x01, 0x02, 0x02, 0x02, 0x03, 0x03, 0x01, 0xcf, 0xa0, 0x93,
  0xab, 0xd1, 0xde, 0x00, 0x00, 0xd6, 0xcc, 0xc8, 0xa9, 0xc4, 0xc2, 0x04,
  0x02, 0x03, 0x04, 0x02, 0x02, 0x01, 0x01, 0x02, 0x02, 0x02, 0x03, 0x03,
  0xe7, 0xe1, 0xbd, 0xb4, 0xb4, 0xb6, 0xdb, 0x00, 0x22, 0xe7, 0x00, 0xd9,
  0xb9, 0xe0, 0xbd, 0xdd, 0x02, 0x03, 0x04, 0x02, 0x02, 0x01, 0x01, 0x01,
  0x02, 0x02, 0x03, 0x03, 0x02, 0x01, 0xdd, 0xe3, 0xff, 0xcf, 0x00, 0x00,
  0x29, 0xc5, 0xd1, 0xd0, 0x97, 0xbe, 0x9b, 0xdc, 0x02, 0x04, 0xe3, 0x03,
  0x01, 0x01, 0x01, 0x02, 0x02, 0x02, 0x03, 0x03, 0x03, 0xc2, 0xcd, 0xbd,
  0xdd, 0xd5, 0xc6, 0x00, 0x28, 0xe6, 0xe0, 0xe1, 0xbf, 0xc1, 0x91, 0x01,
  0x18, 0x04, 0x04, 0x03, 0x02, 0x02, 0x25, 0x02, 0x03, 0x02, 0xeb, 0x03,
  0x20, 0x02, 0x01, 0xbf, 0xe8, 0xc2, 0xda, 0x2a, 0x30, 0x03, 0x03, 0x03,
  0xce, 0xdb, 0xd5, 0x39, 0x01, 0x04, 0xde, 0x1e, 0x02, 0x02, 0x02, 0x03,
  0x20, 0x03, 0x03, 0x21, 0x3b, 0x03, 0x00, 0xc3, 0xd2, 0xe4, 0xe7, 0x00,
  0x00, 0x22, 0x22, 0x00, 0x0e, 0xeb, 0xf2, 0xdd, 0xdd, 0xed, 0x00, 0xd0,
  0xe9, 0xb6, 0x93, 0x81, 0xbf, 0xf4, 0x0a, 0x17, 0x00, 0x00, 0x00, 0x17,
  0x27, 0x0a, 0xff, 0x2e, 0x12, 0x1e, 0x29, 0x29, 0x0c, 0x00, 0xf0, 0x00,
  0xff, 0xeb, 0xf2, 0xeb, 0xd9, 0xb7, 0xcc, 0xca, 0xcc, 0xdb, 0xff, 0x20,
  0x28, 0x1b, 0x14, 0x00, 0x00, 0x14, 0x0e, 0x10, 0xef, 0x00, 0x29, 0x00,
  0x00, 0x24, 0x00, 0xed, 0xfe, 0xff, 0x0a, 0xff, 0xf0, 0xe3, 0xe3, 0xdb,
  0xdd, 0xff, 0xff, 0xff, 0x1f, 0x24, 0x1f, 0x1e, 0x00, 0xf4, 0x10, 0x11,
  0x00, 0xd5, 0x1f, 0x17, 0x19, 0x2d, 0x00, 0xe6, 0x01, 0x00, 0x01, 0xeb,
  0xff, 0xff, 0xda, 0xe7, 0xe7, 0xfe, 0xfe, 0xff, 0x10, 0x1f, 0x29, 0x23,
  0x16, 0x01, 0x00, 0x32, 0x00, 0xf2, 0x20, 0x14, 0x26, 0x12, 0x00, 0xf4,
  0x01, 0xdf, 0xee, 0xed, 0xfe, 0xf0, 0xff, 0xff, 0xec, 0xfe, 0xfe, 0xfe,
  0xfe, 0xff, 0x10, 0x14, 0xff, 0x00, 0x1b, 0xff, 0x00, 0x00, 0x0b, 0x00,
  0x00, 0x01, 0x00, 0xe8, 0xe4, 0xfe, 0x01, 0x11, 0xf1, 0xfe, 0xf2, 0xff,
  0xff, 0xff, 0xeb, 0xff, 0x0b, 0x0e, 0x11, 0xff, 0xff, 0x17, 0x0f, 0xe0,
  0x00, 0xea, 0x00, 0xd6, 0x01, 0x00, 0xfe, 0xcd, 0xdd, 0x00, 0xff, 0xfe,
  0xfe, 0xfe, 0xfe, 0xfe, 0xfe, 0xff, 0xff, 0xff, 0x18, 0x11, 0xff, 0x00,
  0x17, 0x18, 0x00, 0x00, 0xd4, 0xd5, 0x00, 0xed, 0xe4, 0xe8, 0xe9, 0xb7,
  0xcf, 0xe0, 0xdc, 0xde, 0xff, 0xff, 0x16, 0xff, 0xfe, 0xff, 0xe9, 0xef,
  0xff, 0x0c, 0xff, 0x0c, 0x0c, 0x00, 0xff, 0xff, 0xea, 0xe1, 0xf0, 0xe3,
  0xb3, 0xcc, 0xbd, 0xba, 0xdf, 0xe3, 0xef, 0xe6, 0xff, 0x0e, 0x1d, 0x17,
  0xff, 0x10, 0x14, 0xff, 0x0c, 0xff, 0xff, 0xff, 0xff, 0xff, 0xff, 0x14,
  0xe4, 0xb7, 0xd8, 0xce, 0xc8, 0xc5, 0xd4, 0xc5, 0xe7, 0xf0, 0xff, 0xe1,
  0x0c, 0x0a, 0xff, 0x0c, 0xff, 0xff, 0x0a, 0x14, 0xff, 0x00, 0x00, 0xf1,
  0xff, 0xff, 0x0e, 0x1b, 0xd5, 0xba, 0xd7, 0xe4, 0xea, 0xfe, 0xeb, 0xe8,
  0xfe, 0xfe, 0xef, 0xff, 0x00, 0xff, 0x00, 0x00, 0xff, 0xff, 0xff, 0xff,
  0xff, 0xff, 0xef, 0xff, 0xfe, 0xff, 0xff, 0x27, 0xae, 0xb3, 0xd5, 0xff,
  0xec, 0xe3, 0xea, 0xff, 0xff, 0xff, 0xff, 0xff, 0x00, 0xff, 0x00, 0x00,
  0xff, 0xff, 0xff, 0xff, 0xef, 0xff, 0xff, 0xff, 0xff, 0xff, 0x0a, 0x23,
  0x02, 0xe7, 0xfd, 0xe8, 0xdb, 0xdd, 0x00, 0x0e, 0x0b, 0x00, 0x00, 0xff,
  0xf2, 0x00, 0xf0, 0xff, 0xff, 0xff, 0xff, 0xf4, 0xff, 0xf2, 0xe6, 0xff,
  0xff, 0xff, 0x0d, 0x15, 0xff, 0xe5, 0xe6, 0xdd, 0xef, 0x28, 0x12, 0x0c,
  0x00, 0x0c, 0xff, 0xff, 0xff, 0xff, 0xff, 0xf2, 0xff, 0xf2, 0xff, 0xff,
  0xff, 0xff, 0xf3, 0xff, 0xff, 0xff, 0x0e, 0xff, 0x15, 0xfe, 0x00, 0xde,
  0x00, 0x2c, 0x20, 0x1b, 0xff, 0x18, 0xff, 0xf1, 0x10, 0xff, 0xff, 0xff,
  0xff, 0xff, 0xff, 0xf1, 0xff, 0xff, 0xff, 0x10, 0x0a, 0x0a, 0xff, 0xff,
  0xff, 0xff, 0xe3, 0xeb, 0xff, 0x29, 0x11, 0x16, 0x11, 0xf5, 0xff, 0xf0,
  0xff, 0xff, 0xf1, 0xf3, 0x0b, 0x00, 0x00, 0x00, 0xff, 0x0d, 0xff, 0x0d,
  0xff, 0xff, 0xff, 0xff, 0x00, 0x13, 0xe9, 0xf0, 0xff, 0x24, 0x18, 0x14,
  0xff, 0xff, 0xf0, 0xff, 0xff, 0xeb, 0xff, 0xff, 0x00, 0x00, 0xff, 0x00,
  0xff, 0xff, 0xff, 0x0d, 0x00, 0x00, 0xff, 0xff, 0x16, 0x13, 0xda, 0xf1,
  0x00, 0x1e, 0x1f, 0x19, 0x0b, 0x0c, 0x00, 0xf3, 0xff, 0xf2, 0xff, 0x00,
  0x00, 0x00, 0xff, 0x00, 0x00, 0x00, 0x00, 0x0b, 0x0e, 0x00, 0x00, 0xff,
  0x00, 0x00, 0xe2, 0xf1, 0x00, 0x1b, 0x17, 0x0e, 0x0c, 0x00, 0xf0, 0x00,
  0xf4, 0xeb, 0xff, 0x00, 0x01, 0x00, 0xff, 0x00, 0x00, 0x00, 0x00, 0x00,
  0x00, 0x00, 0xff, 0xfe, 0x14, 0x00, 0xe5, 0xef, 0xff, 0x2b, 0x12, 0x13,
  0xff, 0x0c, 0xff, 0xff, 0xff, 0x00, 0x0d, 0xff, 0xf2, 0xff, 0xfe, 0xff,
  0xff, 0xff, 0xff, 0xff, 0x00, 0xff, 0xff, 0xf3, 0xfe, 0x00, 0xdf, 0xf2,
  0x00, 0x24, 0x1e, 0x1e, 0x12, 0x14, 0x00, 0x00, 0x00, 0x00, 0x00, 0xff,
  0xff, 0xf1, 0xff, 0xf2, 0xff, 0x11, 0x00, 0x00, 0x00, 0x00, 0x00, 0xe6,
  0xfe, 0xff, 0xe7, 0xef, 0x00, 0x1b, 0x18, 0x15, 0x1b, 0x00, 0x00, 0x00,
  0x00, 0x00, 0xff, 0x00, 0x00, 0xed, 0xe0, 0xe7, 0x00, 0x0c, 0x00, 0xff,
  0x00, 0x0d, 0x00, 0xe4, 0xee, 0xff, 0xdb, 0xeb, 0x00, 0x10, 0x1c, 0x24,
  0x1a, 0x10, 0x00, 0x00, 0xff, 0xff, 0xfe, 0xf2, 0xff, 0xe2, 0xe8, 0xff,
  0xff, 0xff, 0xff, 0x12, 0x0e, 0x0f, 0xf2, 0xf0, 0x00, 0x00, 0xed, 0xeb,
  0x00, 0xf1, 0x0b, 0x15, 0x18, 0x13, 0x0f, 0x00, 0xff, 0xff, 0xf3, 0xff,
  0xf0, 0xe2, 0xff, 0xff, 0xff, 0xff, 0x00, 0x00, 0x0b, 0x00, 0x00, 0xef,
  0xc7, 0x00, 0x00, 0x00, 0x00, 0x00, 0x00, 0x24, 0x1c, 0x1b, 0x00, 0x00,
  0xff, 0x00, 0x00, 0x00, 0xe8, 0xe3, 0x00, 0x00, 0x01, 0x12, 0x00, 0x0b,
  0x00, 0x00, 0xff, 0xe0, 0xf3, 0x00, 0xff, 0x10, 0x11, 0x00, 0x0d, 0x0c,
  0x11, 0x0d, 0x00, 0x00, 0xf0, 0x00, 0x00, 0x00, 0xce, 0xe8, 0x00, 0x00,
  0x00, 0x00, 0x00, 0x0d, 0xff, 0xff, 0xff, 0xed, 0xff, 0xff, 0x0c, 0x22,
  0x21, 0x10, 0xff, 0xff, 0x0e, 0x14, 0xff, 0xff, 0x0b, 0x12, 0x00, 0xd5,
  0xde, 0xe1, 0xe6, 0xdb, 0x00, 0xe3, 0xf0, 0xff, 0xff, 0x11, 0xff, 0xc4,
  0x39, 0xff, 0xff, 0xff, 0xfe, 0xfe, 0xec, 0xff, 0x10, 0x00, 0x0f, 0x0b,
  0x00, 0xe7, 0xd8, 0xe5, 0xe8, 0xdf, 0xe9, 0xee, 0x00, 0xff, 0x10, 0x0d,
  0xff, 0xff, 0xe1, 0xde, 0xf5, 0x00, 0x12, 0xc2, 0xe7, 0xde, 0xae, 0x9e,
  0xc1, 0xc2, 0xdf, 0x02, 0x01, 0x00, 0x00, 0x00, 0x02, 0x15, 0xda, 0xb2,
  0x81, 0xb9, 0xde, 0xdf, 0xf2, 0xe5, 0x00, 0xef, 0x1d, 0x19, 0x16, 0xd3,
  0xcf, 0xc1, 0xf2, 0xeb, 0xd8, 0x17, 0x1b, 0x17, 0x00, 0x00, 0x16, 0x0b,
  0x0e, 0x1d, 0x20, 0xf1, 0xda, 0xe6, 0xd7, 0xec, 0xf6, 0x0e, 0x16, 0x00,
  0x00, 0x0f, 0x00, 0xbc, 0xc5, 0xda, 0xbc, 0xbe, 0xf5, 0x12, 0x00, 0xff,
  0x0a, 0x0d, 0x0e, 0x1a, 0xff, 0x00, 0x00, 0x01, 0xd3, 0xd5, 0xf5, 0xfe,
  0xff, 0xff, 0x10, 0xef, 0x00, 0x00, 0xff, 0xb3, 0xbf, 0xd9, 0xc6, 0xdb,
  0xea, 0xee, 0x00, 0x00, 0xff, 0x0f, 0x16, 0x0e, 0xff, 0x00, 0x00, 0x01,
  0xf5, 0xdd, 0xec, 0xf0, 0xf5, 0xe2, 0x17, 0x1d, 0x13, 0x0c, 0xde, 0xd6,
  0xed, 0xf2, 0xf2, 0xe9, 0xf5, 0x00, 0x00, 0x00, 0x00, 0x00, 0x16, 0x00,
  0x00, 0x00, 0x00, 0x01, 0xef, 0xeb, 0x01, 0xf6, 0xf6, 0xff, 0x00, 0xfe,
  0x00, 0x14, 0xe5, 0xe6, 0xf6, 0xf4, 0xe6, 0xf3, 0x01, 0xff, 0x0f, 0x10,
  0x0b, 0x17, 0x0b, 0x00, 0x0b, 0x0f, 0x00, 0x01, 0x01, 0x01, 0x01, 0x03,
  0x02, 0x16, 0x01, 0xff, 0x00, 0x21, 0xff, 0xc8, 0x02, 0xf4, 0x01, 0x01,
  0xf4, 0x00, 0x00, 0x00, 0x00, 0x00, 0x00, 0xf4, 0x00, 0x00, 0x00, 0x01,
  0x02, 0x01, 0xf5, 0x03, 0x16, 0x02, 0x01, 0x01, 0xea, 0x00, 0xf2, 0xd0,
  0x1a, 0x00, 0x01, 0x02, 0xf4, 0xff, 0xff, 0xff, 0xff, 0x00, 0x0d, 0x00,
  0x00, 0x00, 0x01, 0x01, 0x02, 0x01, 0x01, 0x02, 0x01, 0x00, 0x00, 0xee,
  0xd9, 0xc2, 0xd5, 0xb5, 0x02, 0x10, 0x01, 0x01, 0xee, 0xe8, 0xff, 0x00,
  0x00, 0x00, 0x0e, 0x0d, 0x00, 0x00, 0x00, 0x00, 0xf1, 0x01, 0x01, 0xf5,
  0x00, 0x0a, 0xfe, 0x02, 0xd2, 0xb8, 0xe6, 0xbf, 0x01, 0x00, 0x01, 0x01,
  0xe7, 0xf1, 0xe7, 0xe9, 0xe7, 0x00, 0x00, 0x01, 0x0f, 0x00, 0x0e, 0x01,
  0x01, 0x01, 0x0e, 0x10, 0xff, 0xf4, 0xff, 0x01, 0xcb, 0xb4, 0xcf, 0xba,
  0x00, 0x00, 0x01, 0x01, 0xf4, 0xf0, 0xe5, 0xf4, 0xf1, 0xf5, 0x01, 0x00,
  0x00, 0x10, 0x0f, 0x01, 0x01, 0x00, 0x00, 0x00, 0x01, 0xf1, 0xef, 0xf2,
  0xbc, 0xcf, 0xac, 0xf0, 0x0d, 0x00, 0x02, 0x01, 0x00, 0x00, 0x0d, 0x00,
  0x00, 0x00, 0x00, 0x00, 0x00, 0xff, 0x00, 0x00, 0x00, 0x00, 0x01, 0x12,
  0x01, 0x01, 0x14, 0x02, 0xff, 0xe6, 0xc8, 0x01, 0x1c, 0x00, 0x02, 0x01,
  0x11, 0x00, 0x00, 0x01, 0xf2, 0x00, 0x01, 0x01, 0x00, 0x00, 0x00, 0x01,
  0x01, 0xf6, 0x01, 0x10, 0x01, 0x01, 0x01, 0x00, 0xe4, 0xd1, 0xcf, 0x10,
  0x1c, 0x0f, 0x02, 0x0d, 0x12, 0x0b, 0x01, 0x00, 0x00, 0x01, 0x0c, 0x00,
  0x00, 0x01, 0x00, 0x02, 0x01, 0x01, 0x01, 0x0f, 0x01, 0x01, 0x01, 0xff,
  0x0d, 0xe5, 0xc2, 0xe7, 0x11, 0x0f, 0x02, 0x1c, 0x14, 0x00, 0x15, 0x00,
  0x00, 0x01, 0x01, 0x01, 0x01, 0x01, 0x00, 0xf5, 0x11, 0x12, 0x01, 0x01,
  0x01, 0x02, 0x01, 0x00, 0x03, 0xf6, 0xc9, 0xf6, 0x01, 0x02, 0x02, 0x02,
  0x0e, 0x0c, 0x0e, 0x00, 0xf4, 0x01, 0x01, 0x01, 0x01, 0x01, 0x00, 0x02,
  0x01, 0x10, 0x02, 0x01, 0x01, 0x01, 0x01, 0x00, 0x0f, 0x0d, 0xcf, 0xe1,
  0x01, 0x01, 0x02, 0x15, 0x01, 0x00, 0x01, 0x01, 0x01, 0x01, 0x01, 0x01,
  0x00, 0x01, 0x00, 0x02, 0x02, 0x01, 0x01, 0x01, 0x01, 0x01, 0x01, 0x00,
  0x1c, 0x12, 0xd7, 0xef, 0xec, 0x01, 0x0d, 0x02, 0x15, 0x01, 0x01, 0x0f,
  0x12, 0x01, 0x01, 0x01, 0x01, 0x01, 0x00, 0x01, 0x0f, 0x01, 0x01, 0x0d,
  0x01, 0x02, 0xf4, 0x01, 0x00, 0x01, 0xd2, 0xeb, 0xef, 0x18, 0x12, 0x03,
  0x02, 0x01, 0x01, 0x0e, 0x00, 0x01, 0x01, 0x00, 0xf3, 0x01, 0x00, 0x01,
  0x03, 0x01, 0x01, 0x01, 0x01, 0x01, 0x01, 0x00, 0x02, 0x02, 0xe2, 0xf1,
  0xf4, 0x01, 0x10, 0x02, 0x10, 0x00, 0x00, 0xf1, 0x00, 0x01, 0x01, 0x00,
  0x00, 0x00, 0x00, 0x01, 0x02, 0x01, 0x01, 0x01, 0xeb, 0x00, 0xec, 0x00,
  0xf2, 0xe3, 0xdf, 0xef, 0xf4, 0x14, 0x11, 0x02, 0x1d, 0x00, 0xef, 0x00,
  0x01, 0x00, 0x00, 0x00, 0x00, 0x00, 0x0d, 0x11, 0x02, 0x01, 0x01, 0x01,
  0xeb, 0xff, 0x01, 0xff, 0x02, 0xf1, 0xeb, 0xf5, 0x01, 0x01, 0x11, 0x02,
  0x00, 0x00, 0x00, 0x00, 0x01, 0x01, 0x0b, 0x0c, 0x00, 0x00, 0x0d, 0x17,
  0x02, 0x01, 0x01, 0x01, 0x01, 0x01, 0x02, 0xdb, 0x01, 0xf1, 0xf6, 0x00,
  0x01, 0x15, 0x12, 0x03, 0x01, 0x00, 0xf1, 0x01, 0xea, 0xef, 0x01, 0x00,
  0x00, 0x00, 0x00, 0x00, 0x02, 0x01, 0x02, 0x13, 0xf4, 0x02, 0x03, 0xe5,
  0x00, 0x00, 0x00, 0x00, 0x01, 0x02, 0x01, 0x03, 0x01, 0x00, 0xf3, 0x00,
  0xef, 0xe8, 0xf2, 0x00, 0x00, 0xff, 0xff, 0x00, 0x02, 0x01, 0x01, 0x01,
  0x01, 0x01, 0x02, 0xe6, 0xff, 0xff, 0x0d, 0x0c, 0x12, 0x01, 0x01, 0x02,
  0x01, 0x01, 0x01, 0x01, 0xf3, 0xf6, 0x00, 0x00, 0x00, 0x00, 0x00, 0x00,
  0x02, 0x12, 0x01, 0x0c, 0x0e, 0x0e, 0x02, 0xe2, 0x00, 0x11, 0xfd, 0x00,
  0x0c, 0x12, 0x01, 0x02, 0x01, 0x00, 0xf0, 0x01, 0xe8, 0xdc, 0xef, 0xee,
  0x01, 0x00, 0xff, 0xf5, 0x13, 0x01, 0x00, 0x0f, 0x00, 0xe9, 0xec, 0xde,
  0x00, 0x19, 0xf3, 0x00, 0x00, 0x0e, 0x00, 0x03, 0xed, 0x01, 0xe7, 0xe8,
  0xf5, 0xda, 0xd7, 0xef, 0xf2, 0xe8, 0xeb, 0x01, 0x19, 0x01, 0x14, 0x1f,
  0x00, 0xef, 0xff, 0xe4, 0x25, 0x19, 0x34, 0x14, 0x01, 0x18, 0x1d, 0xf7,
  0xc9, 0xec, 0xdc, 0xf6, 0xee, 0xee, 0xf5, 0x01, 0xec, 0xd2, 0x01, 0xf1,
  0xc7, 0x12, 0x21, 0x26, 0x14, 0x0e, 0x20, 0x0e, 0x00, 0x3a, 0x02, 0xc7,
  0x02, 0x21, 0x2d, 0x41, 0x6e, 0xfe, 0x1c, 0x35, 0xfd, 0xcb, 0xd0, 0xfc,
  0x1b, 0x1b, 0x22, 0x00, 0x3e, 0x3c, 0x02, 0xbc, 0x91, 0x02, 0x02, 0xc2,
  0xdf, 0x55, 0xaa, 0xcf, 0xbe, 0x02, 0x24, 0xff, 0xfd, 0xe5, 0xfc, 0xfd,
  0xfe, 0xfe, 0xfd, 0xfe, 0xfe, 0xfd, 0xff, 0xe0, 0x00, 0xda, 0xaf, 0xa8,
  0xbb, 0xe6, 0x02, 0x00, 0x3f, 0x2c, 0xe1, 0xc5, 0xd8, 0x03, 0xe2, 0xfe,
  0x27, 0xfd, 0xfd, 0xfe, 0xfd, 0xfd, 0x38, 0xfd, 0xfe, 0xfc, 0xfe, 0xfe,
  0xd7, 0xe6, 0xc1, 0xac, 0xdd, 0x02, 0x00, 0x2c, 0x60, 0x42, 0x03, 0x04,
  0x1b, 0x01, 0x1f, 0x2e, 0xfd, 0xfd, 0xfe, 0xff, 0xfe, 0xfc, 0x1c, 0xfe,
  0x16, 0xfd, 0xfd, 0xfd, 0xfe, 0x16, 0xdb, 0xe9, 0xcb, 0x03, 0x3b, 0x01,
  0x7f, 0x39, 0xe2, 0x1d, 0xff, 0xfe, 0xfd, 0xd9, 0xfe, 0xe2, 0xe7, 0xff,
  0xff, 0xfd, 0xfd, 0xff, 0x17, 0xfe, 0xfd, 0xfe, 0xe5, 0xcf, 0xfe, 0xe4,
  0x1d, 0x03, 0x26, 0x3c, 0x3f, 0xd9, 0xdd, 0x00, 0x28, 0xfd, 0xe2, 0xff,
  0xff, 0xfe, 0xfe, 0xe5, 0xdb, 0xfd, 0xfe, 0xff, 0xfe, 0xfe, 0x17, 0xff,
  0xc9, 0xcb, 0xd3, 0xe9, 0x01, 0xd8, 0x03, 0x2c, 0xe4, 0xc1, 0x1a, 0x01,
  0x41, 0xdc, 0xe4, 0xff, 0xfe, 0xe6, 0xfe, 0xfe, 0xdb, 0xfd, 0xfd, 0xdf,
  0xfe, 0xfe, 0xfd, 0x19, 0xff, 0xdf, 0xcc, 0xd2, 0x01, 0x02, 0x35, 0x01,
  0x17, 0xd9, 0xce, 0x36, 0x38, 0xe5, 0xfe, 0xfe, 0xe0, 0xfd, 0xfe, 0xfe,
  0xfd, 0xfd, 0xfd, 0xfe, 0xff, 0xfe, 0x19, 0x36, 0xff, 0xc8, 0x00, 0xcc,
  0x23, 0x01, 0x02, 0x02, 0x30, 0xb7, 0x04, 0x4b, 0x47, 0xfd, 0xfe, 0xfe,
  0xfe, 0xfd, 0xfd, 0xdb, 0xce, 0xfd, 0xfe, 0xc6, 0xfe, 0xfe, 0x1c, 0xfe,
  0xff, 0xcc, 0xff, 0xff, 0x1e, 0x02, 0x24, 0x1d, 0xc8, 0x23, 0x02, 0x48,
  0x1d, 0xfe, 0xfe, 0xfe, 0xfe, 0xfd, 0xfd, 0xe6, 0xfd, 0x1a, 0xfe, 0xdc,
  0x1a, 0x1e, 0xfe, 0xfe, 0xde, 0xde, 0xfe, 0xfe, 0x02, 0x03, 0x1d, 0x24,
  0xe3, 0x50, 0x02, 0x19, 0xfe, 0xfd, 0x15, 0xfe, 0x1b, 0xfd, 0xe2, 0x1b,
  0x1d, 0xe4, 0xfd, 0xe2, 0xff, 0x18, 0xff, 0xfe, 0xff, 0xd7, 0xfe, 0x18,
  0x04, 0x1f, 0x04, 0x01, 0xfd, 0x2e, 0x27, 0xfd, 0xfe, 0xfd, 0xfe, 0xff,
  0x2d, 0xfd, 0xfe, 0x45, 0xfd, 0xfe, 0xfd, 0xe7, 0xff, 0xfe, 0x23, 0xfd,
  0xff, 0xdd, 0xff, 0x01, 0x21, 0x04, 0x26, 0x00, 0xb7, 0xe4, 0x1d, 0x27,
  0x16, 0x1c, 0x19, 0xff, 0x3a, 0x36, 0xfe, 0xfe, 0xfe, 0xfe, 0xfe, 0xff,
  0xff, 0xff, 0xfe, 0x22, 0xff, 0x00, 0x17, 0x01, 0x03, 0x03, 0x24, 0xfd,
  0xac, 0x1f, 0x39, 0x55, 0x36, 0xfe, 0xff, 0x1c, 0x25, 0x21, 0xfe, 0xfe,
  0xfe, 0xff, 0xfe, 0xff, 0xff, 0xff, 0x17, 0x2c, 0x17, 0x00, 0xff, 0x02,
  0x04, 0x04, 0x27, 0x20, 0x03, 0x21, 0xfe, 0xff, 0x1c, 0xfe, 0xff, 0x00,
  0xff, 0xfd, 0xfe, 0xfd, 0xff, 0xff, 0xfe, 0x1b, 0x1e, 0xff, 0xfe, 0xff,
  0xe6, 0x00, 0x18, 0x1a, 0x05, 0x2a, 0x2c, 0x00, 0x23, 0x02, 0xff, 0xe8,
  0x1b, 0xff, 0xff, 0x01, 0xff, 0x16, 0x2d, 0xfd, 0xff, 0xff, 0xfe, 0x16,
  0xfe, 0x21, 0xfd, 0xfd, 0x00, 0x01, 0x2f, 0x30, 0x04, 0x29, 0x31, 0x02,
  0x50, 0x02, 0x1c, 0x00, 0x00, 0xdf, 0xff, 0xd1, 0xff, 0x34, 0xfd, 0xfd,
  0xff, 0xfe, 0xfe, 0xfe, 0xfd, 0xfe, 0xfe, 0xfd, 0x00, 0x00, 0xff, 0x1b,
  0x02, 0x1a, 0x23, 0x04, 0xfe, 0x00, 0x1e, 0x01, 0x00, 0xff, 0xff, 0x00,
  0xfe, 0x24, 0xfc, 0xfd, 0xe0, 0xfc, 0xe1, 0xe0, 0xfc, 0xfd, 0xfd, 0xe3,
  0xfe, 0xfe, 0xfe, 0x2e, 0x1e, 0x02, 0x02, 0xe4, 0x19, 0x01, 0x1d, 0x01,
  0x19, 0xff, 0xff, 0xff, 0xfd, 0x2c, 0xfc, 0xfd, 0xe3, 0xfd, 0xd2, 0xe0,
  0xfc, 0xfd, 0xfd, 0xfc, 0xff, 0xfe, 0xfe, 0x27, 0x2c, 0x03, 0x03, 0x05,
  0x00, 0x02, 0x03, 0x01, 0x26, 0xff, 0xff, 0xff, 0x20, 0xfc, 0xfd, 0xfd,
  0xfd, 0xe1, 0xdf, 0xfd, 0xfd, 0xfd, 0xfd, 0xfc, 0x00, 0xff, 0x1e, 0x1b,
  0x02, 0x04, 0x03, 0x28, 0x01, 0x01, 0x01, 0x20, 0x3d, 0x24, 0xfe, 0xfe,
  0x24, 0xfc, 0xfd, 0xce, 0xfc, 0xd9, 0xe2, 0xfc, 0xfc, 0xfc, 0x2a, 0x21,
  0xfd, 0xfe, 0xfd, 0x1b, 0x01, 0x02, 0x01, 0x00, 0x01, 0xe6, 0x28, 0x38,
  0x2b, 0xfe, 0xfe, 0xfd, 0x18, 0xfc, 0xd7, 0xce, 0xe2, 0xe3, 0xfc, 0xfc,
  0x16, 0x26, 0x20, 0x21, 0xfc, 0xfd, 0xfe, 0xff, 0x01, 0x03, 0x02, 0xe3,
  0xfe, 0x1b, 0x45, 0x33, 0xfd, 0xfe, 0xfd, 0xfd, 0x26, 0xfc, 0xfd, 0xd4,
  0xe4, 0xfc, 0xdc, 0xfc, 0xfc, 0x28, 0x30, 0x25, 0xfc, 0xe4, 0xfe, 0xff,
  0x24, 0x03, 0x04, 0xc1, 0x22, 0x00, 0x3e, 0x17, 0xfd, 0xfd, 0x16, 0xfc,
  0xfb, 0xfc, 0xd3, 0xdc, 0xfc, 0xfc, 0xfc, 0xfc, 0xfc, 0xfc, 0xfc, 0xfb,
  0xfa, 0xfd, 0xfe, 0xfe, 0xff, 0x02, 0x30, 0xde, 0x26, 0xff, 0x00, 0xb0,
  0xc0, 0xce, 0xfd, 0xfc, 0xfb, 0xfb, 0xfc, 0xfb, 0xfc, 0x25, 0xfc, 0xfc,
  0xfc, 0xfc, 0xfb, 0xfa, 0x13, 0xfd, 0xfe, 0xfe, 0xe6, 0xd6, 0x01, 0x01,
  0xfe, 0xff, 0x31, 0xff, 0xda, 0xd5, 0xfd, 0xfc, 0x14, 0xfc, 0xfd, 0xfc,
  0xfc, 0xfc, 0xfc, 0xfc, 0x16, 0x23, 0xfc, 0xfb, 0xfd, 0xfd, 0xfe, 0xfe,
  0xe1, 0xdc, 0x01, 0x00, 0xe4, 0x03, 0x26, 0xd0, 0xfe, 0xc6, 0xfd, 0xfc,
  0xfc, 0xfd, 0xfd, 0xfc, 0xfd, 0x19, 0xfc, 0x50, 0x23, 0x18, 0xe1, 0xfb,
  0x1c, 0xfd, 0xfe, 0xff, 0xff, 0x01, 0x35, 0x01, 0xd4, 0x02, 0xc3, 0xa3,
  0xc5, 0xfe, 0xfd, 0xfb, 0xfc, 0xfd, 0xfd, 0xfd, 0x1d, 0xdf, 0xb9, 0x75,
  0x5b, 0x42, 0xfb, 0xfa, 0xce, 0xfd, 0xfe, 0xdc, 0xa7, 0xa6, 0x01, 0x02,
  0x1c, 0x1c, 0x1a, 0xff, 0xdf, 0x12, 0x40, 0x21, 0xeb, 0x00, 0xee, 0x02,
  0xf8, 0x0f, 0x02, 0x02, 0x16, 0x03, 0x02, 0xeb, 0xec, 0x2c, 0x18, 0xff,
  0x0e, 0x14, 0x14, 0x21, 0x18, 0x17, 0x00, 0xf1, 0xd3, 0xfe, 0x1e, 0xe2,
  0xf4, 0x1b, 0x01, 0x0d, 0x02, 0x12, 0x15, 0x02, 0xf8, 0x01, 0x10, 0x01,
  0xe1, 0x0b, 0x19, 0x14, 0x10, 0x00, 0x00, 0x10, 0x12, 0x0b, 0x00, 0xff,
  0xfd, 0xfe, 0xf0, 0x00, 0x0b, 0x11, 0x00, 0xf5, 0xf1, 0x01, 0x01, 0xf2,
  0x01, 0x00, 0x09, 0x00, 0x01, 0xf0, 0xf4, 0x1c, 0x24, 0x0d, 0x00, 0x00,
  0x15, 0x00, 0x09, 0xef, 0xf1, 0x21, 0xdd, 0x00, 0x00, 0x0e, 0x01, 0x01,
  0x01, 0x02, 0x01, 0x01, 0x01, 0x00, 0x00, 0x00, 0x00, 0xe8, 0xe9, 0x00,
  0xed, 0x01, 0x00, 0x00, 0xed, 0x00, 0x00, 0xda, 0xc2, 0xff, 0xff, 0x00,
  0x0f, 0x00, 0x01, 0x01, 0xf5, 0xf4, 0x01, 0x01, 0x01, 0x01, 0x00, 0x00,
  0xf5, 0xef, 0xe0, 0xf3, 0xc5, 0xcd, 0xcf, 0xc4, 0x00, 0x0b, 0x0f, 0xf6,
  0xa3, 0x00, 0xf0, 0x00, 0x10, 0xff, 0x00, 0x02, 0x01, 0xf5, 0xf2, 0x11,
  0x01, 0x0b, 0xff, 0x00, 0x01, 0xef, 0xf1, 0xd6, 0xb9, 0xcc, 0xec, 0x00,
  0xf6, 0x01, 0x13, 0x00, 0xff, 0xe8, 0xfe, 0x00, 0xff, 0xff, 0x00, 0xf7,
  0x01, 0xef, 0xef, 0xf5, 0x01, 0x00, 0x00, 0x12, 0x00, 0x00, 0x00, 0xc4,
  0xcc, 0xbe, 0xb9, 0xdb, 0xf2, 0xff, 0xff, 0xe7, 0xcc, 0xeb, 0x15, 0x0d,
  0xff, 0xff, 0x00, 0x00, 0x00, 0x01, 0xf1, 0x01, 0x01, 0xf5, 0x0d, 0x13,
  0x11, 0x0e, 0x00, 0xdd, 0xef, 0xe0, 0xe9, 0xf1, 0x02, 0xff, 0x11, 0xca,
  0xcd, 0xfe, 0x0f, 0x0e, 0xff, 0xfe, 0xed, 0x01, 0x00, 0x00, 0x01, 0x01,
  0x01, 0xf3, 0xff, 0x0c, 0x00, 0x20, 0xff, 0xe9, 0x00, 0xff, 0xfe, 0x21,
  0x2e, 0x29, 0x23, 0xf4, 0xe2, 0xfe, 0x16, 0x00, 0xff, 0xff, 0xf3, 0x01,
  0x01, 0x01, 0xef, 0x01, 0x01, 0xec, 0xeb, 0xff, 0x0c, 0x0b, 0xff, 0x00,
  0x00, 0xf5, 0xf4, 0x1e, 0xff, 0x2f, 0x0c, 0xe9, 0x00, 0xf3, 0x0b, 0x00,
  0x00, 0xef, 0x00, 0x0e, 0x01, 0x01, 0xf6, 0x01, 0x01, 0xf4, 0xe8, 0xff,
  0x00, 0x00, 0x00, 0xf2, 0xff, 0xff, 0xe3, 0xff, 0x0e, 0x26, 0x00, 0x00,
  0xe2, 0xee, 0x0c, 0x11, 0x00, 0xe6, 0x01, 0x0f, 0x01, 0xf6, 0x01, 0x01,
  0x01, 0x01, 0xef, 0x00, 0x00, 0x00, 0xf2, 0xf1, 0xff, 0x0b, 0xff, 0x1f,
  0x1e, 0x32, 0x00, 0xf5, 0xdc, 0xfe, 0x00, 0x09, 0x00, 0xff, 0x01, 0x01,
  0x01, 0x01, 0x01, 0x01, 0x01, 0x01, 0x00, 0x00, 0x00, 0x14, 0xff, 0xff,
  0x10, 0x00, 0x11, 0x14, 0x30, 0x34, 0x01, 0x02, 0xeb, 0xfe, 0x00, 0x00,
  0x00, 0x00, 0x0c, 0x01, 0x01, 0x01, 0x02, 0x01, 0x01, 0x01, 0x00, 0x00,
  0x00, 0x1c, 0x0d, 0xf5, 0x00, 0x00, 0xf6, 0x00, 0x7f, 0x39, 0x02, 0x03,
  0x02, 0xff, 0x00, 0x0d, 0x00, 0xf5, 0x0c, 0x01, 0x01, 0x01, 0x01, 0x01,
  0x01, 0x01, 0x01, 0x00, 0x00, 0x00, 0x00, 0x00, 0x00, 0x0c, 0xf4, 0xe5,
  0x33, 0x03, 0xe9, 0xe9, 0xef, 0x00, 0x01, 0x01, 0x00, 0x00, 0x01, 0x01,
  0x01, 0x10, 0x01, 0x01, 0x01, 0x01, 0x01, 0x01, 0x00, 0x00, 0x00, 0xf2,
  0xea, 0x01, 0x00, 0xdd, 0x34, 0x02, 0xdc, 0xdb, 0xea, 0xff, 0x0d, 0x00,
  0xf0, 0x00, 0x01, 0x01, 0x01, 0x10, 0x01, 0x01, 0x01, 0x01, 0x01, 0x00,
  0x00, 0x00, 0x00, 0x01, 0xef, 0x01, 0xf6, 0xec, 0x14, 0x15, 0xed, 0xdd,
  0xee, 0xff, 0x00, 0x00, 0x00, 0x01, 0x01, 0x01, 0x01, 0x01, 0x01, 0x01,
  0x01, 0x01, 0x01, 0x00, 0x0f, 0x00, 0x00, 0x01, 0x01, 0x01, 0x00, 0xf6,
  0xff, 0x00, 0xee, 0xee, 0xff, 0x0b, 0xff, 0x00, 0x00, 0x00, 0x01, 0x01,
  0x00, 0x10, 0x0f, 0x00, 0x00, 0x01, 0x01, 0x00, 0x11, 0x0a, 0x0f, 0x0b,
  0x00, 0x00, 0x00, 0x13, 0x00, 0x01, 0xf7, 0xf6, 0x00, 0xff, 0xff, 0x00,
  0xf1, 0x00, 0x01, 0x01, 0x01, 0x01, 0x0e, 0x01, 0x01, 0x01, 0x01, 0x00,
  0x00, 0x00, 0x0e, 0x0b, 0x00, 0x00, 0x00, 0x17, 0x0c, 0x0d, 0x01, 0x0c,
  0x10, 0x16, 0x00, 0x00, 0xf3, 0x00, 0x01, 0x01, 0xf6, 0x01, 0x01, 0x01,
  0x01, 0x0a, 0x01, 0xec, 0xea, 0xef, 0x0a, 0x00, 0x00, 0x00, 0xf3, 0x00,
  0x02, 0x10, 0x19, 0x17, 0x00, 0xff, 0xff, 0xf0, 0xeb, 0xf2, 0x01, 0x01,
  0x01, 0x01, 0x01, 0x01, 0x01, 0x13, 0x01, 0xee, 0xea, 0xff, 0xff, 0xff,
  0x15, 0x00, 0x00, 0x10, 0x01, 0x0f, 0x18, 0x0c, 0xff, 0xff, 0xe9, 0xe6,
  0xee, 0xf5, 0x01, 0x01, 0x01, 0x01, 0x01, 0x01, 0x0c, 0x0e, 0x01, 0xed,
  0xe7, 0xf0, 0xff, 0x00, 0x00, 0x11, 0x01, 0x01, 0xdd, 0x02, 0x26, 0x0b,
  0xff, 0xf1, 0xe4, 0xe0, 0xeb, 0x00, 0x01, 0x0c, 0x01, 0x01, 0x0e, 0x01,
  0x0d, 0x01, 0x01, 0x00, 0xef, 0xe6, 0xfe, 0xf3, 0x00, 0x00, 0x00, 0xea,
  0xcd, 0xe8, 0x0f, 0xd7, 0xff, 0xf0, 0xda, 0xed, 0x00, 0x00, 0x01, 0x01,
  0x01, 0x01, 0x01, 0x01, 0x01, 0x01, 0x01, 0x00, 0xff, 0xee, 0xff, 0x00,
  0x00, 0x00, 0xff, 0xd6, 0xf0, 0x01, 0xef, 0xd3, 0xdd, 0xdd, 0xdd, 0xf5,
  0x00, 0x00, 0x01, 0x10, 0x01, 0x01, 0x01, 0x01, 0x01, 0x0e, 0x01, 0x00,
  0xff, 0xe4, 0xff, 0xde, 0xda, 0xd8, 0xf4, 0x01, 0x00, 0x01, 0xec, 0xd6,
  0xbc, 0xb7, 0xde, 0x00, 0x00, 0x00, 0x0d, 0x16, 0x11, 0x10, 0x0d, 0x00,
  0x00, 0x00, 0x00, 0x00, 0x16, 0x00, 0xde, 0xb1, 0xc5, 0xe1, 0x00, 0x00,
  0x0c, 0x00, 0xf6, 0xe7, 0xbc, 0xb6, 0xa7, 0xea, 0xff, 0xff, 0x14, 0x00,
  0xf6, 0x00, 0x00, 0x00, 0x00, 0x00, 0x00, 0xf3, 0xff, 0xed, 0xbf, 0xae,
  0xd2, 0xe6, 0x00, 0x00, 0xe2, 0xa0, 0xaf, 0x29, 0xfe, 0xfe, 0xc7, 0xfd,
  0x01, 0x02, 0xe6, 0x1a, 0x03, 0x2c, 0x38, 0x03, 0xe3, 0xec, 0x01, 0x2c,
  0xd3, 0x97, 0xc3, 0xfc, 0x41, 0x28, 0x00, 0xb9, 0xce, 0xa6, 0xfe, 0xe8,
  0xfd, 0x11, 0xff, 0x00, 0xd1, 0xde, 0x00, 0xea, 0x01, 0x00, 0x02, 0x00,
  0x1a, 0x03, 0xdc, 0xcf, 0xd4, 0xfe, 0xff, 0xff, 0x1f, 0x30, 0xfe, 0xa1,
  0x00, 0x1d, 0x3a, 0xfe, 0xfd, 0x1b, 0xff, 0xd2, 0xc3, 0xe8, 0x01, 0x02,
  0x01, 0x15, 0x01, 0x1b, 0x1a, 0x03, 0xe7, 0xdb, 0xe5, 0xd4, 0x1a, 0x3b,
  0xfd, 0x23, 0xfe, 0xb8, 0xfe, 0x1b, 0xff, 0xfe, 0xfd, 0xfe, 0xe1, 0x02,
  0x03, 0x02, 0x1a, 0x04, 0x03, 0xed, 0x02, 0x03, 0x04, 0x03, 0x02, 0x02,
  0x03, 0xea, 0x13, 0x20, 0x3e, 0x23, 0xe6, 0x26, 0xfe, 0x1e, 0xff, 0xfd,
  0xfe, 0x01, 0x01, 0x16, 0x02, 0x01, 0x01, 0xef, 0xe5, 0xeb, 0xef, 0xe0,
  0xe5, 0x03, 0x02, 0xed, 0x02, 0x02, 0x01, 0x01, 0x00, 0x47, 0x13, 0xc1,
  0xff, 0x6c, 0xff, 0xfe, 0x00, 0x02, 0x17, 0x23, 0xed, 0x01, 0x01, 0x03,
  0xf0, 0xef, 0x01, 0xdd, 0x01, 0x01, 0x01, 0xea, 0x01, 0x2f, 0x01, 0x00,
  0x01, 0x56, 0x17, 0xfe, 0x31, 0x3b, 0xe5, 0x4c, 0x1c, 0x02, 0x1a, 0x1c,
  0x02, 0x02, 0x01, 0x03, 0x03, 0xe6, 0x02, 0x01, 0x01, 0x01, 0x01, 0xe9,
  0x02, 0x26, 0x01, 0x1f, 0x22, 0x37, 0xec, 0x00, 0x03, 0x03, 0x17, 0x39,
  0x03, 0x01, 0x2e, 0x29, 0x03, 0x03, 0x1b, 0x01, 0x02, 0x03, 0x02, 0x01,
  0x01, 0x01, 0x00, 0xd3, 0xe0, 0x20, 0x01, 0x33, 0x00, 0x1b, 0x00, 0x01,
  0x04, 0x2a, 0x01, 0x24, 0x04, 0x01, 0x29, 0x21, 0x03, 0x02, 0x03, 0x01,
  0x01, 0x02, 0xeb, 0xff, 0x00, 0xff, 0xff, 0xe8, 0xe9, 0x21, 0x01, 0x19,
  0xff, 0xff, 0x30, 0x04, 0x6e, 0x01, 0x02, 0x1e, 0x1b, 0x01, 0x29, 0x02,
  0x03, 0x20, 0x24, 0x00, 0x00, 0xe6, 0xff, 0xfe, 0xff, 0x17, 0xfe, 0xff,
  0xe8, 0x18, 0xe3, 0x16, 0x14, 0xfe, 0x00, 0x21, 0x7f, 0xe1, 0x1a, 0x25,
  0x1a, 0x01, 0x2c, 0x17, 0x02, 0x02, 0x02, 0xff, 0x00, 0x01, 0xfe, 0xeb,
  0xff, 0x13, 0xfe, 0x00, 0xff, 0xfe, 0x11, 0xfd, 0x11, 0xfe, 0x23, 0x02,
  0x58, 0x22, 0x03, 0x04, 0x19, 0x01, 0x32, 0x15, 0x01, 0x16, 0x00, 0xe6,
  0x01, 0x00, 0xde, 0xfe, 0xfc, 0x1e, 0xfe, 0xff, 0xec, 0x14, 0x19, 0xfe,
  0xec, 0xd7, 0x21, 0x30, 0x5f, 0x20, 0xed, 0x30, 0x03, 0x15, 0x23, 0x21,
  0x01, 0x00, 0x00, 0x00, 0x00, 0xff, 0xd8, 0xea, 0xfd, 0xff, 0xfe, 0xff,
  0xff, 0x17, 0x21, 0xfe, 0xfe, 0xe5, 0xff, 0x36, 0x7e, 0x03, 0xe4, 0x04,
  0x02, 0x02, 0x28, 0x00, 0x01, 0x1c, 0x00, 0x00, 0x00, 0xff, 0xdd, 0xe2,
  0xfd, 0xff, 0xff, 0xff, 0xff, 0xfe, 0xff, 0xe1, 0xfd, 0xff, 0xff, 0x40,
  0x00, 0xe4, 0xe3, 0x01, 0xe9, 0x01, 0x1d, 0x00, 0x19, 0x15, 0x00, 0xfe,
  0xff, 0xfe, 0xe4, 0xe7, 0xfd, 0xfd, 0xff, 0xff, 0xff, 0xfe, 0x15, 0xfe,
  0xfe, 0xff, 0xe4, 0x52, 0xc2, 0xd5, 0xe4, 0x1b, 0xde, 0x2f, 0x2a, 0x00,
  0x15, 0xff, 0xff, 0xfe, 0xfd, 0xfd, 0xfc, 0xfd, 0xfc, 0xfd, 0xff, 0x26,
  0xfe, 0xff, 0x23, 0x00, 0xfd, 0xeb, 0xe4, 0x1d, 0xff, 0xe9, 0xd3, 0x01,
  0xdd, 0x1b, 0x19, 0x20, 0x14, 0xff, 0xfd, 0xfc, 0xfc, 0xe0, 0xfe, 0xfd,
  0xfc, 0xfc, 0xff, 0x17, 0xff, 0xff, 0x21, 0xff, 0xdc, 0xff, 0xff, 0x00,
  0xfe, 0xfe, 0xe9, 0xe0, 0xfe, 0xff, 0x24, 0xff, 0xfe, 0xe7, 0xfe, 0xfd,
  0xfd, 0xfc, 0xff, 0xfe, 0xfd, 0xde, 0xff, 0xfe, 0xfe, 0xff, 0x13, 0xff,
  0xe7, 0x14, 0xff, 0xff, 0xff, 0x24, 0xfd, 0xfe, 0xfe, 0x00, 0x31, 0xfe,
  0xd3, 0xe7, 0xfd, 0xfc, 0xfc, 0x15, 0xfe, 0xfd, 0xfc, 0xfc, 0xff, 0xfe,
  0xdd, 0xff, 0x16, 0x00, 0xfd, 0xff, 0xff, 0x2e, 0x30, 0x01, 0xff, 0x00,
  0xe2, 0x15, 0x16, 0xeb, 0xc7, 0xfd, 0xfc, 0xfd, 0xfd, 0xfc, 0x1f, 0xfd,
  0x1f, 0xfd, 0x00, 0xdb, 0xc8, 0x00, 0x00, 0x22, 0xfc, 0xfe, 0x12, 0x6f,
  0xea, 0x22, 0x01, 0x02, 0xfe, 0x19, 0xff, 0xe8, 0xcf, 0xdf, 0xfc, 0xfc,
  0xfd, 0xfd, 0xff, 0xfd, 0xfd, 0xfe, 0x01, 0xd8, 0xd9, 0x00, 0x00, 0x27,
  0xfc, 0xff, 0x27, 0x61, 0x04, 0x22, 0xff, 0x00, 0x18, 0x1e, 0xff, 0xfd,
  0xd0, 0xe3, 0xfe, 0xfe, 0xfe, 0xfe, 0x00, 0x20, 0xfe, 0x00, 0x01, 0xbc,
  0xbf, 0x01, 0x02, 0x02, 0xfd, 0xd3, 0x00, 0x22, 0x01, 0xff, 0xff, 0x12,
  0x21, 0x13, 0xff, 0xfd, 0xdb, 0xfe, 0x19, 0xfe, 0x14, 0x23, 0x01, 0xff,
  0xfe, 0x00, 0x02, 0xdd, 0xe4, 0x01, 0x01, 0x19, 0xfd, 0xd0, 0xfe, 0x3c,
  0x00, 0x2e, 0x12, 0x21, 0x2b, 0x25, 0xff, 0xfd, 0xe9, 0xec, 0xff, 0xe9,
  0xff, 0xfe, 0xff, 0xff, 0xfe, 0x01, 0x01, 0xe4, 0xdb, 0x00, 0x20, 0xfe,
  0xfd, 0xfd, 0xfd, 0x21, 0xff, 0x22, 0x22, 0x2b, 0x27, 0x1e, 0xfe, 0xd3,
  0xfe, 0xfe, 0xfe, 0xfe, 0xfe, 0xff, 0xea, 0xff, 0x15, 0xff, 0xfe, 0xfe,
  0xdb, 0xfe, 0x1b, 0xfe, 0xe3, 0xfe, 0xfd, 0x31, 0x29, 0x23, 0x00, 0x00,
  0xff, 0xfe, 0xfe, 0xfe, 0xfe, 0x21, 0xff, 0xfe, 0xff, 0xff, 0x00, 0x15,
  0xff, 0x01, 0x16, 0x00, 0xd9, 0xff, 0x22, 0xfe, 0xe9, 0xff, 0xff, 0x36,
  0x25, 0x03, 0x01, 0x02, 0x01, 0x1a, 0x25, 0xe7, 0xee, 0x21, 0x02, 0x01,
  0x02, 0x03, 0x17, 0x03, 0x03, 0x03, 0x02, 0x03, 0xad, 0x01, 0xfd, 0xfe,
  0xfe, 0x01, 0xe4, 0x01, 0xdb, 0xea, 0x17, 0x27, 0x1f, 0xfe, 0x32, 0x00,
  0xd8, 0xbb, 0xe0, 0x04, 0x04, 0xe1, 0x03, 0xe7, 0x04, 0x04, 0xcd, 0xe0,
  0x02, 0x28, 0x19, 0xfc, 0x2d, 0x03, 0xd4, 0xe5, 0x00, 0xca, 0xcd, 0x00,
  0xff, 0x2c, 0x20, 0xfd, 0xfd, 0xfd, 0x4c, 0x26, 0x04, 0x30, 0x1b, 0x05,
  0xe8, 0xff, 0xfd, 0xea, 0xc9, 0x00, 0x15, 0x00, 0xb4, 0xdf, 0x02, 0xcd,
  0xbd, 0x00, 0xd5, 0xd5, 0xfe, 0x2b, 0x29, 0x2b, 0x18, 0x22, 0x24, 0x21,
  0x2b, 0x20, 0x02, 0x02, 0x1b, 0x1d, 0xfc, 0xfc, 0xde, 0xfd, 0x00, 0xff,
  0xd7, 0xd9, 0x26, 0xb8, 0x15, 0x6e, 0x1f, 0xc8, 0xe6, 0xfd, 0x2f, 0x1d,
  0x11, 0x1d, 0xff, 0xff, 0x00, 0x01, 0x01, 0x00, 0xff, 0xe3, 0xff, 0xfd,
  0xfc, 0xfc, 0xeb, 0xeb, 0xc2, 0x25, 0x33, 0xec, 0x7f, 0x2f, 0xed, 0xea,
  0xfd, 0xfd, 0xfd, 0xfe, 0x15, 0xff, 0xff, 0x12, 0xff, 0xff, 0x00, 0xff,
  0x00, 0x00, 0x00, 0xff, 0xfe, 0xfd, 0xfe, 0xe1, 0xcc, 0x18, 0x32, 0x14,
  0x58, 0x1d, 0x01, 0xe4, 0x1e, 0xfe, 0x00, 0x28, 0x00, 0xff, 0xff, 0x00,
  0xe6, 0x00, 0x00, 0xe6, 0x00, 0x01, 0x00, 0xe3, 0xeb, 0x00, 0x00, 0xed,
  0xe2, 0x01, 0x28, 0x18, 0x00, 0x47, 0xe6, 0xff, 0xcd, 0x00, 0x00, 0x16,
  0x00, 0x21, 0xff, 0x16, 0x00, 0x01, 0x01, 0x01, 0x00, 0x00, 0x00, 0xef,
  0x01, 0x00, 0xed, 0xea, 0x02, 0x01, 0x23, 0x01, 0xdf, 0xe1, 0xdd, 0x00,
  0x01, 0x01, 0xee, 0x01, 0x00, 0xfe, 0xff, 0x00, 0x00, 0xe0, 0x01, 0x00,
  0x00, 0x00, 0x00, 0x02, 0x01, 0x00, 0xed, 0x03, 0xef, 0xdb, 0x04, 0x03,
  0xd4, 0xda, 0x01, 0x01, 0x02, 0x01, 0x01, 0x1b, 0x00, 0xff, 0xff, 0xed,
  0x00, 0x00, 0x01, 0x00, 0xee, 0x00, 0x00, 0xd6, 0xed, 0x01, 0x02, 0x04,
  0xe7, 0x04, 0x04, 0x05, 0xed, 0xe6, 0xda, 0x02, 0xe7, 0x01, 0x02, 0x01,
  0x00, 0x00, 0xff, 0x00, 0x00, 0x00, 0x01, 0x01, 0x16, 0x00, 0x01, 0xe3,
  0x02, 0x01, 0xe7, 0x03, 0x03, 0x03, 0x17, 0x25, 0xff, 0x00, 0xdf, 0x02,
  0xdb, 0xe6, 0x02, 0x1d, 0x02, 0x01, 0xff, 0x00, 0xeb, 0x00, 0x01, 0x00,
  0x16, 0xff, 0x17, 0x03, 0x16, 0xe7, 0xe9, 0x03, 0x03, 0x18, 0x03, 0x38,
  0x3e, 0x30, 0x02, 0x19, 0x03, 0xe8, 0x02, 0x02, 0x02, 0x01, 0xff, 0x00,
  0x00, 0x01, 0x01, 0x00, 0x00, 0x00, 0x01, 0x04, 0x03, 0x01, 0xe9, 0x03,
  0x04, 0x35, 0x2a, 0x03, 0xfe, 0x27, 0xe4, 0x05, 0x03, 0x02, 0x17, 0x03,
  0x03, 0x01, 0x00, 0x00, 0x00, 0x00, 0x01, 0x01, 0x00, 0x1a, 0x01, 0x04,
  0x1a, 0x02, 0x02, 0x03, 0x04, 0x1a, 0x28, 0x03, 0xea, 0xe2, 0xee, 0x05,
  0xde, 0x02, 0x1e, 0x1a, 0x03, 0x00, 0x00, 0x00, 0x00, 0x00, 0x18, 0x01,
  0x01, 0x01, 0x00, 0x04, 0x02, 0x23, 0x03, 0x02, 0xf1, 0x03, 0x03, 0xeb,
  0x03, 0xb6, 0xde, 0x04, 0x1c, 0x02, 0x02, 0x1c, 0x15, 0x00, 0x00, 0x00,
  0x00, 0x01, 0x01, 0x00, 0x00, 0x01, 0x00, 0x03, 0x18, 0x02, 0x02, 0x02,
  0x04, 0x02, 0x1c, 0x05, 0xec, 0xcd, 0xe7, 0x04, 0xe6, 0x02, 0x03, 0x03,
  0x1f, 0x00, 0x00, 0x00, 0x01, 0x01, 0x02, 0x01, 0x00, 0x01, 0x00, 0x1b,
  0x28, 0x14, 0x01, 0x02, 0x17, 0x03, 0x1b, 0x03, 0xf2, 0xdf, 0xeb, 0x04,
  0x02, 0x02, 0x02, 0x03, 0x25, 0xff, 0x00, 0x01, 0x00, 0x01, 0x02, 0x01,
  0x00, 0xee, 0xff, 0x18, 0x03, 0x19, 0x2c, 0x02, 0x23, 0x24, 0x01, 0x01,
  0x29, 0x02, 0x03, 0x03, 0x02, 0x02, 0x02, 0x02, 0x14, 0xff, 0x00, 0x00,
  0x00, 0x00, 0x01, 0x15, 0x00, 0x01, 0xff, 0x01, 0x25, 0x01, 0x01, 0x02,
  0x18, 0x03, 0x01, 0xdc, 0x03, 0x1f, 0x3a, 0x04, 0x02, 0x02, 0x02, 0x02,
  0x1a, 0x00, 0x00, 0x00, 0x01, 0x01, 0x14, 0x01, 0x00, 0xe8, 0x00, 0x01,
  0x16, 0x02, 0x01, 0x02, 0x04, 0x04, 0x16, 0xe6, 0x16, 0x2f, 0x15, 0x1b,
  0x03, 0x03, 0x03, 0x04, 0x02, 0x00, 0x01, 0x00, 0x01, 0x01, 0x23, 0x01,
  0xed, 0xe9, 0xeb, 0x00, 0x03, 0x02, 0x1a, 0x19, 0x19, 0x03, 0x02, 0x3e,
  0x04, 0x26, 0x03, 0x17, 0x03, 0xed, 0x03, 0x03, 0x01, 0xeb, 0x00, 0x00,
  0x01, 0x01, 0x13, 0x00, 0x01, 0x01, 0x00, 0xff, 0x02, 0x21, 0x01, 0x2a,
  0x1a, 0xe3, 0x37, 0x64, 0x06, 0x37, 0x29, 0x04, 0x2e, 0x03, 0x03, 0xec,
  0x01, 0x01, 0xe7, 0x01, 0x02, 0x01, 0x19, 0x13, 0x01, 0x01, 0x00, 0x00,
  0x03, 0x17, 0x01, 0x03, 0x17, 0xea, 0x16, 0x56, 0x06, 0x1f, 0x04, 0x03,
  0x1c, 0x03, 0x15, 0xec, 0x02, 0x01, 0xee, 0xee, 0x01, 0x01, 0x34, 0x18,
  0x13, 0x00, 0x00, 0x00, 0x02, 0x03, 0x1f, 0x1f, 0x04, 0xdd, 0x03, 0x34,
  0x05, 0x25, 0x2e, 0x1b, 0x2f, 0x24, 0x03, 0xe1, 0x00, 0x00, 0x00, 0x00,
  0x01, 0x01, 0x16, 0x00, 0x1a, 0x00, 0xff, 0xff, 0x01, 0x03, 0x1a, 0x33,
  0x3b, 0x02, 0x1d, 0x2e, 0x02, 0x02, 0x30, 0x1b, 0x34, 0x02, 0x02, 0x02,
  0xe0, 0xe7, 0xed, 0xea, 0x00, 0x00, 0x16, 0x00, 0x00, 0xff, 0xee, 0xfe,
  0x00, 0xe7, 0x25, 0x15, 0x23, 0x02, 0xe0, 0x3e, 0x02, 0x01, 0x02, 0x02,
  0x27, 0x02, 0xdd, 0x01, 0xff, 0xe2, 0xe2, 0xeb, 0x00, 0x00, 0x13, 0x00,
  0x00, 0xff, 0xff, 0xfe, 0xff, 0x01, 0x13, 0x2a, 0x03, 0xeb, 0xea, 0x1d,
  0xc8, 0xe1, 0xe3, 0x03, 0x03, 0x02, 0xdc, 0x01, 0xfd, 0xfe, 0xff, 0xff,
  0xff, 0xff, 0xff, 0xfe, 0xfe, 0xfe, 0xfe, 0xfd, 0xff, 0x01, 0x01, 0x4e,
  0x20, 0x03, 0xe0, 0x02, 0xc3, 0x01, 0x02, 0x03, 0x03, 0xe0, 0x02, 0xe9,
  0xe1, 0xfd, 0xe9, 0xfe, 0xe7, 0xe4, 0xff, 0xfe, 0xfe, 0xe5, 0xfd, 0xfd,
  0xd4, 0x02, 0xe5, 0x02, 0x24, 0x15, 0x01, 0xec, 0x21, 0x00, 0xe8, 0x38,
  0x01, 0x03, 0xd8, 0xcb, 0xe8, 0xe0, 0xff, 0xe5, 0xff, 0xff, 0xff, 0xfe,
  0xfe, 0xe6, 0xfe, 0xfc, 0xce, 0xe5, 0xee, 0x28, 0x02, 0x01, 0x00, 0x00,
  0x00, 0xf0, 0x0d, 0xd0, 0x44, 0x45, 0xd0, 0xac, 0xef, 0x01, 0xc6, 0x00,
  0x3f, 0x29, 0x17, 0x41, 0x01, 0xc7, 0x00, 0xdf, 0xaf, 0xeb, 0x2f, 0x27,
  0x1e, 0xdb, 0xf0, 0x00, 0x00, 0x02, 0xe3, 0xd2, 0x2a, 0x0f, 0x20, 0x02,
  0x01, 0xc0, 0xda, 0xec, 0x17, 0x0f, 0x0d, 0x28, 0x01, 0xd8, 0xab, 0xc8,
  0x00, 0x0f, 0x01, 0xdd, 0x01, 0x00, 0xe3, 0x00, 0xd2, 0xee, 0xec, 0x01,
  0x00, 0x22, 0x01, 0xed, 0x01, 0x00, 0x19, 0xff, 0xff, 0x1f, 0x2c, 0x19,
  0xff, 0x00, 0x01, 0x00, 0xde, 0xf1, 0x18, 0xf1, 0xe0, 0xe6, 0x01, 0x01,
  0xd3, 0xdc, 0x02, 0xff, 0xff, 0xff, 0xf3, 0x13, 0x11, 0x00, 0xee, 0x00,
  0x00, 0x1a, 0x1c, 0x15, 0x00, 0x00, 0xf0, 0x11, 0x12, 0x01, 0x01, 0xf4,
  0x22, 0xef, 0xea, 0xe7, 0xcf, 0xf0, 0x1c, 0x00, 0xed, 0xf3, 0x03, 0x10,
  0x01, 0x00, 0x00, 0x00, 0x15, 0x16, 0x1e, 0x0d, 0x00, 0x01, 0xe8, 0xef,
  0xee, 0x02, 0x0e, 0xd8, 0x02, 0xec, 0xec, 0x93, 0xd3, 0x1b, 0x29, 0xe6,
  0xdf, 0x02, 0x03, 0x02, 0x01, 0x00, 0x00, 0x00, 0x00, 0x00, 0x00, 0x00,
  0x00, 0xe3, 0x00, 0xf2, 0xf4, 0xe9, 0x02, 0xe4, 0xda, 0xde, 0xc2, 0xd6,
  0xdf, 0x10, 0xd4, 0xff, 0x0f, 0x02, 0x02, 0x02, 0x10, 0x00, 0x00, 0x00,
  0x00, 0x00, 0x00, 0x00, 0x00, 0x00, 0x00, 0x01, 0x01, 0xf4, 0xe7, 0x03,
  0x03, 0xda, 0xab, 0xb0, 0xca, 0xde, 0xce, 0x15, 0x00, 0x03, 0x02, 0x01,
  0x00, 0xf1, 0x00, 0xff, 0xf1, 0xff, 0x00, 0x00, 0x01, 0x00, 0x00, 0x01,
  0xf5, 0xf1, 0x02, 0x03, 0xed, 0xdc, 0xd6, 0xea, 0xb6, 0xce, 0xda, 0x19,
  0x01, 0x02, 0x02, 0x02, 0x01, 0x00, 0x00, 0x00, 0xff, 0x00, 0x00, 0x01,
  0x00, 0x01, 0x01, 0x01, 0x12, 0x01, 0x01, 0xf5, 0x01, 0xff, 0xfe, 0x00,
  0xaf, 0x00, 0x0f, 0x1c, 0x02, 0xf0, 0x01, 0x10, 0x01, 0x01, 0x00, 0xf0,
  0x00, 0x00, 0x00, 0x00, 0x00, 0x00, 0x14, 0x01, 0x19, 0x01, 0x00, 0x00,
  0x00, 0xfe, 0xf0, 0x13, 0xcb, 0x00, 0x29, 0x22, 0x01, 0x02, 0xf4, 0x02,
  0x14, 0x01, 0x00, 0xeb, 0x00, 0x00, 0x00, 0x00, 0x00, 0x00, 0x01, 0x01,
  0x01, 0xee, 0xff, 0x00, 0x10, 0x00, 0xf0, 0x01, 0xa0, 0xc3, 0xdd, 0xff,
  0x01, 0x02, 0x00, 0x01, 0x15, 0x00, 0x00, 0x00, 0x00, 0x00, 0x00, 0x01,
  0xff, 0x00, 0x01, 0x0d, 0x01, 0x00, 0xff, 0x00, 0x00, 0x01, 0x0d, 0xf6,
  0xb5, 0xd3, 0xd2, 0xea, 0xeb, 0x03, 0x00, 0x01, 0x15, 0x15, 0x00, 0x00,
  0xec, 0x00, 0xee, 0x00, 0xff, 0x00, 0x00, 0x14, 0x01, 0x00, 0x00, 0x02,
  0x01, 0x01, 0x27, 0x03, 0xc4, 0xce, 0xe0, 0xd6, 0x03, 0x03, 0x01, 0x01,
  0x14, 0x10, 0x00, 0xed, 0x00, 0x00, 0x00, 0x00, 0xff, 0x00, 0x12, 0x0e,
  0x0d, 0x01, 0x01, 0x02, 0x01, 0x01, 0x1a, 0x00, 0xdf, 0xdb, 0xdf, 0xda,
  0xee, 0x03, 0x02, 0x01, 0x00, 0x01, 0x00, 0xff, 0x00, 0xff, 0x00, 0x00,
  0xe8, 0xea, 0x00, 0x00, 0x10, 0x00, 0x01, 0x02, 0x02, 0x01, 0x00, 0xed,
  0xd5, 0xdd, 0xdc, 0xf4, 0xf6, 0x03, 0x02, 0x01, 0x00, 0x14, 0xff, 0xff,
  0xef, 0xff, 0xff, 0x00, 0xed, 0x00, 0x00, 0x0f, 0x01, 0x00, 0x01, 0x03,
  0x02, 0x01, 0x00, 0xee, 0xf0, 0xf1, 0xe9, 0xe8, 0xf6, 0x02, 0x01, 0x01,
  0x00, 0x00, 0x12, 0x00, 0x00, 0x00, 0xff, 0x00, 0xf2, 0x00, 0x00, 0x0e,
  0x01, 0x01, 0x17, 0x13, 0x14, 0x01, 0x00, 0xe0, 0x01, 0x02, 0xe4, 0xec,
  0x02, 0x02, 0x17, 0x02, 0x11, 0x00, 0x00, 0x00, 0xff, 0x00, 0x00, 0x00,
  0x00, 0x00, 0xff, 0x00, 0x01, 0x01, 0x01, 0x03, 0x03, 0x02, 0x01, 0xe3,
  0x00, 0xeb, 0xda, 0x02, 0x02, 0x1d, 0x11, 0x01, 0x00, 0x00, 0x00, 0x00,
  0x00, 0x00, 0x00, 0x00, 0x00, 0x00, 0xff, 0x00, 0x01, 0x01, 0x02, 0x02,
  0x17, 0x02, 0x00, 0xfe, 0x00, 0x02, 0xee, 0x03, 0x03, 0x0f, 0x02, 0x01,
  0x00, 0x00, 0xef, 0xff, 0xf2, 0xf1, 0xff, 0xff, 0x00, 0xff, 0xff, 0x00,
  0x01, 0x00, 0x01, 0x02, 0x02, 0x01, 0xeb, 0x0d, 0x01, 0x01, 0x01, 0x11,
  0x22, 0x01, 0x02, 0x13, 0x01, 0x00, 0xe8, 0xe9, 0xf1, 0xf0, 0xf2, 0xff,
  0x00, 0xff, 0xff, 0x01, 0x01, 0x01, 0x01, 0x02, 0x02, 0x01, 0x01, 0xfe,
  0xe9, 0xdf, 0x02, 0x17, 0x1f, 0x10, 0x02, 0x1d, 0x01, 0x00, 0xef, 0xed,
  0xf0, 0x00, 0xf3, 0xff, 0xff, 0xff, 0x00, 0x0e, 0x01, 0x01, 0x01, 0x14,
  0x1b, 0x02, 0xf0, 0xe2, 0x04, 0x04, 0x1c, 0x14, 0x03, 0x02, 0x11, 0x1b,
  0x01, 0x00, 0x00, 0x00, 0x00, 0x00, 0x00, 0xff, 0x00, 0x11, 0x00, 0x12,
  0x01, 0x01, 0x01, 0x02, 0x03, 0x03, 0xeb, 0xc0, 0x20, 0x18, 0x27, 0x03,
  0x10, 0x0f, 0x03, 0x00, 0x0d, 0xef, 0xf2, 0xf2, 0xf2, 0x00, 0x00, 0xff,
  0xff, 0xff, 0xff, 0x00, 0x13, 0x00, 0x02, 0x18, 0x03, 0x13, 0xe6, 0xea,
  0xe8, 0xe7, 0x01, 0x01, 0x02, 0x02, 0xf5, 0x00, 0x00, 0xee, 0x00, 0x00,
  0x00, 0x00, 0x00, 0xff, 0xff, 0xff, 0xff, 0x00, 0x19, 0xf0, 0x0f, 0x16,
  0x02, 0x01, 0x02, 0x00, 0xdf, 0x01, 0x01, 0x01, 0x02, 0x02, 0xf5, 0xef,
  0xf3, 0x00, 0xf2, 0xff, 0xff, 0x0e, 0xff, 0xff, 0xff, 0xff, 0xeb, 0x00,
  0x00, 0x00, 0x01, 0x13, 0x10, 0x15, 0x01, 0xda, 0xbf, 0xdf, 0x1f, 0x2c,
  0x23, 0xe8, 0x01, 0xd7, 0xcc, 0xe7, 0xff, 0xff, 0x0c, 0x16, 0x10, 0x15,
  0x11, 0x10, 0xff, 0xeb, 0xd4, 0xff, 0x00, 0x14, 0x30, 0x17, 0x1a, 0xf1,
  0x13, 0x1f, 0x0f, 0x0d, 0x11, 0x01, 0x21, 0xe6, 0x81, 0xb9, 0xf1, 0x0d,
  0x12, 0x3e, 0x32, 0x1c, 0x22, 0x11, 0xca, 0x9b, 0xae, 0xfd, 0x1f, 0x00,
  0x0e, 0xff, 0x23, 0x00, 0x00, 0xe8, 0xc6, 0xdf, 0xe8, 0x03, 0x40, 0x42,
  0x36, 0x2d, 0x35, 0x26, 0xfe, 0x25, 0x3b, 0xfe, 0x0e, 0x10, 0x01, 0x5e,
  0x3e, 0x43, 0x4b, 0x1d, 0xdc, 0xe7, 0xdb, 0x00, 0xec, 0xea, 0xc8, 0xeb,
  0xeb, 0x03, 0xff, 0xd7, 0x01, 0x01, 0x18, 0x16, 0xff, 0xff, 0xff, 0x00,
  0x20, 0x36, 0x02, 0x16, 0x01, 0x01, 0x1c, 0xff, 0x12, 0xbc, 0x00, 0xee,
  0xf1, 0x00, 0x0e, 0x0f, 0xdc, 0xc5, 0xe1, 0xe9, 0xe7, 0xe8, 0x02, 0x01,
  0x17, 0x00, 0x00, 0x00, 0x01, 0x01, 0x01, 0x01, 0xf2, 0x00, 0xff, 0xe9,
  0xec, 0xba, 0x00, 0xf1, 0x00, 0x00, 0xfe, 0xff, 0xde, 0xec, 0xff, 0xe8,
  0xd6, 0xf2, 0x16, 0x01, 0x01, 0x01, 0x11, 0x01, 0x01, 0x12, 0x01, 0x01,
  0x01, 0xef, 0xfe, 0xff, 0xff, 0xa9, 0xe0, 0xef, 0x00, 0x00, 0xfe, 0xdf,
  0xca, 0xff, 0xff, 0xee, 0xe2, 0x01, 0x01, 0xee, 0x00, 0x00, 0x01, 0xf1,
  0x01, 0x00, 0x01, 0x00, 0xe5, 0x00, 0x00, 0x0e, 0xcd, 0xde, 0xcf, 0xed,
  0xef, 0xeb, 0xfe, 0xea, 0xf5, 0xff, 0xfe, 0xfe, 0xe9, 0x01, 0xe4, 0x00,
  0x00, 0x00, 0x00, 0x01, 0x01, 0x01, 0x01, 0x00, 0xfe, 0xfe, 0xff, 0x16,
  0xdd, 0x99, 0xd1, 0xe1, 0xe2, 0xd5, 0xe6, 0xea, 0x03, 0xfe, 0x1b, 0xfe,
  0xff, 0x01, 0xe3, 0xe7, 0x01, 0x01, 0x1f, 0x01, 0x01, 0x00, 0x01, 0x01,
  0x11, 0xfe, 0x16, 0xfe, 0xe4, 0x85, 0xbb, 0xef, 0xda, 0xbd, 0xa8, 0x00,
  0x04, 0xfe, 0xfe, 0xff, 0xff, 0x01, 0x01, 0xe7, 0xeb, 0x02, 0x1d, 0x02,
  0xf0, 0x00, 0x01, 0x01, 0xfe, 0xfe, 0xff, 0xfd, 0xed, 0x83, 0xae, 0xe2,
  0xe0, 0xc4, 0xad, 0xe1, 0x03, 0xfe, 0xf0, 0xfe, 0x0d, 0x00, 0x1b, 0x02,
  0x03, 0x03, 0x16, 0x02, 0x02, 0x15, 0x02, 0x01, 0xfe, 0xfd, 0xfe, 0xfe,
  0xff, 0x92, 0xba, 0xea, 0xd0, 0xdc, 0xd4, 0xe2, 0x0f, 0xff, 0xeb, 0xfe,
  0xff, 0x00, 0x1d, 0x02, 0x02, 0x01, 0x00, 0x02, 0x02, 0x28, 0x22, 0x00,
  0xfe, 0xec, 0xff, 0xfe, 0xe4, 0xd3, 0xc1, 0xd6, 0xe1, 0x00, 0xc7, 0xf2,
  0x03, 0x00, 0xfe, 0xfd, 0xfe, 0x00, 0x02, 0x02, 0x02, 0x01, 0x01, 0x02,
  0x13, 0x16, 0x1c, 0x0e, 0xf0, 0xfd, 0xe7, 0xfd, 0xff, 0xc6, 0xb0, 0xcc,
  0x0f, 0x00, 0x00, 0x01, 0x13, 0xff, 0xff, 0xfe, 0xfe, 0x00, 0x01, 0x02,
  0x02, 0x01, 0x00, 0x02, 0x18, 0x0f, 0x01, 0x0e, 0xfe, 0xfe, 0xfe, 0xff,
  0xff, 0xcf, 0xda, 0xd4, 0x16, 0x00, 0xfe, 0x22, 0x0e, 0xee, 0xfe, 0xfe,
  0xfd, 0x00, 0x01, 0x01, 0x19, 0x02, 0x00, 0x02, 0x15, 0x01, 0x01, 0xff,
  0x0f, 0xfe, 0xea, 0xfe, 0xf0, 0xe3, 0xbe, 0xe4, 0xde, 0xe6, 0x16, 0x21,
  0xff, 0xff, 0xff, 0x1c, 0xfd, 0x00, 0x01, 0x1e, 0x19, 0x01, 0x00, 0x02,
  0x1e, 0x02, 0x01, 0xff, 0xfe, 0xfe, 0xfe, 0xee, 0xee, 0xe9, 0xdc, 0xff,
  0xfe, 0xfe, 0x00, 0x00, 0xff, 0xfe, 0xfe, 0x16, 0xfe, 0x00, 0x00, 0x01,
  0x15, 0x01, 0xe9, 0x02, 0x1e, 0x15, 0xf2, 0xfe, 0xfe, 0x15, 0xfe, 0xfd,
  0xfe, 0xe4, 0xdc, 0xce, 0xfe, 0x14, 0xff, 0x12, 0xfe, 0xfe, 0x14, 0x19,
  0x0f, 0x01, 0x01, 0x01, 0x02, 0xe9, 0xdb, 0x02, 0x16, 0x01, 0xf0, 0xfe,
  0xfd, 0xfd, 0xfe, 0xfe, 0xfd, 0xff, 0xd0, 0xe0, 0x25, 0x0b, 0xfd, 0xff,
  0xee, 0xff, 0x14, 0xfd, 0xfd, 0x00, 0x00, 0x1c, 0x02, 0xe7, 0xdf, 0x0f,
  0x12, 0x02, 0x00, 0xfe, 0xfd, 0xfd, 0xfe, 0xef, 0xe5, 0xff, 0xd7, 0xd6,
  0xff, 0xff, 0xff, 0x01, 0xfe, 0xfe, 0x12, 0xfc, 0xfe, 0x00, 0x12, 0x01,
  0x02, 0xdb, 0xcd, 0x01, 0x14, 0x02, 0xf3, 0xfe, 0xfe, 0xfe, 0xfe, 0xfd,
  0xe4, 0x00, 0xc7, 0xc3, 0xc4, 0xc7, 0x01, 0xeb, 0xfe, 0xfe, 0x12, 0x0c,
  0xff, 0x00, 0x11, 0x00, 0x14, 0xd8, 0xbf, 0x01, 0x01, 0x15, 0xf0, 0xff,
  0xfe, 0xfe, 0xfd, 0xdc, 0xfd, 0xff, 0xc1, 0xc0, 0x00, 0xee, 0x0d, 0x00,
  0xeb, 0xfd, 0x0d, 0xfd, 0xff, 0x00, 0x01, 0x01, 0x02, 0xda, 0xc5, 0x01,
  0x01, 0x02, 0x00, 0xff, 0xf0, 0xfd, 0xfe, 0xfd, 0xfd, 0xe5, 0xcc, 0x00,
  0xca, 0xd8, 0xed, 0x00, 0xfe, 0xfe, 0x13, 0xfe, 0xe9, 0xff, 0x00, 0x01,
  0x02, 0xec, 0xcb, 0x01, 0x01, 0x01, 0x00, 0xfe, 0xfe, 0xfd, 0xfe, 0xdc,
  0xfe, 0xe3, 0xcd, 0xa6, 0xcd, 0x00, 0x01, 0x00, 0xff, 0xfe, 0xfe, 0xfd,
  0xfe, 0xfe, 0x00, 0x12, 0x11, 0xf0, 0xc6, 0x01, 0x00, 0x0f, 0xff, 0xfd,
  0xff, 0x15, 0xfe, 0xeb, 0xdf, 0xd5, 0x00, 0xbb, 0xc6, 0x18, 0x01, 0x00,
  0xff, 0xfe, 0x18, 0x1b, 0xee, 0xfe, 0x01, 0x02, 0x16, 0xf0, 0xc4, 0xef,
  0x00, 0x01, 0x00, 0xfe, 0xff, 0x17, 0xfe, 0xe7, 0xe5, 0xff, 0x01, 0xef,
  0xd4, 0x1b, 0x00, 0x0d, 0xff, 0xfe, 0x0e, 0x25, 0xe5, 0xfe, 0x01, 0x0f,
  0x01, 0x00, 0xc1, 0x01, 0x00, 0x01, 0x00, 0xfe, 0xfe, 0x1b, 0xfe, 0xe1,
  0xe8, 0xff, 0x01, 0x00, 0x00, 0xeb, 0xfe, 0xfe, 0xff, 0xec, 0x1d, 0x0f,
  0xe5, 0xff, 0xf2, 0x01, 0x13, 0xe6, 0xc5, 0x00, 0x00, 0x01, 0x00, 0xed,
  0xdd, 0x13, 0xfe, 0xe4, 0xfe, 0xe8, 0x01, 0x00, 0xe6, 0x00, 0x16, 0xff,
  0xe0, 0xef, 0x13, 0x01, 0x01, 0x00, 0x01, 0x02, 0x02, 0xdd, 0xc7, 0xee,
  0x01, 0x02, 0x01, 0xfe, 0xcf, 0x0d, 0x12, 0xdf, 0xe5, 0xe0, 0x2b, 0x00,
  0x00, 0x20, 0x34, 0xff, 0xc6, 0xfd, 0xfe, 0xf2, 0x02, 0x12, 0x02, 0x02,
  0x14, 0x02, 0xe4, 0x03, 0x02, 0x03, 0x0f, 0x00, 0xec, 0xff, 0x13, 0xc6,
  0xd3, 0x18, 0x42, 0x00, 0x13, 0xed, 0x59, 0x3a, 0x01, 0xfe, 0x16, 0x01,
  0xdb, 0xe9, 0x03, 0x1c, 0x03, 0x9b, 0x81, 0x03, 0x25, 0x2e, 0x25, 0x02,
  0x22, 0x18, 0x0e, 0xfe, 0xd2, 0x2b, 0x3f, 0x11, 0x00, 0xed, 0xff, 0xff,
  0xe4, 0xd9, 0xea, 0x2e, 0x2b, 0x36, 0x27, 0xfe, 0xfe, 0x8a, 0x81, 0xc8,
  0xfd, 0x15, 0x21, 0x01, 0x4c, 0x35, 0x03, 0xe3, 0x16, 0x0e, 0xee, 0xd8,
  0x17, 0xe0, 0xff, 0x02, 0xe5, 0x03, 0x22, 0x54, 0x44, 0x3a, 0x3a, 0x25,
  0x0c, 0xed, 0xda, 0xfd, 0xfe, 0x0e, 0x1e, 0x00, 0x1b, 0x3d, 0x01, 0xe2,
  0x34, 0x18, 0x01, 0x00, 0xe6, 0xef, 0xfe, 0x02, 0xeb, 0x00, 0xff, 0x2e,
  0x2c, 0x25, 0x16, 0xff, 0x11, 0xfd, 0xfd, 0xfe, 0xff, 0x10, 0x17, 0x13,
  0x01, 0x02, 0x1c, 0x01, 0x0f, 0x28, 0xff, 0xff, 0xcd, 0xe6, 0x01, 0xbd,
  0x03, 0x03, 0x01, 0xf0, 0x1f, 0xff, 0xff, 0xff, 0x00, 0xf0, 0xe8, 0xff,
  0x00, 0xfe, 0xfe, 0x17, 0xed, 0xce, 0xed, 0x2b, 0x17, 0xf2, 0x14, 0xe8,
  0xf1, 0xff, 0x01, 0x02, 0x1c, 0x23, 0xef, 0xe2, 0x01, 0xff, 0xff, 0xfe,
  0xff, 0xfe, 0xfe, 0x14, 0x0f, 0x18, 0x16, 0x01, 0xe5, 0xe3, 0x02, 0x02,
  0x26, 0x00, 0x01, 0x1f, 0x01, 0xc8, 0xd4, 0x03, 0x04, 0xf6, 0x02, 0xcd,
  0xf3, 0xff, 0x12, 0xff, 0xff, 0xfe, 0xff, 0x11, 0x16, 0x1b, 0x25, 0x01,
  0xf1, 0xef, 0x02, 0x01, 0x19, 0x12, 0x19, 0x24, 0xe7, 0xd4, 0xf0, 0x03,
  0x04, 0x04, 0xde, 0xd9, 0x00, 0x0e, 0xff, 0xe7, 0xff, 0xff, 0x0f, 0x00,
  0x00, 0x00, 0x2d, 0x1b, 0xeb, 0x03, 0x02, 0x18, 0x25, 0x25, 0x2f, 0x26,
  0xd6, 0xe0, 0x01, 0x00, 0x12, 0x12, 0xff, 0xd9, 0x00, 0xff, 0xff, 0xe7,
  0xff, 0xfe, 0xe6, 0x00, 0x00, 0x0f, 0x1c, 0x1e, 0xee, 0xe5, 0x02, 0x00,
  0x1c, 0x17, 0x11, 0x02, 0x00, 0xf2, 0xde, 0xe7, 0x01, 0xf5, 0xfe, 0xd3,
  0x00, 0xec, 0xd6, 0xed, 0xe3, 0xda, 0xe6, 0xf2, 0x01, 0x01, 0xff, 0x00,
  0xe9, 0xd9, 0xf2, 0x02, 0x1e, 0x14, 0x01, 0x1c, 0xd2, 0xd5, 0xc4, 0xd1,
  0xe0, 0xe4, 0xd1, 0xe3, 0xf0, 0xe6, 0xdb, 0xf0, 0x00, 0xe6, 0x01, 0x01,
  0x14, 0x01, 0x00, 0xea, 0xf1, 0xdc, 0xed, 0x13, 0x01, 0x10, 0x1a, 0x03,
  0xcb, 0xd6, 0xd3, 0xe5, 0xe1, 0xde, 0xe5, 0xdb, 0xdc, 0xe5, 0xe9, 0x00,
  0xff, 0xf0, 0x12, 0x11, 0x02, 0x0f, 0x01, 0x01, 0xe8, 0xe7, 0xf1, 0x14,
  0x03, 0x16, 0x02, 0x13, 0xc3, 0xea, 0xd0, 0xd7, 0xa6, 0xc8, 0xd2, 0xde,
  0x00, 0xff, 0x01, 0x1b, 0x00, 0x02, 0x02, 0x01, 0x02, 0x02, 0x01, 0x01,
  0x02, 0xef, 0x02, 0x03, 0x18, 0x26, 0x1d, 0x01, 0xcd, 0x02, 0xde, 0xd3,
  0xc9, 0xca, 0xcc, 0xef, 0x00, 0x0e, 0x18, 0x0f, 0x01, 0x02, 0x16, 0x12,
  0x12, 0x02, 0x01, 0x01, 0x02, 0x02, 0x02, 0x02, 0x02, 0x17, 0x1e, 0x1d,
  0xb3, 0x02, 0x19, 0x02, 0xe5, 0xbf, 0xe3, 0x0d, 0x00, 0xf2, 0x02, 0x01,
  0x01, 0x19, 0x02, 0x02, 0x03, 0x02, 0x02, 0x16, 0x02, 0xe3, 0xf4, 0x03,
  0x03, 0x1b, 0x03, 0x01, 0x03, 0x2a, 0x1b, 0x01, 0xdf, 0xc1, 0xeb, 0x01,
  0x01, 0x01, 0x10, 0x00, 0x01, 0x02, 0x02, 0x15, 0x11, 0x01, 0x02, 0x02,
  0xf1, 0x03, 0x02, 0x10, 0x17, 0x12, 0x02, 0x02, 0x2b, 0x15, 0x02, 0x01,
  0xed, 0xd4, 0x01, 0x02, 0x01, 0x00, 0x02, 0x1d, 0x01, 0x02, 0x03, 0x01,
  0x01, 0x00, 0x01, 0x02, 0x01, 0x17, 0x17, 0x03, 0xf3, 0x1b, 0x12, 0x03,
  0x3f, 0x19, 0x02, 0x01, 0x02, 0xd0, 0xe8, 0x02, 0x01, 0x01, 0x01, 0x16,
  0x01, 0x02, 0x03, 0x01, 0x01, 0x16, 0x10, 0x01, 0x01, 0x02, 0x02, 0x02,
  0x01, 0x01, 0x02, 0x03, 0x34, 0x1b, 0x16, 0x12, 0xe3, 0xd8, 0xe4, 0xf3,
  0x01, 0x01, 0x00, 0x15, 0x00, 0x00, 0x01, 0x00, 0x00, 0x00, 0x00, 0x14,
  0x00, 0xf2, 0xed, 0x01, 0x01, 0x00, 0x01, 0x02, 0x17, 0x02, 0x28, 0x10,
  0x01, 0x01, 0xf0, 0x01, 0x00, 0x19, 0x00, 0x01, 0x00, 0x00, 0x01, 0x00,
  0xff, 0x00, 0x00, 0x01, 0x01, 0xe9, 0x00, 0xf1, 0xf3, 0x01, 0x20, 0x03,
  0x02, 0x02, 0x11, 0x02, 0x02, 0xd4, 0x02, 0x01, 0x19, 0x00, 0x01, 0x11,
  0x00, 0x00, 0x0f, 0x00, 0x01, 0x15, 0x00, 0x01, 0x02, 0x02, 0x02, 0x02,
  0xea, 0xde, 0x12, 0x35, 0x21, 0x02, 0x01, 0x01, 0x01, 0x00, 0x00, 0x00,
  0x00, 0x00, 0x15, 0x00, 0xff, 0x00, 0x0e, 0x00, 0x00, 0x27, 0x14, 0xff,
  0x00, 0xf1, 0xf0, 0x00, 0x00, 0xe2, 0xff, 0x00, 0x02, 0xe9, 0x0e, 0x01,
  0x00, 0xed, 0x00, 0x00, 0x10, 0xff, 0x01, 0x00, 0xff, 0xff, 0x12, 0xff,
  0x21, 0x16, 0xfe, 0x0e, 0xff, 0x00, 0xef, 0x00, 0xe1, 0xe9, 0x00, 0x11,
  0x01, 0x19, 0x2a, 0x0e, 0x00, 0x00, 0x14, 0x14, 0xff, 0x10, 0x01, 0xff,
  0xf1, 0xef, 0x00, 0xff, 0xff, 0xff, 0xff, 0xff, 0xf1, 0x00, 0xec, 0xe6,
  0xe6, 0xdf, 0x01, 0x03, 0xeb, 0x00, 0x01, 0xed, 0x00, 0x10, 0x14, 0x1d,
  0xff, 0x00, 0x01, 0x00, 0xe2, 0xd8, 0x00, 0xe9, 0xff, 0xff, 0xeb, 0xff,
  0xff, 0x00, 0xf1, 0x00, 0xeb, 0xd1, 0x00, 0xde, 0x28, 0x10, 0x00, 0xe8,
  0xe7, 0x18, 0x1c, 0x23, 0x17, 0x00, 0x01, 0xf1, 0xff, 0xee, 0xff, 0xe9,
  0xe9, 0xef, 0xed, 0xff, 0x17, 0x1a, 0x11, 0xff, 0xff, 0xe1, 0xeb, 0xaf,
  0xff, 0x2d, 0xff, 0x1c, 0x0f, 0x1d, 0x16, 0x1a, 0xff, 0x00, 0x01, 0x00,
  0xe8, 0xe7, 0xee, 0xd9, 0xff, 0xef, 0xff, 0x18, 0x2b, 0x1e, 0x00, 0xff,
  0x00, 0xd1, 0xdc, 0xcf, 0xfe, 0xff, 0xdf, 0xe1, 0xff, 0x2b, 0x1e, 0x32,
  0x1c, 0x11, 0x02, 0x01, 0xec, 0xe8, 0xff, 0xd9, 0xff, 0xff, 0x00, 0x20,
  0x24, 0x19, 0xe4, 0x00, 0x14, 0xe8, 0x00, 0xea, 0xce, 0x13, 0xe3, 0xda,
  0xc7, 0xcd, 0xd1, 0xff, 0xfe, 0xe5, 0xdc, 0xeb, 0xff, 0x49, 0x5b, 0xd0,
  0xe9, 0xc0, 0xc9, 0xff, 0x00, 0xe8, 0xd7, 0xfd, 0x39, 0x24, 0x18, 0xff,
  0xb3, 0xac, 0x81, 0x20, 0x01, 0x02, 0x5d, 0xfe, 0xbf, 0xb0, 0xdd, 0xdd,
  0xeb, 0x5b, 0x5a, 0x06, 0xd4, 0xd0, 0xd0, 0xc5, 0xfe, 0x33, 0x45, 0x01,
  0xa6, 0x4a, 0x4b, 0xa3, 0x8c, 0xfd, 0x8b, 0xa6, 0xca, 0x1e, 0x30, 0xfb,
  0xfc, 0x29, 0x35, 0x2c, 0x02, 0x03, 0x27, 0x04, 0x02, 0x44, 0xfd, 0xfc,
  0xfe, 0xfd, 0x1f, 0x2f, 0xe3, 0xfc, 0x61, 0x99, 0x59, 0x2d, 0xfc, 0xc3,
  0xdb, 0xfc, 0xb5, 0xb3, 0xd2, 0xfd, 0x01, 0x01, 0x02, 0x03, 0x03, 0x01,
  0x02, 0x02, 0xfd, 0xfc, 0xc1, 0xc7, 0xd9, 0xfd, 0x9a, 0x1c, 0x43, 0x1c,
  0x68, 0x1c, 0xf9, 0xfb, 0xfb, 0xfa, 0xcb, 0xcf, 0xdc, 0x00, 0x02, 0x28,
  0x01, 0x03, 0x03, 0x25, 0x01, 0x02, 0x01, 0xff, 0xfb, 0xfb, 0xfa, 0xd9,
  0xb8, 0x47, 0x4d, 0x28, 0x4b, 0x2c, 0xfd, 0xfe, 0xfd, 0x26, 0xfd, 0xd7,
  0x00, 0x01, 0x01, 0x00, 0x36, 0x31, 0x2a, 0x01, 0x2a, 0x01, 0x03, 0x01,
  0xff, 0xd3, 0xfd, 0xd1, 0xe4, 0x35, 0x2d, 0x00, 0x79, 0x35, 0xde, 0xff,
  0xfe, 0x1c, 0xde, 0x00, 0xff, 0x00, 0x1f, 0x1d, 0x2e, 0x2c, 0x1b, 0x01,
  0x2a, 0x24, 0x03, 0x00, 0xbb, 0xc9, 0x00, 0x15, 0xfe, 0xfe, 0x2f, 0x36,
  0x36, 0x18, 0xe3, 0xfe, 0x28, 0xfe, 0xfe, 0xd4, 0xd7, 0x01, 0x01, 0x31,
  0x22, 0x03, 0x02, 0x01, 0x01, 0x01, 0x03, 0x02, 0xc9, 0xe6, 0xff, 0xfd,
  0xfe, 0xd7, 0x2b, 0xff, 0x36, 0x00, 0xfd, 0xff, 0x00, 0xff, 0xe0, 0xc8,
  0xde, 0x02, 0x42, 0x01, 0x34, 0x02, 0x01, 0x01, 0x01, 0x22, 0x03, 0xdb,
  0xdf, 0xe2, 0x00, 0xfe, 0xfd, 0xfd, 0x00, 0x59, 0x57, 0x00, 0xda, 0x22,
  0x01, 0x00, 0x00, 0xad, 0x01, 0x1b, 0x02, 0x35, 0x02, 0x01, 0x1a, 0x01,
  0x01, 0x01, 0x02, 0xde, 0xcb, 0xcb, 0x01, 0x1f, 0xfd, 0xfc, 0x1d, 0x6e,
  0x4f, 0xff, 0xff, 0x00, 0xe8, 0x00, 0xd6, 0xcc, 0xc9, 0x02, 0x02, 0x1c,
  0x02, 0x02, 0x01, 0x01, 0x01, 0x01, 0x1c, 0x03, 0xcf, 0xdb, 0x00, 0x2a,
  0x1d, 0xfd, 0x01, 0x4b, 0x4a, 0x01, 0xff, 0x1c, 0x02, 0x00, 0x02, 0x02,
  0x03, 0x32, 0x01, 0x24, 0x02, 0x02, 0x01, 0x01, 0x01, 0x01, 0x29, 0x04,
  0xdc, 0xd1, 0x01, 0x00, 0x00, 0xfe, 0x19, 0x27, 0x38, 0x01, 0xd9, 0x03,
  0x02, 0x00, 0x03, 0x02, 0x1e, 0x23, 0x01, 0x25, 0x02, 0x01, 0x01, 0x01,
  0x01, 0x02, 0x02, 0x2c, 0x01, 0x01, 0x02, 0x01, 0xff, 0xfd, 0x00, 0x43,
  0x2a, 0x00, 0x01, 0x04, 0x01, 0x00, 0x02, 0x02, 0x03, 0x02, 0x01, 0x02,
  0x02, 0x01, 0x01, 0x01, 0x02, 0x02, 0x25, 0x38, 0x02, 0x01, 0x02, 0x01,
  0xff, 0xfe, 0xd9, 0x2e, 0x58, 0x02, 0x1e, 0x3a, 0x4b, 0x01, 0x02, 0x02,
  0x2a, 0x02, 0x02, 0x02, 0x02, 0x02, 0x01, 0x01, 0x02, 0x02, 0x02, 0x04,
  0x30, 0x02, 0x01, 0x1e, 0x00, 0xfe, 0xe7, 0x04, 0x40, 0x03, 0x02, 0x25,
  0x1f, 0x01, 0xe2, 0x2f, 0x1c, 0x01, 0x21, 0x2e, 0x02, 0x02, 0x01, 0x01,
  0x01, 0x02, 0x02, 0x03, 0x22, 0x01, 0x01, 0x01, 0x01, 0xff, 0xff, 0x03,
  0x06, 0x03, 0x02, 0x02, 0x01, 0x01, 0x02, 0x2b, 0x03, 0x00, 0x00, 0x02,
  0x02, 0x01, 0x00, 0x01, 0x01, 0x00, 0x01, 0x01, 0x02, 0x02, 0x02, 0x02,
  0x00, 0xfe, 0xff, 0x03, 0x6d, 0x02, 0x02, 0x03, 0x01, 0x01, 0x02, 0x02,
  0x02, 0x01, 0x00, 0x02, 0x01, 0x01, 0x01, 0x01, 0x00, 0x01, 0x01, 0x01,
  0x02, 0x02, 0x01, 0x02, 0xff, 0xfe, 0xff, 0x01, 0xff, 0xfd, 0x42, 0x01,
  0x00, 0x00, 0x01, 0x01, 0x02, 0x01, 0x01, 0x01, 0x01, 0xd7, 0xe6, 0x02,
  0x01, 0x01, 0x02, 0x1d, 0x03, 0x02, 0x01, 0x01, 0x1b, 0x35, 0xfe, 0xe4,
  0x23, 0x18, 0xff, 0x00, 0x00, 0x01, 0x01, 0x02, 0x02, 0x02, 0x02, 0x00,
  0x01, 0x01, 0x01, 0x01, 0x01, 0x02, 0x03, 0x02, 0x02, 0x02, 0x01, 0x20,
  0x1a, 0xfe, 0xfe, 0xb3, 0x01, 0x00, 0xdf, 0x01, 0x01, 0x01, 0x01, 0x02,
  0x1b, 0xe2, 0x01, 0x01, 0x02, 0x1e, 0x02, 0x02, 0x1e, 0x1e, 0x04, 0x03,
  0x02, 0x03, 0x02, 0x02, 0xd2, 0xff, 0xdc, 0x00, 0x08, 0x02, 0x00, 0x01,
  0x01, 0x02, 0x01, 0x03, 0x31, 0x02, 0xe5, 0x02, 0x02, 0x01, 0x02, 0x03,
  0x02, 0x03, 0x04, 0x03, 0x28, 0x02, 0x02, 0x02, 0xfe, 0xba, 0xfe, 0x39,
  0x06, 0x04, 0x02, 0x02, 0x02, 0x28, 0x01, 0x1e, 0x01, 0xe6, 0x01, 0x02,
  0x02, 0x02, 0x1e, 0x28, 0x02, 0x03, 0x04, 0x02, 0x22, 0x02, 0x25, 0x02,
  0xfe, 0xc0, 0xff, 0xfc, 0x21, 0x01, 0x2f, 0x00, 0x02, 0x27, 0x1a, 0x03,
  0x01, 0x02, 0x02, 0x02, 0x02, 0x02, 0x02, 0x03, 0x1f, 0x22, 0x04, 0x02,
  0x03, 0x03, 0x21, 0x03, 0xff, 0xff, 0xe0, 0xfd, 0xe4, 0xfe, 0x2b, 0x30,
  0x2c, 0x02, 0x01, 0x03, 0xd9, 0x02, 0x02, 0x02, 0x01, 0xde, 0x01, 0x02,
  0x02, 0x03, 0x04, 0x02, 0x03, 0x03, 0x02, 0x02, 0xff, 0xfe, 0xff, 0xfc,
  0xe7, 0xd4, 0xff, 0x25, 0x28, 0x02, 0x00, 0x03, 0xdf, 0xd6, 0x02, 0x02,
  0x02, 0xdd, 0x01, 0x02, 0x02, 0x03, 0x04, 0x01, 0xde, 0x02, 0x02, 0x03,
  0x39, 0x00, 0xd4, 0xe2, 0xd1, 0x28, 0x01, 0x2d, 0x39, 0x02, 0x02, 0x04,
  0x01, 0x01, 0x01, 0xdf, 0x00, 0xd2, 0xc7, 0x02, 0x01, 0x03, 0x03, 0x01,
  0x02, 0x22, 0xe4, 0x27, 0x40, 0x02, 0x03, 0xe0, 0xa5, 0x1a, 0x00, 0x48,
  0x02, 0x03, 0x04, 0x05, 0x01, 0x00, 0xe7, 0xd2, 0xd4, 0xc2, 0xa7, 0x01,
  0xe4, 0xd8, 0xe9, 0x02, 0x03, 0x05, 0x05, 0x03, 0x03, 0x03, 0xff, 0xba,
  0xe3, 0xfe, 0x2a, 0x34, 0x24, 0x02, 0x05, 0x30, 0x5a, 0x54, 0x29, 0x00,
  0x02, 0xa2, 0xa1, 0x02, 0x01, 0x00, 0x1a, 0x1b, 0xca, 0xb4, 0xe0, 0x26,
  0x02, 0x01, 0xfd, 0x95, 0xbd, 0xe7, 0xb8, 0x2f, 0xaf, 0xce, 0xfd, 0xfc,
  0xfe, 0x00, 0xd4, 0xbb, 0xdd, 0x4e, 0x74, 0x05, 0xe4, 0xdb, 0x00, 0xfd,
  0x12, 0xfb, 0xfb, 0xcc, 0xfe, 0x3e, 0xfe, 0xbc, 0xbe, 0xff, 0xa3, 0xdf,
  0xfc, 0xfd, 0x32, 0x3d, 0x1f, 0xff, 0x01, 0xec, 0xb8, 0xd7, 0xdb, 0xda,
  0xe5, 0x02, 0xfd, 0xfd, 0xfd, 0x2d, 0x27, 0x4a, 0x23, 0x3b, 0x2b, 0xc7,
  0x41, 0x00, 0xfb, 0xfe, 0xfd, 0x2d, 0xe1, 0xdb, 0xdb, 0xe0, 0x02, 0x02,
  0xec, 0xdc, 0xd9, 0x01, 0x01, 0xec, 0xfe, 0xde, 0xfd, 0xd8, 0xe6, 0x20,
  0x27, 0x35, 0xfc, 0x22, 0xfd, 0x2c, 0x13, 0xcf, 0xfb, 0xfc, 0xe4, 0x00,
  0xe0, 0x01, 0x02, 0x01, 0x18, 0x02, 0xe9, 0x19, 0x00, 0xeb, 0x01, 0xd4,
  0xe6, 0xfd, 0xfa, 0xfa, 0x29, 0x39, 0x34, 0xfe, 0x19, 0x2f, 0xff, 0xfe,
  0xfd, 0xff, 0xcc, 0xd8, 0x00, 0x17, 0x00, 0x00, 0x00, 0x23, 0x01, 0x00,
  0xff, 0x01, 0x01, 0xff, 0xff, 0x00, 0xdb, 0xfa, 0xfb, 0x1b, 0xfc, 0x14,
  0x70, 0x00, 0xe1, 0xfe, 0xcf, 0xc5, 0xd5, 0xe5, 0xff, 0x00, 0x00, 0xe2,
  0x01, 0x02, 0x02, 0x01, 0x00, 0x01, 0x01, 0x14, 0xff, 0x00, 0xd6, 0xfc,
  0x1b, 0xfc, 0xfd, 0x25, 0x45, 0x01, 0xca, 0xfd, 0xcb, 0xc9, 0xdc, 0x00,
  0x00, 0x00, 0x00, 0x00, 0x01, 0x02, 0xe2, 0xe6, 0x00, 0x00, 0x01, 0x00,
  0x00, 0x00, 0x00, 0xdf, 0xfc, 0xfc, 0xfd, 0x20, 0x3b, 0xe7, 0xdc, 0xdf,
  0xdd, 0xd8, 0x00, 0x01, 0x29, 0x01, 0xe7, 0x00, 0x01, 0x01, 0xc2, 0xe3,
  0xe0, 0xdd, 0x01, 0x2c, 0x18, 0x00, 0xd3, 0xd5, 0xfb, 0xfa, 0xfd, 0x2a,
  0x43, 0xcf, 0xd2, 0xff, 0xd0, 0xe4, 0xe5, 0x01, 0x28, 0x01, 0x01, 0xe6,
  0x01, 0xe6, 0xe0, 0xe4, 0x00, 0xeb, 0x01, 0x01, 0xd9, 0xc2, 0xda, 0xe6,
  0xfc, 0xe0, 0xfc, 0x1f, 0x4e, 0xe7, 0xea, 0x00, 0xd5, 0x00, 0x01, 0xe1,
  0x01, 0x01, 0x01, 0x00, 0x02, 0xdc, 0xd2, 0xd8, 0x00, 0x00, 0x01, 0x02,
  0xe6, 0xd8, 0x00, 0x00, 0xfd, 0xfc, 0x1e, 0x3c, 0x58, 0x02, 0xe5, 0x18,
  0x01, 0xe9, 0x01, 0xea, 0x02, 0x1d, 0x00, 0x01, 0x02, 0x01, 0x02, 0xe5,
  0x01, 0x01, 0x1c, 0x02, 0xe9, 0x00, 0xe2, 0x01, 0x00, 0xfc, 0xff, 0x02,
  0x5b, 0x1f, 0xd9, 0x01, 0x00, 0x01, 0x17, 0x01, 0x02, 0x1d, 0x01, 0x02,
  0x02, 0x01, 0x01, 0xe7, 0x01, 0x01, 0x01, 0x02, 0x01, 0x00, 0x01, 0x01,
  0xff, 0xfd, 0x1a, 0x28, 0x78, 0x20, 0x01, 0x02, 0x00, 0x01, 0x01, 0x01,
  0x02, 0x20, 0x1d, 0x02, 0x02, 0xeb, 0x02, 0x00, 0x01, 0x01, 0x1d, 0x1a,
  0x01, 0xe8, 0x01, 0x01, 0xff, 0x14, 0x19, 0x41, 0x62, 0x24, 0x02, 0x02,
  0x01, 0x01, 0x01, 0x1e, 0x1d, 0x22, 0x01, 0x02, 0x01, 0xe1, 0x02, 0x01,
  0x01, 0x01, 0x01, 0x02, 0x1f, 0x01, 0x01, 0x01, 0x01, 0xfe, 0x00, 0x64,
  0x58, 0x1e, 0x02, 0x01, 0x01, 0x01, 0x01, 0x1b, 0x02, 0x01, 0x16, 0x01,
  0x01, 0x01, 0x01, 0x00, 0x01, 0x01, 0x01, 0x01, 0x02, 0x01, 0x01, 0x01,
  0x02, 0xff, 0xff, 0x3d, 0x32, 0x24, 0x02, 0xe4, 0x01, 0x01, 0x02, 0x19,
  0x02, 0x1e, 0x01, 0x02, 0x01, 0x01, 0x01, 0xec, 0x01, 0x00, 0x01, 0x01,
  0x01, 0x02, 0xed, 0x02, 0x17, 0xfe, 0x16, 0x26, 0x7f, 0x03, 0x02, 0x02,
  0x01, 0x01, 0x02, 0x01, 0x01, 0x1a, 0x19, 0x02, 0x01, 0x01, 0x01, 0x01,
  0xeb, 0x16, 0x1a, 0x01, 0x01, 0x02, 0x01, 0x02, 0x19, 0xfe, 0x00, 0x37,
  0x4f, 0xfe, 0x26, 0xda, 0x00, 0x01, 0x01, 0x01, 0x01, 0x02, 0x02, 0x02,
  0x01, 0x01, 0x02, 0x02, 0x01, 0x01, 0x01, 0x01, 0x02, 0x21, 0x01, 0x01,
  0x01, 0x1b, 0xfe, 0x00, 0x40, 0x2b, 0x21, 0xdc, 0x00, 0xe7, 0x01, 0x01,
  0x01, 0x1a, 0x02, 0x21, 0x01, 0x02, 0x02, 0x01, 0x02, 0x02, 0x02, 0x36,
  0x01, 0x26, 0x01, 0x01, 0x00, 0xfd, 0xfe, 0xeb, 0x2f, 0xff, 0xff, 0xd4,
  0x01, 0x01, 0x01, 0x17, 0x16, 0x02, 0x19, 0x01, 0x02, 0x02, 0x1d, 0x01,
  0x02, 0x02, 0x03, 0x29, 0x20, 0x02, 0x01, 0x01, 0xe3, 0xfd, 0xe5, 0x59,
  0x05, 0x00, 0xff, 0x00, 0x01, 0x01, 0x01, 0x01, 0x00, 0x02, 0x01, 0x02,
  0x02, 0x02, 0x02, 0x02, 0x02, 0x02, 0x02, 0x21, 0x27, 0x00, 0x01, 0x01,
  0xfe, 0xc9, 0xfb, 0x45, 0xef, 0x00, 0x19, 0x01, 0x02, 0x2d, 0x01, 0x28,
  0x01, 0x02, 0x01, 0x02, 0x02, 0x02, 0x02, 0x02, 0x02, 0x02, 0x02, 0x2d,
  0x33, 0x23, 0x22, 0x01, 0xff, 0xfd, 0xfc, 0xfd, 0x00, 0x1a, 0x1e, 0x1c,
  0x01, 0x26, 0x02, 0x41, 0x01, 0x02, 0x01, 0x02, 0x02, 0x02, 0x02, 0x02,
  0x02, 0x02, 0x02, 0x03, 0x1b, 0x01, 0x02, 0x01, 0x01, 0xfe, 0xfd, 0xfe,
  0xd8, 0xfb, 0xfc, 0x39, 0x2b, 0x19, 0x1f, 0x24, 0x01, 0x02, 0x01, 0x02,
  0x02, 0x02, 0x02, 0x02, 0x02, 0x17, 0x02, 0x18, 0x03, 0x19, 0x02, 0x01,
  0x00, 0x21, 0xe7, 0xc0, 0xff, 0xfc, 0x1b, 0x27, 0x19, 0x02, 0x01, 0x1f,
  0x01, 0x02, 0x19, 0x02, 0x02, 0x02, 0x01, 0x02, 0x02, 0x27, 0x03, 0x1e,
  0x24, 0x25, 0x02, 0x02, 0x28, 0x19, 0xd9, 0xc7, 0x1d, 0x2a, 0x4f, 0x37,
  0x02, 0x02, 0x02, 0x01, 0x00, 0x01, 0x1d, 0x01, 0x1d, 0x16, 0x01, 0x01,
  0x29, 0x1c, 0x1d, 0x32, 0x27, 0x00, 0xe3, 0x02, 0x28, 0x01, 0x1e, 0xe7,
  0x01, 0xfe, 0xfe, 0x4d, 0x01, 0x03, 0xe2, 0x02, 0x00, 0x00, 0x29, 0x29,
  0x25, 0x23, 0x2c, 0x23, 0x20, 0x01, 0x1c, 0x20, 0xeb, 0xb4, 0xd8, 0xcc,
  0xec, 0x28, 0xfc, 0xe4, 0xcf, 0xfd, 0xfd, 0x2b, 0x01, 0x03, 0x03, 0x1d,
  0x00, 0xfe, 0x15, 0x27, 0x23, 0x1a, 0x18, 0x01, 0x00, 0x00, 0x01, 0xd9,
  0xb9, 0xeb, 0xae, 0xde, 0x1d, 0x00, 0xe7, 0xb7, 0xd5, 0xbe, 0xfe, 0xff,
  0xfe, 0x1e, 0xcc, 0xd1, 0x00, 0x1c, 0xc5, 0xd3, 0x3f, 0x1d, 0x1b, 0x2e,
  0xdc, 0xb2, 0xff, 0xec, 0xcf, 0xae, 0xff, 0x35, 0x73, 0xff, 0x14, 0x00,
  0x00, 0xce, 0x31, 0xff, 0x52, 0x00, 0x2f, 0x17, 0x26, 0xaf, 0xdb, 0x00,
  0x1a, 0xff, 0xe5, 0x2a, 0xff, 0xd9, 0xc0, 0xd7, 0x14, 0xfe, 0xfd, 0x20,
  0x7f, 0x2d, 0xdd, 0x46, 0xae, 0xdf, 0x21, 0x23, 0x24, 0x34, 0xfd, 0xfe,
  0xff, 0x00, 0x01, 0x17, 0x21, 0x00, 0x00, 0x29, 0x00, 0x01, 0xe7, 0xff,
  0xff, 0xfe, 0xff, 0x11, 0x27, 0x54, 0xe5, 0x00, 0xc7, 0xfe, 0x25, 0x29,
  0xff, 0xfc, 0xff, 0x00, 0x1d, 0x15, 0xe4, 0xe9, 0x00, 0x00, 0x00, 0x00,
  0x00, 0xed, 0xd9, 0x2d, 0x16, 0xea, 0xfe, 0xfe, 0x11, 0x2c, 0xfe, 0xe4,
  0xc9, 0x19, 0x43, 0x12, 0xeb, 0xfe, 0x00, 0x00, 0x01, 0x02, 0x00, 0xff,
  0xff, 0x24, 0x00, 0x30, 0xff, 0xe0, 0xee, 0x01, 0x01, 0x00, 0xff, 0xdc,
  0xfd, 0x55, 0x38, 0xff, 0xa6, 0x43, 0x26, 0xfe, 0xfe, 0x00, 0x00, 0xe4,
  0x01, 0xe1, 0x00, 0x00, 0xeb, 0x1c, 0x18, 0xff, 0x00, 0xea, 0x01, 0x01,
  0x00, 0x01, 0x01, 0xfd, 0xfd, 0x20, 0x47, 0xfe, 0x1d, 0x74, 0xfd, 0x19,
  0xdc, 0x00, 0xec, 0x00, 0x02, 0x01, 0x00, 0x00, 0x00, 0x23, 0x23, 0x00,
  0xed, 0x00, 0x01, 0x00, 0x01, 0x01, 0x00, 0xfe, 0xfb, 0x14, 0x27, 0x3e,
  0x1f, 0x33, 0x17, 0xfc, 0xfd, 0x00, 0xe6, 0x14, 0x02, 0x01, 0x00, 0x01,
  0x00, 0x18, 0x01, 0x00, 0xed, 0x01, 0x01, 0x01, 0x01, 0x01, 0x00, 0xff,
  0xfb, 0x10, 0x1e, 0x21, 0x1a, 0x33, 0x2a, 0xfd, 0xfd, 0x00, 0x13, 0x23,
  0x02, 0x01, 0x01, 0x00, 0x00, 0x00, 0x00, 0x00, 0xed, 0x01, 0x01, 0x01,
  0x00, 0x01, 0xff, 0x16, 0xfb, 0x1d, 0xfe, 0xfd, 0x71, 0x2e, 0x19, 0xfd,
  0xfd, 0x00, 0xff, 0x26, 0x25, 0x1a, 0x00, 0xe5, 0x00, 0x00, 0x1c, 0x15,
  0xff, 0x00, 0x01, 0x01, 0x35, 0x1c, 0xff, 0x15, 0x18, 0xfc, 0xfd, 0x01,
  0x4c, 0x11, 0x34, 0x17, 0x28, 0x00, 0x18, 0x17, 0x1a, 0x26, 0xed, 0x00,
  0x00, 0x00, 0x00, 0x13, 0x00, 0x00, 0x01, 0x02, 0x28, 0x00, 0x00, 0x35,
  0xfb, 0xfb, 0xfc, 0x00, 0x4b, 0x00, 0xff, 0xfd, 0x22, 0x19, 0xff, 0x16,
  0x02, 0x19, 0x00, 0x00, 0x00, 0x00, 0x00, 0x00, 0x00, 0x00, 0x1f, 0x02,
  0x00, 0x00, 0xff, 0x11, 0xfb, 0xfb, 0xfc, 0xff, 0x3a, 0x49, 0x00, 0xfd,
  0xfe, 0x13, 0xff, 0x01, 0x19, 0x17, 0x00, 0x00, 0x00, 0xff, 0xff, 0x16,
  0xff, 0xff, 0x15, 0x1a, 0x1a, 0xff, 0xff, 0xfd, 0x10, 0x1a, 0x13, 0x00,
  0x1b, 0x42, 0xe9, 0xe4, 0xff, 0xff, 0xff, 0x00, 0x01, 0x01, 0x00, 0x00,
  0xff, 0x18, 0x00, 0x13, 0xff, 0xff, 0x17, 0x00, 0x00, 0xff, 0xff, 0xfe,
  0x17, 0xfb, 0xfd, 0x2a, 0xfd, 0x2d, 0xff, 0xfc, 0xff, 0xff, 0xff, 0x1b,
  0x01, 0x00, 0x00, 0xff, 0xfe, 0xff, 0xff, 0xff, 0xff, 0xff, 0x1a, 0x00,
  0x00, 0x00, 0xe9, 0xfe, 0xfc, 0xfb, 0xe6, 0xff, 0xfe, 0xff, 0xfd, 0xfc,
  0xfe, 0xff, 0xff, 0x17, 0x01, 0x00, 0xff, 0xff, 0xfe, 0xff, 0xff, 0xff,
  0xff, 0xff, 0x14, 0x00, 0xff, 0xff, 0xff, 0xea, 0xfd, 0xfb, 0xdf, 0xff,
  0xc3, 0xdf, 0xfc, 0x16, 0x1e, 0xff, 0xff, 0x21, 0xee, 0x00, 0xff, 0xff,
  0xfe, 0xff, 0x00, 0xff, 0xe9, 0xfe, 0x00, 0x00, 0xff, 0x00, 0xff, 0xff,
  0xfd, 0xfb, 0xfc, 0xfd, 0xb9, 0xcd, 0xfc, 0x19, 0xff, 0xe7, 0x00, 0x00,
  0x00, 0xff, 0xff, 0xff, 0xfe, 0xff, 0x00, 0xff, 0xff, 0xfe, 0x00, 0x20,
  0x00, 0x00, 0xff, 0xff, 0xfd, 0x1d, 0xfc, 0x18, 0xfe, 0xd2, 0xfb, 0x21,
  0xff, 0xdf, 0x00, 0x00, 0x00, 0x00, 0xe9, 0xff, 0xfe, 0xff, 0x00, 0x16,
  0x00, 0xff, 0x00, 0x18, 0xff, 0x00, 0x00, 0xff, 0xfe, 0xfb, 0xcd, 0x34,
  0xfe, 0xcc, 0xfb, 0xfd, 0xff, 0xff, 0x12, 0x01, 0x00, 0x00, 0xff, 0xff,
  0xff, 0xff, 0x00, 0x00, 0x00, 0xff, 0x00, 0x14, 0x17, 0x00, 0x00, 0xff,
  0x13, 0x18, 0xfc, 0xe5, 0xb6, 0xce, 0xfa, 0xfc, 0xeb, 0xff, 0x00, 0x01,
  0x16, 0x00, 0x16, 0xff, 0xff, 0x00, 0x00, 0x00, 0x00, 0xff, 0x01, 0x01,
  0x1d, 0x01, 0x00, 0xff, 0xfd, 0xfb, 0xfc, 0xdc, 0x01, 0xc3, 0xfb, 0xfc,
  0xff, 0xff, 0x00, 0x1c, 0x16, 0x01, 0x00, 0x00, 0xff, 0x00, 0x00, 0x00,
  0x01, 0xea, 0xe7, 0x02, 0x01, 0x01, 0x00, 0xff, 0xfd, 0xfb, 0xfb, 0xde,
  0x03, 0xe2, 0xde, 0xfd, 0xff, 0xff, 0x01, 0x1d, 0x00, 0x01, 0x00, 0xff,
  0xff, 0x00, 0x00, 0x00, 0xed, 0xed, 0xea, 0x02, 0x16, 0x02, 0x00, 0xe2,
  0xe6, 0xfc, 0xfb, 0xff, 0x24, 0xe2, 0xfc, 0xfe, 0xe9, 0x00, 0x02, 0x25,
  0x1b, 0x02, 0xe7, 0xeb, 0x00, 0x00, 0x00, 0x00, 0x01, 0x01, 0x02, 0x02,
  0x28, 0x02, 0xe9, 0xeb, 0xff, 0xfd, 0xe7, 0x1b, 0xe3, 0xd7, 0xe9, 0xfd,
  0xff, 0xff, 0x19, 0x21, 0x22, 0xeb, 0x00, 0x00, 0xff, 0xec, 0x00, 0x00,
  0x01, 0x00, 0x01, 0x02, 0x03, 0x02, 0x00, 0xeb, 0xd7, 0xfd, 0xd8, 0xfd,
  0x00, 0xcb, 0xc4, 0xfe, 0xe9, 0x00, 0x02, 0x1b, 0x00, 0xeb, 0xe6, 0xff,
  0xfe, 0xff, 0xe5, 0x00, 0xec, 0x00, 0x01, 0x02, 0x02, 0x17, 0x01, 0xc6,
  0xde, 0xea, 0xd3, 0xd3, 0xbb, 0xd5, 0xfd, 0x1d, 0xff, 0x01, 0x03, 0x02,
  0x00, 0xdd, 0x16, 0x14, 0x13, 0x13, 0x00, 0x00, 0x01, 0x01, 0x02, 0x02,
  0x03, 0x04, 0xd5, 0xc9, 0xff, 0xd2, 0xc8, 0xe6, 0x22, 0xfe, 0xcd, 0xda,
  0xfe, 0x00, 0x17, 0x02, 0xd7, 0xc6, 0xdd, 0x13, 0x2a, 0x43, 0x51, 0x1a,
  0xff, 0x00, 0xc5, 0xd6, 0xcb, 0xee, 0xed, 0xc5, 0xd4, 0xc6, 0xd6, 0xff,
  0x93, 0x4c, 0x50, 0x2d, 0xe6, 0xa8, 0xa2, 0x07, 0x3d, 0x40, 0x29, 0x2f,
  0xe1, 0xd5, 0xcd, 0xc9, 0x16, 0x3b, 0x31, 0x3e, 0x32, 0xc6, 0x9d, 0x8e,
  0x03, 0x03, 0xd0, 0x3c, 0x28, 0x65, 0x49, 0x3a, 0xe1, 0xe3, 0xae, 0x07,
  0xec, 0x05, 0x01, 0x13, 0xfe, 0x1e, 0x21, 0xfe, 0x24, 0x01, 0x33, 0x08,
  0x06, 0x05, 0xdf, 0xdf, 0x02, 0x03, 0xeb, 0x5f, 0xff, 0xc0, 0x01, 0x3e,
  0xec, 0x06, 0x06, 0x28, 0x17, 0x16, 0xff, 0xff, 0x13, 0xff, 0xff, 0xff,
  0x00, 0xff, 0x1b, 0x04, 0x2b, 0x1d, 0x32, 0x05, 0x36, 0x02, 0xe6, 0x30,
  0x87, 0xeb, 0x25, 0x02, 0x29, 0x25, 0x1e, 0x00, 0x00, 0xff, 0x18, 0xff,
  0x00, 0xff, 0xff, 0x00, 0x00, 0xff, 0xff, 0x00, 0x00, 0x1b, 0x2c, 0x47,
  0x4a, 0x00, 0x01, 0xd1, 0xbe, 0xd9, 0xff, 0x2d, 0x05, 0x03, 0xfe, 0xff,
  0xff, 0x1f, 0x00, 0xe6, 0x00, 0xff, 0xe8, 0xe3, 0xec, 0x00, 0x21, 0x00,
  0xff, 0xfe, 0x21, 0x4a, 0x42, 0xe4, 0xd1, 0x02, 0x02, 0xb8, 0x01, 0x02,
  0x2f, 0xff, 0xff, 0xff, 0xff, 0x00, 0x00, 0xe7, 0x00, 0xff, 0xff, 0x00,
  0xe5, 0x18, 0x00, 0x00, 0xff, 0xff, 0xfe, 0x1f, 0x27, 0x04, 0xa4, 0x1b,
  0x00, 0xff, 0x2e, 0x03, 0x1f, 0xfe, 0xff, 0xfe, 0x00, 0xed, 0x01, 0x01,
  0xe0, 0x00, 0x00, 0x01, 0x01, 0x01, 0x00, 0x00, 0xff, 0xff, 0xfe, 0xff,
  0x23, 0x30, 0x00, 0xd8, 0x25, 0x37, 0x16, 0x02, 0x02, 0xfe, 0x16, 0x18,
  0x00, 0x00, 0x01, 0x01, 0x01, 0x01, 0x00, 0x01, 0x01, 0x01, 0x00, 0x1c,
  0x25, 0xff, 0x17, 0xfd, 0x02, 0x26, 0x00, 0xd4, 0x28, 0x00, 0x30, 0x00,
  0x20, 0xfd, 0xfe, 0x2d, 0x27, 0x18, 0x01, 0xe9, 0xee, 0x01, 0xe9, 0x00,
  0x01, 0x1f, 0x00, 0x23, 0xff, 0xff, 0xfe, 0xfd, 0x02, 0x03, 0x03, 0xfb,
  0xda, 0x02, 0x26, 0x1a, 0x22, 0x17, 0xfe, 0x11, 0x29, 0x14, 0x01, 0x01,
  0x01, 0x00, 0x00, 0x01, 0x01, 0x20, 0x1a, 0xfe, 0xff, 0xfe, 0xfe, 0xfd,
  0x01, 0xe4, 0x03, 0xce, 0x81, 0xff, 0xff, 0xe1, 0xff, 0xfe, 0xfe, 0x14,
  0xfe, 0x1a, 0x01, 0x01, 0x00, 0x00, 0x00, 0x01, 0x18, 0x14, 0x1c, 0xfd,
  0xfe, 0xfe, 0xfe, 0xfd, 0x01, 0xea, 0x03, 0xd3, 0xe1, 0xfe, 0x24, 0xfd,
  0xfe, 0xe5, 0xfe, 0xfd, 0xfe, 0x00, 0x01, 0x00, 0x00, 0x01, 0x01, 0x00,
  0x01, 0x00, 0x00, 0xfd, 0x13, 0x14, 0xfe, 0x13, 0x00, 0x01, 0xe9, 0xdd,
  0x26, 0x20, 0x1d, 0xfe, 0xfe, 0xe8, 0xfe, 0xfd, 0xe5, 0x00, 0x01, 0x01,
  0x01, 0x01, 0x01, 0x01, 0x01, 0x01, 0x00, 0xfd, 0xfe, 0xfe, 0xfe, 0xfd,
  0xff, 0xe3, 0x02, 0xe9, 0xe9, 0x1b, 0x12, 0xff, 0xe4, 0xfe, 0xfe, 0xfc,
  0xfe, 0x00, 0x01, 0x00, 0x01, 0x01, 0x01, 0x01, 0x01, 0x01, 0x00, 0xfe,
  0xe3, 0xfe, 0xfe, 0xfd, 0xfe, 0xd3, 0x02, 0x01, 0xdb, 0xfd, 0xfc, 0xff,
  0xfd, 0xfe, 0xfe, 0xe6, 0xff, 0x00, 0x01, 0x01, 0x01, 0x01, 0x01, 0x01,
  0x01, 0x15, 0xe5, 0xfe, 0xd6, 0xfe, 0xfe, 0xfd, 0xfd, 0x01, 0x00, 0x02,
  0xdc, 0xe0, 0xde, 0xe1, 0xfd, 0xfd, 0xfe, 0xfd, 0xff, 0x01, 0x01, 0x00,
  0x01, 0x01, 0x01, 0x00, 0x15, 0x1e, 0x01, 0xff, 0xe5, 0xfe, 0xfe, 0xfd,
  0xfc, 0x01, 0x1e, 0xe2, 0xd8, 0xeb, 0xfe, 0xfe, 0xfd, 0xfe, 0xfe, 0xfd,
  0x00, 0x14, 0x01, 0x17, 0x16, 0x01, 0x01, 0x01, 0x01, 0x01, 0x01, 0x00,
  0xfe, 0xfe, 0xfe, 0xfd, 0xfc, 0x01, 0x02, 0xed, 0xfd, 0xd7, 0xff, 0xff,
  0xfe, 0xfe, 0xfe, 0xfd, 0x01, 0x01, 0x01, 0x01, 0x01, 0x01, 0x01, 0x01,
  0x01, 0x01, 0x01, 0x00, 0xfe, 0xfe, 0x17, 0x11, 0xd9, 0xdd, 0x02, 0xe7,
  0xe3, 0xd9, 0x01, 0xff, 0xfd, 0xfe, 0xfe, 0xfd, 0x1f, 0x16, 0x29, 0x01,
  0x01, 0x00, 0x00, 0x01, 0x01, 0x00, 0x00, 0xe7, 0xff, 0xfe, 0xfe, 0xfd,
  0xfb, 0x02, 0x1d, 0xce, 0xfc, 0xd9, 0x02, 0xff, 0xfd, 0xfe, 0xfe, 0xeb,
  0x1a, 0x00, 0x01, 0x01, 0x00, 0x00, 0x00, 0x00, 0x00, 0x01, 0x00, 0x00,
  0x00, 0xfe, 0xeb, 0xfd, 0xfb, 0x02, 0xd8, 0xe1, 0xfb, 0x00, 0x03, 0x00,
  0xfe, 0xfe, 0xe1, 0xff, 0x00, 0x00, 0x02, 0x01, 0x00, 0x00, 0x00, 0x00,
  0x00, 0x00, 0x00, 0xeb, 0xff, 0xdf, 0xff, 0xfd, 0xe7, 0x18, 0x03, 0xdb,
  0xae, 0x00, 0x02, 0xff, 0xfd, 0xfe, 0xfd, 0xff, 0x00, 0x00, 0x01, 0x19,
  0x01, 0x00, 0xeb, 0x00, 0x00, 0x1a, 0x18, 0xff, 0xeb, 0xfe, 0xfe, 0xfd,
  0xfc, 0x01, 0x03, 0x02, 0xd1, 0x02, 0x03, 0xff, 0xfe, 0xdf, 0xfd, 0xff,
  0x01, 0x1d, 0x02, 0x01, 0x1b, 0x01, 0x01, 0x01, 0x00, 0x01, 0x00, 0x00,
  0x00, 0xe4, 0xfe, 0xfd, 0xfc, 0xed, 0x02, 0xca, 0x00, 0x03, 0x03, 0xff,
  0xfe, 0xe3, 0xfd, 0xea, 0x01, 0x01, 0x02, 0x21, 0x01, 0x1a, 0x00, 0x01,
  0x00, 0x01, 0x1a, 0x00, 0xff, 0xfe, 0xfe, 0xe7, 0xfc, 0x01, 0x04, 0xd1,
  0x39, 0x02, 0xe4, 0x01, 0xfe, 0xe9, 0xfd, 0xd6, 0x02, 0x1e, 0x03, 0x02,
  0x02, 0x01, 0x01, 0x01, 0x01, 0x01, 0x01, 0x01, 0xe2, 0xff, 0xfe, 0xfe,
  0xfd, 0x01, 0x04, 0xe9, 0x40, 0xe4, 0x20, 0x00, 0xd7, 0xfd, 0xfd, 0xe7,
  0x04, 0x03, 0x04, 0x04, 0x03, 0xed, 0x03, 0x03, 0x03, 0x03, 0x02, 0x03,
  0x02, 0xd4, 0xfe, 0xfe, 0xfd, 0x00, 0x02, 0x27, 0x62, 0xd5, 0xd7, 0xbb,
  0xfd, 0x19, 0xfd, 0xe7, 0x05, 0x05, 0x05, 0x05, 0x04, 0x03, 0x04, 0x04,
  0x04, 0x04, 0x04, 0x05, 0x03, 0xe9, 0x2b, 0x17, 0xe1, 0x00, 0x02, 0x21,
  0xc7, 0xb7, 0xc1, 0xda, 0xff, 0x2b, 0xfd, 0x00, 0x04, 0x06, 0x06, 0x06,
  0x06, 0x05, 0xec, 0x06, 0x06, 0x06, 0x05, 0x06, 0x52, 0x32, 0xfe, 0x26,
  0xff, 0x02, 0xe5, 0x03, 0x00, 0x39, 0x49, 0x3a, 0xe3, 0xfd, 0x01, 0x02,
  0x19, 0x24, 0x1a, 0xd3, 0xb1, 0xa7, 0xcb, 0xd5, 0xd4, 0x14, 0x2d, 0x02,
  0x15, 0x1a, 0x03, 0x02, 0xf0, 0xee, 0x01, 0x27, 0x29, 0x1e, 0x63, 0x40,
  0x25, 0x2e, 0x00, 0x00, 0x2e, 0x0f, 0xfe, 0xe3, 0xff, 0xdf, 0xa9, 0xea,
  0x01, 0x01, 0x16, 0x01, 0xe9, 0xe9, 0x19, 0x2a, 0x35, 0x03, 0x01, 0x43,
  0x01, 0xe0, 0x29, 0x43, 0x4a, 0x38, 0xff, 0x3c, 0x4f, 0xfe, 0xdd, 0xee,
  0x0e, 0xe6, 0xc1, 0x01, 0x00, 0x00, 0x01, 0x23, 0x00, 0x01, 0x01, 0xf0,
  0x23, 0x2a, 0x16, 0x53, 0xbf, 0xff, 0x3d, 0x00, 0xff, 0x1b, 0xff, 0xfe,
  0x13, 0xfe, 0xfd, 0xfe, 0xff, 0xe4, 0xff, 0xff, 0xff, 0xff, 0x00, 0x00,
  0xd6, 0x01, 0x01, 0x01, 0x02, 0x20, 0x00, 0xe5, 0x02, 0xfe, 0x3c, 0x1e,
  0xe4, 0xfe, 0xc5, 0xfe, 0x1c, 0xfd, 0xfd, 0xfe, 0xec, 0xff, 0xff, 0xff,
  0xed, 0xff, 0x00, 0x00, 0x01, 0x00, 0xe1, 0x01, 0x16, 0x02, 0x01, 0x16,
  0x02, 0x1e, 0x20, 0xdf, 0xe9, 0xd3, 0xd1, 0xfe, 0xfe, 0xfe, 0xfe, 0xe7,
  0xeb, 0x00, 0x00, 0x00, 0x01, 0x00, 0x14, 0x00, 0x00, 0x00, 0xec, 0x01,
  0x00, 0x00, 0x01, 0x12, 0x18, 0x28, 0xff, 0xd8, 0xe3, 0xbf, 0xbb, 0xfe,
  0xfe, 0xeb, 0xfd, 0xfe, 0x00, 0x00, 0x00, 0x00, 0x00, 0x00, 0x00, 0x00,
  0x00, 0xdc, 0xe8, 0xea, 0x00, 0x01, 0x2c, 0x1d, 0xd9, 0xdc, 0xe5, 0xda,
  0xdf, 0xc9, 0xcd, 0xfd, 0xfe, 0xfd, 0xfd, 0xff, 0xe7, 0xff, 0xff, 0x14,
  0xff, 0x00, 0xff, 0x15, 0x12, 0x00, 0xe5, 0x00, 0x01, 0x02, 0x03, 0x01,
  0xcb, 0xd1, 0xe0, 0xcf, 0xbf, 0xb2, 0xe8, 0x11, 0xfe, 0xed, 0xec, 0x00,
  0x00, 0x00, 0xff, 0xff, 0x00, 0x00, 0x01, 0x12, 0x17, 0x01, 0xe3, 0xf2,
  0x1c, 0x03, 0x03, 0xe8, 0xbd, 0xb0, 0xbc, 0xd3, 0xd3, 0xbd, 0xfd, 0xe6,
  0xfe, 0xfd, 0xfd, 0xe9, 0xe6, 0x00, 0x14, 0x10, 0x1d, 0x00, 0x00, 0x11,
  0x01, 0x02, 0xe9, 0x03, 0x16, 0x03, 0xed, 0xde, 0xa9, 0xce, 0xb6, 0xd1,
  0xc7, 0xd3, 0xfc, 0xed, 0xe2, 0xfd, 0xee, 0xee, 0xe3, 0x20, 0x1c, 0x12,
  0x16, 0x01, 0x01, 0x1c, 0x02, 0x02, 0x02, 0x03, 0x03, 0x03, 0x03, 0x01,
  0x9c, 0xb3, 0xcd, 0xb2, 0xb4, 0xca, 0xe3, 0xea, 0xd4, 0xde, 0xe8, 0xee,
  0x11, 0x18, 0x18, 0x14, 0x01, 0x01, 0x02, 0x18, 0x02, 0x02, 0x02, 0x02,
  0x02, 0x02, 0x02, 0xdf, 0x81, 0xe7, 0xd2, 0xb2, 0xd3, 0xe0, 0xfc, 0xec,
  0xe9, 0xfd, 0xfe, 0xff, 0x00, 0x00, 0x1a, 0x14, 0x02, 0x15, 0x18, 0x13,
  0x16, 0x1c, 0x14, 0x02, 0x02, 0x02, 0x02, 0x00, 0xa9, 0xed, 0xc8, 0xd6,
  0xd0, 0xd9, 0xfd, 0xfd, 0xd6, 0xe1, 0xff, 0x00, 0x01, 0x19, 0x01, 0x21,
  0x01, 0x01, 0x1f, 0x23, 0x01, 0x17, 0x00, 0x02, 0x02, 0x01, 0x02, 0xeb,
  0xe7, 0xfe, 0xfd, 0xdd, 0xe1, 0xdc, 0xfc, 0xda, 0xde, 0xfe, 0xf0, 0xeb,
  0x01, 0x12, 0x18, 0x01, 0x01, 0x11, 0x29, 0x1f, 0x17, 0x12, 0x01, 0x01,
  0x01, 0x01, 0x02, 0xed, 0x15, 0x12, 0x1a, 0xfc, 0xfd, 0xfc, 0xfc, 0xee,
  0xff, 0xff, 0x02, 0xf1, 0x02, 0x02, 0x02, 0x01, 0x02, 0x01, 0x01, 0x26,
  0x1f, 0x01, 0x18, 0x00, 0x01, 0x01, 0x01, 0x02, 0xff, 0x00, 0x34, 0x1d,
  0x0f, 0xfe, 0xfe, 0xe6, 0xff, 0x00, 0x01, 0x01, 0x02, 0x01, 0x15, 0x01,
  0x02, 0x01, 0x01, 0x26, 0x23, 0x18, 0x15, 0x01, 0x02, 0x01, 0x01, 0x19,
  0x01, 0x01, 0x42, 0x26, 0x01, 0xee, 0xff, 0xe7, 0x13, 0xec, 0x00, 0x01,
  0x01, 0x1e, 0x00, 0x00, 0x01, 0x00, 0x01, 0x00, 0x18, 0x00, 0x00, 0x00,
  0xef, 0x00, 0x01, 0x11, 0x02, 0x02, 0x52, 0x26, 0x19, 0xff, 0xe4, 0xff,
  0x11, 0x00, 0x01, 0x02, 0xf2, 0x02, 0x01, 0x01, 0x01, 0x01, 0x01, 0x00,
  0x25, 0x00, 0x00, 0x1b, 0x01, 0x01, 0x01, 0x15, 0x00, 0x00, 0x32, 0x2b,
  0x15, 0xeb, 0x00, 0x01, 0x01, 0x01, 0x01, 0x02, 0x16, 0x02, 0x01, 0x01,
  0x02, 0x01, 0xe4, 0x00, 0x1f, 0x23, 0x25, 0x1b, 0x1c, 0x11, 0x1a, 0xf1,
  0xfe, 0x14, 0x31, 0x32, 0x19, 0xff, 0x00, 0x00, 0x01, 0xef, 0x12, 0x02,
  0x02, 0x02, 0x02, 0x01, 0xec, 0x00, 0xff, 0xff, 0x1a, 0x35, 0x1e, 0x2e,
  0x14, 0x18, 0x01, 0x04, 0xfd, 0xfe, 0x1f, 0x2e, 0x26, 0xff, 0xff, 0x01,
  0x01, 0xea, 0x01, 0x01, 0x01, 0x11, 0x00, 0xef, 0x00, 0xf0, 0xe1, 0x00,
  0x21, 0x1d, 0x2b, 0x35, 0x37, 0x2f, 0x00, 0x02, 0xfe, 0xff, 0x1b, 0x47,
  0x2a, 0x00, 0xff, 0x00, 0x00, 0x00, 0xff, 0x18, 0x00, 0x00, 0x11, 0x00,
  0x00, 0xfe, 0xdf, 0xd6, 0x14, 0x23, 0x30, 0x2b, 0x38, 0x17, 0x0f, 0x01,
  0x00, 0x00, 0x1a, 0x29, 0x27, 0x14, 0x01, 0xf0, 0xe9, 0x00, 0x00, 0x1b,
  0x01, 0x01, 0x01, 0x01, 0x00, 0xfe, 0xcf, 0xe5, 0xeb, 0x15, 0x2f, 0x41,
  0x31, 0x00, 0x00, 0x2a, 0x2f, 0x10, 0x10, 0x2f, 0x28, 0x25, 0x01, 0x01,
  0x01, 0x01, 0x01, 0x01, 0x01, 0x12, 0x01, 0x01, 0x00, 0xeb, 0xd5, 0xe1,
  0xfe, 0xfe, 0x28, 0x1c, 0x28, 0x2a, 0x00, 0x21, 0xfd, 0xff, 0x11, 0x26,
  0x10, 0x01, 0x01, 0x01, 0xef, 0x01, 0x01, 0x14, 0x01, 0x02, 0x17, 0x00,
  0xfe, 0xda, 0xdb, 0xe3, 0xe3, 0xff, 0x23, 0x00, 0x26, 0x28, 0xff, 0xff,
  0xfd, 0xec, 0x00, 0x00, 0x01, 0x12, 0x02, 0x02, 0x02, 0xe2, 0xeb, 0x02,
  0x02, 0x02, 0x1e, 0x00, 0xff, 0xe5, 0xe1, 0xd9, 0x00, 0x01, 0x19, 0x29,
  0x01, 0x01, 0x01, 0x3d, 0xff, 0xff, 0xe2, 0xcd, 0x15, 0xff, 0xcb, 0x01,
  0xf2, 0x02, 0x02, 0x02, 0xe7, 0x02, 0x01, 0xc2, 0xb7, 0xc9, 0xda, 0xe1,
  0x10, 0xff, 0x01, 0x26, 0x01, 0x01, 0x13, 0x32, 0x51, 0x23, 0x5e, 0xff,
  0xfe, 0x00, 0xab, 0x22, 0x15, 0x1c, 0x3f, 0xff, 0xfe, 0xd7, 0xcd, 0xea,
  0xfe, 0xff, 0xfe, 0xd4, 0x9f, 0x94, 0xd5, 0xff, 0x4a, 0xfe, 0xee, 0x3f,
  0x47, 0x13, 0x67, 0x23, 0x3f, 0x25, 0x12, 0xff, 0x16, 0xec, 0xd2, 0xe6,
  0x20, 0x01, 0xed, 0x01, 0x01, 0xd6, 0xc9, 0xee, 0xcd, 0x01, 0xdd, 0xec,
  0x22, 0xff, 0xae, 0x33, 0xd9, 0x34, 0x48, 0x2b, 0x25, 0x3e, 0x69, 0x50,
  0x2a, 0x18, 0x01, 0x21, 0x02, 0x02, 0xe9, 0xdd, 0x02, 0x01, 0x02, 0x02,
  0x02, 0x21, 0x3a, 0x03, 0x3b, 0x03, 0xbe, 0xb6, 0x02, 0x19, 0x04, 0x25,
  0x1d, 0x3c, 0x3e, 0x18, 0x33, 0x01, 0x01, 0x02, 0x03, 0xef, 0xd3, 0x02,
  0x02, 0x01, 0x00, 0x01, 0x03, 0x03, 0x33, 0x19, 0x32, 0xc9, 0xda, 0xe2,
  0xe9, 0x03, 0x17, 0x1a, 0x15, 0x00, 0x01, 0x32, 0x01, 0x00, 0x01, 0xe9,
  0xde, 0xeb, 0xe5, 0xef, 0x02, 0x01, 0x15, 0x00, 0x02, 0x1a, 0x02, 0x03,
  0x02, 0x00, 0x02, 0x02, 0x94, 0x03, 0x20, 0x2c, 0xfe, 0x00, 0x1a, 0x1b,
  0x1e, 0x01, 0x01, 0xe3, 0xe3, 0xd7, 0xc4, 0xeb, 0xe8, 0xea, 0x18, 0x01,
  0x1e, 0x23, 0x01, 0x02, 0x00, 0x02, 0x06, 0x00, 0xdf, 0x03, 0xf1, 0x16,
  0xfe, 0x01, 0x01, 0x00, 0x1e, 0x01, 0xea, 0xcd, 0xed, 0xcb, 0xdc, 0xdf,
  0xda, 0x01, 0x14, 0x01, 0x17, 0x04, 0x02, 0x01, 0x01, 0x02, 0xeb, 0xda,
  0xa5, 0xe0, 0x03, 0x01, 0xfd, 0x02, 0x13, 0x26, 0x1e, 0x00, 0xed, 0xd6,
  0xe3, 0xe4, 0xd8, 0x01, 0x02, 0x01, 0x00, 0x21, 0x1b, 0x02, 0x03, 0x00,
  0x01, 0xed, 0x00, 0xd6, 0x81, 0x02, 0x03, 0x01, 0xfe, 0x02, 0x01, 0x27,
  0x21, 0x00, 0xee, 0xe9, 0xec, 0xdb, 0xca, 0xeb, 0x02, 0x01, 0xff, 0x00,
  0x1b, 0x02, 0x03, 0x00, 0xff, 0xfe, 0xfd, 0xe3, 0xba, 0x02, 0x02, 0xff,
  0xff, 0xef, 0x00, 0x2a, 0x31, 0xff, 0xe8, 0x01, 0x01, 0xe1, 0xd4, 0xeb,
  0x02, 0x2e, 0x00, 0x00, 0x1d, 0x00, 0x00, 0xfe, 0xff, 0xff, 0xfe, 0xe8,
  0x17, 0x1a, 0x1e, 0x34, 0xff, 0x01, 0x00, 0x22, 0x00, 0xe8, 0x00, 0x01,
  0x1b, 0x02, 0x01, 0xe9, 0x02, 0x01, 0xe4, 0xdb, 0x01, 0x01, 0x01, 0x00,
  0xeb, 0x00, 0xe5, 0xd9, 0xe0, 0x21, 0x02, 0x1a, 0xff, 0xec, 0x00, 0x02,
  0x00, 0xfe, 0x01, 0x1b, 0x1a, 0x17, 0x01, 0x01, 0x02, 0x02, 0x00, 0xfe,
  0x01, 0x01, 0x01, 0x01, 0x00, 0x01, 0x29, 0xec, 0xd3, 0x03, 0x01, 0x16,
  0x00, 0x03, 0x01, 0x1a, 0x00, 0x00, 0x02, 0x15, 0x02, 0x02, 0x02, 0x02,
  0x02, 0x02, 0xe2, 0xff, 0x01, 0x01, 0x02, 0x01, 0x00, 0x00, 0x3a, 0x18,
  0xcc, 0x03, 0x32, 0x26, 0x00, 0x03, 0x14, 0x02, 0x1a, 0x01, 0x02, 0x02,
  0x01, 0x02, 0x01, 0x01, 0x19, 0x01, 0x01, 0xff, 0x01, 0x1e, 0x02, 0x01,
  0x00, 0x18, 0x01, 0x10, 0x04, 0x29, 0x22, 0xfd, 0x01, 0xef, 0x19, 0x03,
  0x17, 0x01, 0xef, 0x01, 0x01, 0x01, 0x01, 0x01, 0x16, 0x01, 0x01, 0xff,
  0x01, 0x02, 0x03, 0x01, 0x1c, 0x02, 0x1a, 0x2c, 0x03, 0x04, 0x03, 0xff,
  0x02, 0x03, 0x02, 0x03, 0x1a, 0x01, 0x01, 0x01, 0x01, 0x01, 0x01, 0x01,
  0x14, 0x16, 0x01, 0xff, 0x02, 0x02, 0x15, 0x03, 0x01, 0x23, 0x02, 0x00,
  0x21, 0x03, 0xe5, 0x13, 0x02, 0x02, 0x00, 0x01, 0x00, 0x01, 0x02, 0x01,
  0x01, 0x01, 0x01, 0x16, 0x01, 0x22, 0x01, 0x00, 0x01, 0x01, 0x02, 0x02,
  0xff, 0x00, 0x02, 0xe9, 0xfc, 0xff, 0xff, 0xff, 0x01, 0x00, 0x01, 0x01,
  0x13, 0x00, 0x14, 0x01, 0x00, 0x01, 0x01, 0x01, 0x00, 0x00, 0x01, 0x00,
  0x00, 0x00, 0x01, 0x01, 0xfe, 0xe6, 0x01, 0x00, 0xfe, 0xff, 0xfe, 0xfe,
  0x14, 0x12, 0x01, 0x00, 0xfe, 0x00, 0x00, 0x01, 0xff, 0x01, 0x01, 0x00,
  0x00, 0x00, 0x01, 0x00, 0xff, 0x13, 0x01, 0x01, 0x14, 0xff, 0x01, 0x22,
  0x15, 0x01, 0xea, 0xff, 0x00, 0xe8, 0x01, 0xff, 0xff, 0x00, 0x00, 0x01,
  0x00, 0x01, 0x01, 0x01, 0x01, 0x00, 0x01, 0x01, 0x00, 0x01, 0x01, 0x01,
  0x1f, 0xd8, 0x01, 0x48, 0x03, 0x01, 0x00, 0xff, 0x00, 0xec, 0x02, 0xfe,
  0xff, 0x00, 0x00, 0x00, 0xff, 0x00, 0x18, 0x16, 0x23, 0x1e, 0x20, 0x00,
  0xe8, 0x01, 0x00, 0xff, 0xfd, 0xe4, 0xff, 0x27, 0x04, 0xe4, 0x01, 0xeb,
  0x1a, 0x02, 0x02, 0xfd, 0xfe, 0xff, 0x00, 0x00, 0x00, 0x01, 0x01, 0x01,
  0x1b, 0x00, 0x1f, 0xff, 0xe0, 0xee, 0xe9, 0x00, 0xfe, 0xe4, 0x00, 0x1b,
  0xdf, 0x00, 0xfe, 0xff, 0x01, 0x03, 0x02, 0xfd, 0xff, 0x00, 0x00, 0x00,
  0x01, 0x01, 0x2a, 0x01, 0x01, 0x20, 0x12, 0x00, 0xff, 0xeb, 0xe8, 0xe0,
  0xff, 0xe5, 0x03, 0x02, 0xe9, 0xe2, 0xe1, 0xff, 0xef, 0x02, 0xed, 0xfb,
  0xfe, 0xff, 0xe4, 0x00, 0x01, 0x01, 0x27, 0x16, 0x00, 0x19, 0xff, 0xff,
  0xff, 0xe2, 0x03, 0xec, 0xff, 0x00, 0xe6, 0x03, 0xde, 0xff, 0xe9, 0xe5,
  0xe6, 0x02, 0xe8, 0xfc, 0xfe, 0xfe, 0xe3, 0x00, 0x16, 0x1a, 0x22, 0xff,
  0xff, 0x00, 0xff, 0xff, 0x1a, 0xe2, 0x03, 0x01, 0xe9, 0x01, 0xed, 0xdb,
  0xde, 0xe8, 0x12, 0xfd, 0x00, 0x02, 0x00, 0xfb, 0xff, 0xff, 0x00, 0x00,
  0x15, 0x1b, 0x1e, 0x00, 0x01, 0x00, 0x1a, 0x01, 0xfe, 0xff, 0x03, 0x01,
  0xe8, 0x00, 0x27, 0x19, 0x16, 0xd3, 0x22, 0xfe, 0x01, 0x02, 0x00, 0xfb,
  0xda, 0xe1, 0x00, 0x01, 0x01, 0x1d, 0x31, 0x01, 0x01, 0x19, 0x1b, 0x00,
  0xcf, 0xfe, 0x01, 0xed, 0x1c, 0x10, 0x12, 0x16, 0xea, 0xd6, 0xd0, 0xe7,
  0xe6, 0x01, 0xe9, 0xe0, 0xd3, 0xbe, 0xe6, 0x00, 0x00, 0x4c, 0x57, 0xff,
