#ifndef MNIST_MODEL_DATA_H
#define MNIST_MODEL_DATA_H

#include <pgmspace.h>

const unsigned char mnist_model_tflite[] PROGMEM = {
  0x20, 0x00, 0x00, 0x00, 0x54, 0x46, 0x4c, 0x33, 0x00, 0x00, 0x00, 0x00,
  0x14, 0x00, 0x20, 0x00, 0x1c, 0x00, 0x18, 0x00, 0x14, 0x00, 0x10, 0x00,
  0x0c, 0x00, 0x00, 0x00, 0x08, 0x00, 0x04, 0x00, 0x14, 0x00, 0x00, 0x00,
  0x1c, 0x00, 0x00, 0x00, 0x94, 0x00, 0x00, 0x00, 0xec, 0x00, 0x00, 0x00,
  0xec, 0x4d, 0x00, 0x00, 0xfc, 0x4d, 0x00, 0x00, 0x34, 0x5a, 0x00, 0x00,
  0x03, 0x00, 0x00, 0x00, 0x01, 0x00, 0x00, 0x00, 0x10, 0x00, 0x00, 0x00,
  0x00, 0x00, 0x0a, 0x00, 0x10, 0x00, 0x0c, 0x00, 0x08, 0x00, 0x04, 0x00,
  0x0a, 0x00, 0x00, 0x00, 0x0c, 0x00, 0x00, 0x00, 0x1c, 0x00, 0x00, 0x00,
  0x38, 0x00, 0x00, 0x00, 0x0f, 0x00, 0x00, 0x00, 0x73, 0x65, 0x72, 0x76,
  0x69, 0x6e, 0x67, 0x5f, 0x64, 0x65, 0x66, 0x61, 0x75, 0x6c, 0x74, 0x00,
  0x01, 0x00, 0x00, 0x00, 0x04, 0x00, 0x00, 0x00, 0x94, 0xff, 0xff, 0xff,
  0x0c, 0x00, 0x00, 0x00, 0x04, 0x00, 0x00, 0x00, 0x07, 0x00, 0x00, 0x00,
  0x64, 0x65, 0x6e, 0x73, 0x65, 0x5f, 0x36, 0x00, 0x01, 0x00, 0x00, 0x00,
  0x04, 0x00, 0x00, 0x00, 0xe2, 0xb1, 0xff, 0xff, 0x04, 0x00, 0x00, 0x00,
  0x0d, 0x00, 0x00, 0x00, 0x64, 0x65, 0x6e, 0x73, 0x65, 0x5f, 0x34, 0x5f,
  0x69, 0x6e, 0x70, 0x75, 0x74, 0x00, 0x00, 0x00, 0x02, 0x00, 0x00, 0x00,
  0x34, 0x00, 0x00, 0x00, 0x04, 0x00, 0x00, 0x00, 0xdc, 0xff, 0xff, 0xff,
  0x0f, 0x00, 0x00, 0x00, 0x04, 0x00, 0x00, 0x00, 0x13, 0x00, 0x00, 0x00,
  0x43, 0x4f, 0x4e, 0x56, 0x45, 0x52, 0x53, 0x49, 0x4f, 0x4e, 0x5f, 0x4d,
  0x45, 0x54, 0x41, 0x44, 0x41, 0x54, 0x41, 0x00, 0x08, 0x00, 0x0c, 0x00,
  0x08, 0x00, 0x04, 0x00, 0x08, 0x00, 0x00, 0x00, 0x0e, 0x00, 0x00, 0x00,
  0x04, 0x00, 0x00, 0x00, 0x13, 0x00, 0x00, 0x00, 0x6d, 0x69, 0x6e, 0x5f,
  0x72, 0x75, 0x6e, 0x74, 0x69, 0x6d, 0x65, 0x5f, 0x76, 0x65, 0x72, 0x73,
  0x69, 0x6f, 0x6e, 0x00, 0x10, 0x00, 0x00, 0x00, 0xfc, 0x4c, 0x00, 0x00,
  0xf4, 0x4c, 0x00, 0x00, 0xbc, 0x4c, 0x00, 0x00, 0x34, 0x4c, 0x00, 0x00,
  0xf4, 0x4b, 0x00, 0x00, 0xc4, 0x4a, 0x00, 0x00, 0x54, 0x4a, 0x00, 0x00,
  0xc4, 0x00, 0x00, 0x00, 0xbc, 0x00, 0x00, 0x00, 0xb4, 0x00, 0x00, 0x00,
  0xac, 0x00, 0x00, 0x00, 0xa4, 0x00, 0x00, 0x00, 0x9c, 0x00, 0x00, 0x00,
  0x94, 0x00, 0x00, 0x00, 0x74, 0x00, 0x00, 0x00, 0x04, 0x00, 0x00, 0x00,
  0x9e, 0xb2, 0xff, 0xff, 0x04, 0x00, 0x00, 0x00, 0x60, 0x00, 0x00, 0x00,
  0x0c, 0x00, 0x00, 0x00, 0x08, 0x00, 0x0e, 0x00, 0x08, 0x00, 0x04, 0x00,
  0x08, 0x00, 0x00, 0x00, 0x10, 0x00, 0x00, 0x00, 0x28, 0x00, 0x00, 0x00,
  0x00, 0x00, 0x06, 0x00, 0x08, 0x00, 0x04, 0x00, 0x06, 0x00, 0x00, 0x00,
  0x04, 0x00, 0x00, 0x00, 0x01, 0x00, 0x00, 0x00, 0xeb, 0x03, 0x00, 0x00,
  0x0c, 0x00, 0x18, 0x00, 0x14, 0x00, 0x10, 0x00, 0x0c, 0x00, 0x04, 0x00,
  0x0c, 0x00, 0x00, 0x00, 0x76, 0xc3, 0xe2, 0x31, 0x9f, 0xf9, 0x47, 0x9b,
  0x02, 0x00, 0x00, 0x00, 0x02, 0x00, 0x00, 0x00, 0x04, 0x00, 0x00, 0x00,
  0x06, 0x00, 0x00, 0x00, 0x32, 0x2e, 0x32, 0x30, 0x2e, 0x30, 0x00, 0x00,
  0x0a, 0xb3, 0xff, 0xff, 0x04, 0x00, 0x00, 0x00, 0x10, 0x00, 0x00, 0x00,
  0x31, 0x2e, 0x31, 0x34, 0x2e, 0x30, 0x00, 0x00, 0x00, 0x00, 0x00, 0x00,
  0x00, 0x00, 0x00, 0x00, 0xf0, 0xb2, 0xff, 0xff, 0xf4, 0xb2, 0xff, 0xff,
  0xf8, 0xb2, 0xff, 0xff, 0xfc, 0xb2, 0xff, 0xff, 0x00, 0xb3, 0xff, 0xff,
  0x04, 0xb3, 0xff, 0xff, 0x3e, 0xb3, 0xff, 0xff, 0x04, 0x00, 0x00, 0x00,
  0x80, 0x49, 0x00, 0x00, 0x00, 0x00, 0x00, 0x00, 0x00, 0x00, 0x00, 0x00,
  0x00, 0x00, 0x00, 0x00, 0x00, 0x00, 0x18, 0x00, 0x00, 0x00, 0x00, 0x00,
  0x00, 0x00, 0x00, 0x00, 0x00, 0x00, 0x00, 0x00, 0x00, 0x00, 0x00, 0x00,
  0x00, 0x00, 0x00, 0x00, 0x00, 0x00, 0xd5, 0x00, 0x00, 0xff, 0xff, 0xff,
  0xfe, 0xfe, 0xb3, 0xbd, 0xc9, 0xe4, 0x00, 0xe8, 0x00, 0x00, 0x00, 0x00,
  0x00, 0x00, 0x00, 0x26, 0x1c, 0xda, 0xcc, 0xce, 0xaa, 0xb6, 0xae, 0x9d,
  0xca, 0xbc, 0xb0, 0xb7, 0xff, 0xfe, 0xfd, 0x9d, 0x99, 0x81, 0x8e, 0xbc,
  0x1b, 0x1a, 0x00, 0x00, 0x00, 0x00, 0x00, 0x1e, 0x00, 0xc8, 0xc7, 0xe0,
  0xfd, 0xcc, 0xfe, 0xd2, 0xfd, 0xfc, 0xfa, 0xfa, 0xfc, 0xfb, 0xfa, 0xdb,
  0xfa, 0xfc, 0xff, 0x00, 0x1d, 0x2b, 0x00, 0x00, 0x00, 0x00, 0x00, 0x60,
  0xfd, 0xaa, 0xd2, 0xcf, 0xfe, 0xfc, 0xfc, 0xfc, 0xfd, 0xfd, 0xfb, 0x1f,
  0xfb, 0x17, 0xfb, 0xe1, 0xfc, 0xe1, 0x00, 0xcc, 0x02, 0x00, 0x00, 0xc8,
  0x00, 0x00, 0xd4, 0x01, 0xc2, 0x1b, 0x15, 0x17, 0x25, 0x1e, 0xfc, 0x17,
  0xfe, 0x21, 0x21, 0x1a, 0xfe, 0xfd, 0xfd, 0xff, 0x00, 0x02, 0xff, 0xb1,
  0xc5, 0xe6, 0xe5, 0xc3, 0x00, 0x1e, 0x1d, 0x33, 0xfe, 0x25, 0x37, 0xff,
  0xff, 0xff, 0x00, 0xff, 0x18, 0x01, 0x01, 0x00, 0x01, 0x33, 0x27, 0x23,
  0x1d, 0x30, 0x1c, 0x00, 0xcc, 0xc4, 0x03, 0xdc, 0x00, 0x47, 0x43, 0x49,
  0xff, 0xfe, 0x1e, 0x02, 0x03, 0x03, 0x1e, 0x01, 0x03, 0x02, 0xde, 0x1c,
  0x1d, 0x33, 0x3d, 0x2b, 0x03, 0x01, 0x26, 0x42, 0x01, 0xe5, 0xdf, 0xd6,
  0x39, 0x54, 0xfd, 0x20, 0x01, 0x03, 0x04, 0x21, 0x04, 0x03, 0x20, 0x03,
  0x20, 0x01, 0x00, 0x1a, 0x2c, 0x19, 0x3f, 0x26, 0x1e, 0x02, 0x39, 0x37,
  0x2b, 0x01, 0x01, 0x3d, 0x22, 0x52, 0x02, 0x51, 0x27, 0x05, 0x04, 0x03,
  0x02, 0x02, 0x1d, 0x02, 0x01, 0x00, 0x00, 0x02, 0x1e, 0x27, 0x01, 0x1f,
  0x21, 0x1f, 0x2f, 0x49, 0x2d, 0x2d, 0x1b, 0x3c, 0x32, 0x3f, 0x1a, 0x04,
  0x03, 0xe7, 0x04, 0x02, 0x00, 0x18, 0x27, 0x00, 0xff, 0x22, 0x22, 0x02,
  0x25, 0x1f, 0x24, 0x20, 0x03, 0x2d, 0x57, 0x36, 0x01, 0x00, 0x23, 0x28,
  0x00, 0x51, 0x3a, 0x03, 0x01, 0xe1, 0x04, 0x00, 0xff, 0x1a, 0x23, 0x23,
  0xff, 0x1d, 0x00, 0x03, 0x04, 0x1e, 0x1f, 0x01, 0x2c, 0x19, 0x28, 0x25,
  0x00, 0x04, 0x2a, 0x00, 0x00, 0x4b, 0x02, 0x01, 0xfe, 0xe4, 0xea, 0x00,
  0x00, 0xff, 0xff, 0xff, 0xff, 0x00, 0x00, 0x1a, 0x02, 0x02, 0x1f, 0x19,
  0x19, 0xfe, 0x1c, 0x03, 0x00, 0xfd, 0x2a, 0x2b, 0xd3, 0x00, 0x31, 0x36,
  0x00, 0x02, 0x02, 0x01, 0x00, 0xff, 0xfe, 0xfe, 0x00, 0x00, 0x00, 0x00,
  0x01, 0x02, 0x1b, 0xff, 0xfe, 0xfe, 0x00, 0x01, 0x01, 0xfe, 0xe9, 0xdd,
  0x00, 0x1c, 0x3e, 0xff, 0x02, 0x03, 0x02, 0x00, 0xff, 0xfe, 0xff, 0x00,
  0x1b, 0x02, 0x01, 0x01, 0x03, 0x02, 0x23, 0x19, 0xfe, 0xff, 0xff, 0x20,
  0x02, 0xfe, 0x00, 0xde, 0x00, 0x00, 0x2a, 0xfe, 0x02, 0x04, 0x02, 0xfe,
  0xfd, 0xfd, 0x00, 0x01, 0x02, 0x02, 0x02, 0x03, 0x03, 0x03, 0x21, 0x00,
  0xff, 0xff, 0xfe, 0xff, 0x02, 0xd8, 0xb4, 0xba, 0x00, 0x27, 0x02, 0xfe,
  0x01, 0x00, 0x01, 0x1a, 0x23, 0xfd, 0x18, 0x01, 0x01, 0x02, 0xe4, 0x04,
  0x03, 0x03, 0x00, 0xdd, 0x01, 0x00, 0xfb, 0xfc, 0xfe, 0x9f, 0xe3, 0x00,
  0x00, 0x00, 0xd5, 0xfe, 0xfe, 0x29, 0x1c, 0xff, 0xfe, 0x1d, 0xfe, 0x1b,
  0x00, 0xe0, 0x02, 0x03, 0x01, 0x00, 0xd2, 0xe2, 0xff, 0xff, 0xfd, 0xfc,
  0x2e, 0xae, 0x00, 0x23, 0x3f, 0x00, 0x03, 0xdb, 0xff, 0x1e, 0x20, 0x1d,
  0xfd, 0xfd, 0x17, 0xff, 0xfe, 0xe4, 0xd6, 0x00, 0xfe, 0xfd, 0xe5, 0xe2,
  0xfd, 0xfd, 0xfd, 0xfc, 0xff, 0xbe, 0x3c, 0xc5, 0x00, 0x39, 0x03, 0xc5,
  0x01, 0x00, 0xfe, 0xfe, 0xfc, 0xfd, 0xfd, 0xdb, 0xfe, 0xe5, 0xd9, 0xdf,
  0xfe, 0xfd, 0xfc, 0xfc, 0xfc, 0xe3, 0x00, 0xfe, 0x21, 0xd3, 0x81, 0xb7,
  0x00, 0x23, 0xbf, 0xbe, 0x01, 0x1a, 0xff, 0xfe, 0xfd, 0xdd, 0xdf, 0xd5,
  0xd0, 0xfe, 0xd4, 0xe0, 0xe1, 0xfd, 0xe3, 0xfd, 0xe4, 0xff, 0x00, 0xff,
  0xfd, 0xd8, 0xac, 0x00, 0xe2, 0x00, 0xd0, 0xb5, 0x00, 0x29, 0x2b, 0xff,
  0xfe, 0xdf, 0xe3, 0xe5, 0xfe, 0xdd, 0xe5, 0x02, 0xff, 0xfe, 0xfe, 0xfe,
  0x00, 0x03, 0x02, 0x00, 0xff, 0xbf, 0x25, 0x00, 0xe6, 0x00, 0xd6, 0xc2,
  0x01, 0x01, 0x22, 0x00, 0xff, 0x00, 0xff, 0x01, 0x02, 0x01, 0x01, 0x00,
  0x00, 0x00, 0xe7, 0x01, 0xe6, 0xde, 0x02, 0xdf, 0xe4, 0x03, 0x03, 0x00,
  0x00, 0x00, 0xe3, 0x03, 0x25, 0x03, 0x03, 0x28, 0x02, 0x02, 0x02, 0x04,
  0x05, 0x22, 0x06, 0x33, 0x03, 0x1f, 0x02, 0xde, 0xc7, 0xbf, 0xd6, 0xc7,
  0x01, 0xe7, 0xb3, 0x00, 0x00, 0x00, 0x2c, 0x40, 0x5d, 0x2e, 0x03, 0x04,
  0x03, 0x03, 0x04, 0x04, 0x21, 0x35, 0x07, 0x06, 0x28, 0x02, 0xd7, 0xe1,
  0xd6, 0xd4, 0xb6, 0x9d, 0x01, 0x9f, 0xdf, 0x00, 0x00, 0x00, 0xc7, 0x29,
  0x03, 0x03, 0x03, 0x25, 0x04, 0x20, 0x20, 0x2b, 0x2d, 0x06, 0x06, 0x06,
  0x26, 0x01, 0x01, 0x00, 0xff, 0xdc, 0xc1, 0xad, 0x01, 0x00, 0x00, 0x00,
  0x00, 0x00, 0x00, 0x00, 0xc9, 0xcf, 0xe6, 0x21, 0x23, 0x2d, 0x21, 0x2f,
  0x00, 0x3c, 0x2f, 0x29, 0x36, 0x41, 0x35, 0x56, 0x27, 0x1b, 0x3d, 0x00,
  0x1f, 0x00, 0x00, 0x00, 0x00, 0x00, 0x00, 0x00, 0x24, 0x37, 0x52, 0x51,
  0x5c, 0x19, 0x3f, 0x20, 0xff, 0x4b, 0x38, 0xfd, 0x17, 0x48, 0x24, 0x21,
  0x00, 0x3c, 0x22, 0x30, 0x00, 0x00, 0x00, 0x00, 0x00, 0x00, 0x00, 0x00,
  0x00, 0x00, 0x00, 0x00, 0x00, 0x00, 0x00, 0x00, 0x00, 0x00, 0x00, 0x00,
  0x00, 0x00, 0x00, 0x00, 0x00, 0x00, 0x00, 0x00, 0x00, 0x00, 0x00, 0x00,
  0x00, 0x00, 0x00, 0x00, 0x00, 0xe1, 0x00, 0x00, 0xd2, 0x00, 0x00, 0x00,
  0xc7, 0xd3, 0x1d, 0x00, 0x00, 0xda, 0xdd, 0xd7, 0xd3, 0xc0, 0xc4, 0xcd,
  0x00, 0x00, 0x00, 0x00, 0x00, 0x00, 0x00, 0x00, 0xd7, 0xc8, 0xdb, 0xdc,
  0xd3, 0x00, 0x00, 0x00, 0x00, 0x23, 0x48, 0x7f, 0x4a, 0xfd, 0xfe, 0xfe,
  0xff, 0xd4, 0xc8, 0xca, 0x00, 0x00, 0x00, 0x00, 0x00, 0x00, 0x1f, 0x00,
  0xde, 0x00, 0x00, 0xc8, 0x8d, 0xcd, 0xd6, 0xfd, 0xff, 0x36, 0xfd, 0xd9,
  0xfd, 0xfd, 0xfd, 0xfc, 0xd3, 0xcd, 0xdc, 0x27, 0xd6, 0xbc, 0xc6, 0x00,
  0x00, 0x00, 0x39, 0x00, 0x00, 0x1e, 0xcd, 0xe2, 0x03, 0x1d, 0xfd, 0xfd,
  0xff, 0xfe, 0xfc, 0xfd, 0xfd, 0xfd, 0xfe, 0xfe, 0xfe, 0x00, 0x05, 0xd1,
  0xa6, 0x8e, 0xc8, 0xd8, 0x00, 0x00, 0x21, 0x00, 0x00, 0x03, 0xff, 0xfe,
  0xfe, 0xfd, 0xc3, 0xfe, 0xfe, 0xfd, 0x1b, 0xff, 0xfe, 0xe2, 0xe2, 0xff,
  0xdf, 0x03, 0x02, 0xff, 0xfd, 0xfe, 0x03, 0xe1, 0x00, 0x38, 0xb9, 0x00,
  0xd7, 0xd7, 0xdd, 0xff, 0xd4, 0xfe, 0xd8, 0xfe, 0xfe, 0xff, 0xfe, 0xfe,
  0xfe, 0xfe, 0xe1, 0x00, 0x00, 0x22, 0x00, 0x00, 0xd1, 0x01, 0xdb, 0x02,
  0x00, 0x68, 0xca, 0x02, 0xe2, 0xda, 0xff, 0xe2, 0xc7, 0x00, 0xff, 0x00,
  0x00, 0x1c, 0xfe, 0xfe, 0xfd, 0xfc, 0xff, 0x1d, 0x00, 0x01, 0x00, 0xff,
  0x00, 0xdc, 0x02, 0xcf, 0xe4, 0x61, 0xdf, 0xdd, 0xfd, 0xfd, 0xfe, 0xff,
  0x01, 0x00, 0xff, 0x01, 0x2a, 0xfe, 0x20, 0xfe, 0xfc, 0xdd, 0x01, 0x01,
  0x01, 0x02, 0x01, 0xff, 0xdb, 0x01, 0x2f, 0xca, 0x2a, 0x3c, 0x02, 0xfe,
  0xc2, 0xfd, 0xff, 0xfe, 0xff, 0xff, 0x00, 0x00, 0x21, 0xfd, 0x23, 0x26,
  0xfe, 0x00, 0x02, 0x01, 0x01, 0x01, 0x01, 0x01, 0x01, 0x01, 0x3e, 0x3e,
  0x1d, 0x01, 0x03, 0xc4, 0xb2, 0xcf, 0xff, 0x00, 0x01, 0x01, 0x00, 0xff,
  0xfd, 0xfc, 0xfd, 0x29, 0x1f, 0xff, 0xff, 0xff, 0xff, 0xff, 0xdd, 0xbb,
  0xda, 0x00, 0x22, 0x4b, 0x00, 0x36, 0x03, 0xcc, 0xb5, 0xff, 0x00, 0x03,
  0x02, 0x25, 0xfe, 0xfd, 0xfd, 0xfd, 0x42, 0x57, 0x23, 0xfd, 0xd4, 0xfd,
  0xfe, 0xfd, 0xff, 0xd8, 0xda, 0x02, 0x00, 0x55, 0x00, 0x00, 0x03, 0xc4,
  0xd6, 0xcc, 0xe1, 0x03, 0x00, 0xfd, 0xfc, 0xfc, 0xfd, 0x00, 0x40, 0x55,
  0x36, 0xfc, 0xfc, 0xde, 0xfc, 0xfc, 0xfd, 0x00, 0x02, 0xdf, 0x00, 0x64,
  0x00, 0x00, 0x45, 0xba, 0xc6, 0x01, 0xd4, 0x00, 0xfc, 0xfb, 0xd1, 0xfa,
  0xfc, 0xfe, 0x49, 0x53, 0x3b, 0xfc, 0xfb, 0xfb, 0xfb, 0xfc, 0xfd, 0x03,
  0x04, 0x03, 0x2e, 0xe2, 0x00, 0x00, 0x00, 0xb3, 0x1c, 0x00, 0xfe, 0xfc,
  0xc7, 0xbf, 0xbc, 0xfa, 0x1d, 0x3b, 0x56, 0x4a, 0x1d, 0xfb, 0xfb, 0xfb,
  0xfb, 0xfb, 0xfc, 0x01, 0x03, 0x39, 0x4c, 0x00, 0x00, 0xdd, 0x00, 0x00,
  0xcc, 0xbf, 0xfc, 0xc5, 0xd8, 0xc2, 0xbd, 0x21, 0x2d, 0x54, 0x68, 0x47,
  0xfb, 0xcf, 0xfa, 0xfa, 0xdc, 0xfa, 0x21, 0x4b, 0xfc, 0x1c, 0x55, 0x4b,
  0x00, 0x1f, 0x31, 0xfe, 0xfd, 0xd3, 0xfd, 0xce, 0xfc, 0xfc, 0xd9, 0xfc,
  0x32, 0x2e, 0x67, 0x1b, 0xfb, 0xb9, 0xca, 0xfc, 0xfc, 0xd7, 0xfc, 0xff,
  0xff, 0x00, 0x55, 0x00, 0x00, 0x00, 0x3b, 0xdf, 0xc8, 0xfe, 0xff, 0xcd,
  0xdf, 0xfc, 0xfc, 0x2f, 0x40, 0x31, 0x22, 0xfc, 0xc3, 0xa6, 0xb5, 0xde,
  0xfd, 0xdf, 0xfd, 0x00, 0x45, 0x5e, 0x53, 0xd9, 0x00, 0xdd, 0xfe, 0x2d,
  0xd6, 0xff, 0x00, 0xff, 0xfd, 0xfd, 0xfc, 0x1f, 0x31, 0x21, 0xfd, 0xdc,
  0x98, 0xba, 0xca, 0xfd, 0xfe, 0xfd, 0xff, 0x02, 0x23, 0x44, 0x5c, 0x28,
  0x00, 0x26, 0x00, 0x20, 0xfe, 0xc7, 0xde, 0xfe, 0xfd, 0x39, 0x19, 0xfc,
  0xfd, 0xfd, 0xfd, 0xd9, 0xbc, 0xb4, 0xc4, 0xbf, 0xfe, 0xd9, 0x00, 0x02,
  0x01, 0xda, 0x31, 0x3c, 0x00, 0x00, 0xac, 0xff, 0xfe, 0xb4, 0x00, 0x1e,
  0xfe, 0xfe, 0xfd, 0xfd, 0xfc, 0xd4, 0xfd, 0xfe, 0xd7, 0xbe, 0xb9, 0xd3,
  0xfd, 0xff, 0x00, 0x01, 0x02, 0xff, 0x00, 0x00, 0x00, 0x00, 0xca, 0xff,
  0xfd, 0x01, 0x02, 0x01, 0xfe, 0xfd, 0xfd, 0xfd, 0xfd, 0xfd, 0xfe, 0xff,
  0x00, 0xd8, 0xfe, 0xfd, 0xfd, 0xff, 0x00, 0x03, 0x05, 0x03, 0xdf, 0x00,
  0x00, 0x00, 0x00, 0x01, 0x02, 0x4f, 0x03, 0x01, 0xff, 0xfe, 0xfd, 0xd6,
  0xd9, 0x00, 0x01, 0x01, 0x01, 0xe4, 0xff, 0xff, 0xfd, 0x29, 0x01, 0xd2,
  0xe1, 0x00, 0x00, 0x00, 0x00, 0x00, 0xc6, 0xa2, 0xd8, 0xff, 0x01, 0x1f,
  0xfe, 0xfe, 0xff, 0x00, 0x02, 0x02, 0x02, 0x02, 0x03, 0x01, 0x00, 0xff,
  0xfd, 0xfd, 0x01, 0xbb, 0x02, 0x00, 0x00, 0x00, 0x00, 0x00, 0x00, 0xd4,
  0xde, 0xfe, 0xfe, 0xfe, 0xfe, 0xfe, 0xfe, 0xfd, 0xff, 0xff, 0x03, 0x05,
  0xc5, 0xce, 0xc8, 0xfd, 0xfd, 0xfe, 0xca, 0xab, 0x92, 0x00, 0x28, 0x00,
  0x00, 0x00, 0xd1, 0x31, 0xff, 0xff, 0x00, 0x2c, 0x02, 0x00, 0xfe, 0xfe,
  0xc8, 0xe0, 0x01, 0x01, 0xb2, 0xb3, 0xdc, 0xb5, 0xbf, 0x97, 0xaa, 0xe0,
  0xd8, 0x00, 0x00, 0x00, 0x00, 0x00, 0x00, 0xdf, 0x83, 0x00, 0x03, 0x03,
  0x02, 0x02, 0xdd, 0xdf, 0xc4, 0xe5, 0x01, 0xff, 0xba, 0x95, 0x81, 0xd1,
  0x00, 0xc8, 0x00, 0x22, 0x00, 0x00, 0x00, 0x00, 0x00, 0x00, 0x00, 0x00,
  0x29, 0x27, 0x02, 0x02, 0x02, 0x00, 0x00, 0x00, 0xdb, 0x02, 0xc3, 0xd6,
  0x1c, 0x00, 0xe0, 0x00, 0x00, 0x00, 0xe0, 0x00, 0x00, 0x00, 0x00, 0x00,
  0x00, 0x00, 0x00, 0x00, 0x00, 0x00, 0x00, 0x00, 0x00, 0x00, 0x00, 0x00,
  0x00, 0x00, 0x00, 0x00, 0x00, 0x00, 0x00, 0x00, 0x00, 0x00, 0x00, 0x00,
  0x00, 0x00, 0x00, 0x00, 0x00, 0x00, 0x00, 0x00, 0x00, 0x00, 0xe1, 0xe3,
  0xec, 0x00, 0x00, 0x00, 0x00, 0xe4, 0xe8, 0x00, 0x00, 0x00, 0xe3, 0xe8,
  0xd3, 0xe1, 0xe7, 0xed, 0x00, 0x00, 0x00, 0x00, 0x00, 0x00, 0x00, 0x00,
  0x00, 0x00, 0x00, 0xe4, 0xdd, 0xd5, 0xcd, 0xd4, 0xe8, 0xb8, 0xae, 0xc2,
  0xeb, 0x00, 0xbf, 0xb2, 0xcd, 0xd9, 0xe8, 0xe2, 0x00, 0xeb, 0x00, 0x00,
  0x00, 0x00, 0x00, 0x00, 0x00, 0x00, 0xd8, 0xc7, 0xab, 0xba, 0xb6, 0xda,
  0xb0, 0x81, 0x92, 0xb4, 0xa4, 0xdf, 0xca, 0xd1, 0xe2, 0xcf, 0xda, 0xc6,
  0xe0, 0x00, 0x00, 0x00, 0x00, 0x00, 0x00, 0x18, 0x02, 0x03, 0xfe, 0xfe,
  0xd1, 0xc1, 0xdf, 0xfe, 0xfe, 0xfe, 0xca, 0xe7, 0xf0, 0xf0, 0x03, 0xe5,
  0xe5, 0x01, 0x03, 0x03, 0x02, 0xd2, 0xcf, 0x00, 0x00, 0x00, 0xdd, 0x01,
  0xee, 0x19, 0x00, 0x00, 0x00, 0x00, 0x17, 0x15, 0xff, 0xdd, 0xe3, 0x00,
  0x01, 0x03, 0x03, 0x03, 0xe2, 0x00, 0x02, 0x02, 0x02, 0xe4, 0xc7, 0x00,
  0x00, 0xea, 0x00, 0x01, 0x02, 0x2e, 0x1a, 0xff, 0x15, 0x00, 0xff, 0xff,
  0xfe, 0xfe, 0xfe, 0xfe, 0xfd, 0xfe, 0xff, 0xff, 0xe6, 0xfe, 0x15, 0x00,
  0x00, 0xdc, 0x01, 0x19, 0x00, 0xc3, 0x02, 0x26, 0x02, 0x00, 0x13, 0x00,
  0x00, 0x18, 0x00, 0x00, 0xfe, 0xfe, 0xff, 0xea, 0xfe, 0xff, 0x00, 0x00,
  0xfe, 0xff, 0xea, 0x00, 0x2b, 0x01, 0x22, 0x01, 0x2b, 0xce, 0x02, 0x14,
  0x00, 0x23, 0x01, 0x01, 0x01, 0x14, 0x00, 0x00, 0xff, 0x00, 0x01, 0x01,
  0x01, 0x01, 0x01, 0xe7, 0x00, 0x01, 0x01, 0xea, 0x01, 0x02, 0xff, 0xce,
  0x00, 0x01, 0x28, 0xff, 0x00, 0x20, 0x02, 0x01, 0x01, 0x00, 0x01, 0x01,
  0x01, 0x01, 0x01, 0x02, 0x03, 0x02, 0x01, 0x01, 0x01, 0xe1, 0x01, 0x01,
  0x02, 0xe4, 0xff, 0x00, 0x00, 0x01, 0x19, 0x1b, 0x2a, 0x1b, 0xe4, 0x02,
  0x01, 0x01, 0x01, 0x01, 0x01, 0x00, 0xff, 0x16, 0x18, 0x1e, 0x00, 0x01,
  0x01, 0x02, 0x02, 0xe5, 0x01, 0x00, 0xd8, 0x1c, 0x00, 0x2f, 0xfe, 0x24,
  0x02, 0xeb, 0x02, 0x02, 0x02, 0xed, 0x01, 0x01, 0x00, 0xff, 0xfe, 0x17,
  0x24, 0x2e, 0x24, 0x02, 0x02, 0xeb, 0xee, 0xe5, 0xd3, 0xe3, 0xb8, 0x00,
  0x00, 0x24, 0xfe, 0x1d, 0x02, 0xe4, 0x02, 0x02, 0x01, 0x01, 0x01, 0x00,
  0x13, 0x14, 0xfd, 0x16, 0x26, 0x16, 0x2a, 0x01, 0x02, 0x01, 0x00, 0xe9,
  0xff, 0x00, 0x02, 0x2a, 0x00, 0x19, 0x12, 0x02, 0x02, 0x02, 0x02, 0x16,
  0x00, 0x00, 0xff, 0xfe, 0xfc, 0xfc, 0xfe, 0x00, 0x00, 0x2c, 0x2c, 0x01,
  0x02, 0x01, 0xea, 0xdf, 0xfd, 0xfe, 0x02, 0xdf, 0x00, 0x00, 0x16, 0x1d,
  0x15, 0x13, 0x01, 0x00, 0x00, 0xff, 0x12, 0xfd, 0x16, 0xff, 0x00, 0x00,
  0x1b, 0x32, 0x20, 0x21, 0x18, 0x02, 0x1b, 0xff, 0xfe, 0x14, 0xda, 0x00,
  0x00, 0x00, 0x00, 0x2a, 0x43, 0x00, 0x00, 0x01, 0x01, 0x15, 0x18, 0x15,
  0x00, 0x01, 0x02, 0x01, 0x19, 0x38, 0x20, 0x19, 0x01, 0x00, 0x26, 0x14,
  0xff, 0xfe, 0x2c, 0xe3, 0x00, 0xe0, 0xfe, 0xfe, 0x33, 0x01, 0xea, 0x02,
  0x02, 0x01, 0x01, 0x15, 0x01, 0xef, 0x02, 0x1e, 0x1b, 0x26, 0x13, 0x01,
  0x01, 0xff, 0xff, 0xff, 0xfe, 0xee, 0xec, 0x00, 0x00, 0x00, 0xff, 0xe4,
  0x01, 0x01, 0xeb, 0xee, 0x03, 0x03, 0x03, 0x02, 0x03, 0x03, 0x03, 0x15,
  0x1b, 0xff, 0x00, 0xed, 0xee, 0xfe, 0xfe, 0x13, 0x00, 0x01, 0x00, 0x00,
  0xcc, 0x00, 0xfe, 0xdf, 0xe5, 0xd7, 0xdd, 0x02, 0x03, 0xe4, 0x02, 0x02,
  0x02, 0x02, 0x02, 0x00, 0xff, 0xe8, 0xea, 0xdc, 0xbf, 0xd6, 0xc6, 0xd6,
  0xd0, 0xd6, 0x12, 0x29, 0x00, 0xd3, 0xfe, 0x1c, 0xfe, 0xdf, 0xe4, 0xe0,
  0x00, 0xdf, 0xee, 0x02, 0xea, 0xeb, 0x00, 0xff, 0xff, 0xe0, 0xcd, 0xcc,
  0xd0, 0xc9, 0xbf, 0xc2, 0xd2, 0xdf, 0x00, 0x25, 0x00, 0x15, 0x00, 0xde,
  0xfe, 0xe0, 0xdb, 0xff, 0xe4, 0x01, 0x01, 0x01, 0x00, 0xff, 0xff, 0xff,
  0xfe, 0xe1, 0xe8, 0xcc, 0xcc, 0xe5, 0xea, 0xd7, 0xfe, 0xec, 0x21, 0x1b,
  0x00, 0xec, 0xc4, 0xbb, 0xdd, 0xfd, 0xe6, 0xea, 0x01, 0x01, 0x01, 0x00,
  0x00, 0xff, 0xd3, 0xe5, 0xfe, 0x00, 0x02, 0xea, 0xee, 0xe6, 0x00, 0xfe,
  0xfe, 0x02, 0x25, 0x00, 0x00, 0x00, 0xc9, 0xcc, 0xe7, 0xfe, 0x12, 0x19,
  0x01, 0x01, 0x01, 0x00, 0xeb, 0xeb, 0xee, 0x00, 0xff, 0x00, 0x02, 0x02,
  0x02, 0xdc, 0xe8, 0x02, 0x00, 0x23, 0x33, 0x00, 0x00, 0x00, 0xc4, 0xca,
  0xea, 0xfe, 0x12, 0x29, 0xff, 0x00, 0x00, 0xff, 0x00, 0x00, 0x00, 0x00,
  0x00, 0x00, 0x01, 0x01, 0xe5, 0x01, 0xe4, 0x02, 0x26, 0x3f, 0x00, 0x00,
  0x00, 0x00, 0xea, 0xe9, 0xfe, 0x16, 0xff, 0x15, 0xff, 0xff, 0xff, 0xff,
  0xeb, 0x00, 0xea, 0xdf, 0x00, 0xff, 0xff, 0xff, 0xff, 0x00, 0x00, 0x01,
  0x00, 0x2b, 0x00, 0x00, 0x00, 0x00, 0x00, 0x20, 0x48, 0x2d, 0xff, 0xed,
  0x01, 0x00, 0x00, 0xff, 0x00, 0x01, 0x01, 0xe2, 0x01, 0x00, 0x1e, 0xe7,
  0xfe, 0x00, 0x1d, 0x13, 0xe6, 0x00, 0x00, 0x00, 0x00, 0x00, 0x00, 0x00,
  0x01, 0x23, 0x33, 0x02, 0xe7, 0x04, 0xe9, 0x02, 0x03, 0xdb, 0xe4, 0x01,
  0x01, 0xce, 0xdc, 0x02, 0xe0, 0xd9, 0xdf, 0x00, 0x00, 0x00, 0x00, 0x00,
  0x00, 0x00, 0x00, 0x00, 0x23, 0x2d, 0xea, 0xe6, 0xe9, 0xec, 0x01, 0x01,
  0xe8, 0x1a, 0xc6, 0xca, 0x02, 0x02, 0x02, 0x02, 0x00, 0x00, 0x00, 0x00,
  0x00, 0x00, 0x00, 0x00, 0x00, 0x00, 0x00, 0x00, 0x00, 0x00, 0x00, 0x00,
  0x00, 0x00, 0x00, 0x00, 0x00, 0x00, 0x00, 0x00, 0x00, 0x00, 0x00, 0x00,
  0x00, 0x00, 0x00, 0x00, 0x00, 0x00, 0x00, 0x00, 0x00, 0x00, 0x00, 0x00,
  0x00, 0x00, 0x2f, 0x25, 0x34, 0x36, 0x35, 0x40, 0x48, 0x61, 0xd7, 0x22,
  0x58, 0x7f, 0x79, 0x4b, 0x40, 0x2b, 0x22, 0x19, 0x00, 0x00, 0x00, 0x00,
  0x00, 0x00, 0x00, 0x34, 0x42, 0x3c, 0x37, 0x67, 0x70, 0x5a, 0x6d, 0x7e,
  0x52, 0x02, 0x24, 0xfe, 0xfe, 0xde, 0xe8, 0xff, 0x1e, 0x32, 0x44, 0x4a,
  0x00, 0xe1, 0x00, 0x00, 0x00, 0x00, 0xe2, 0x3f, 0xe4, 0x00, 0x00, 0xe3,
  0x18, 0x5a, 0x21, 0x51, 0xfe, 0x2d, 0x2c, 0xe6, 0xe2, 0x00, 0xe8, 0xdf,
  0xc8, 0xfd, 0xfe, 0xff, 0x00, 0xe8, 0x00, 0x00, 0x00, 0x00, 0xe0, 0xb2,
  0x23, 0x03, 0xfe, 0xfd, 0xff, 0x1e, 0x00, 0x1b, 0x00, 0x01, 0x04, 0x02,
  0xe3, 0x00, 0x00, 0x00, 0x01, 0xdf, 0xe0, 0x04, 0xde, 0x00, 0x00, 0x35,
  0x00, 0x00, 0x00, 0xb1, 0x2d, 0xc3, 0x00, 0xff, 0x00, 0x01, 0x02, 0x01,
  0x02, 0x27, 0x03, 0x02, 0x00, 0xfe, 0x00, 0x00, 0xdf, 0x00, 0xe4, 0xfe,
  0xff, 0xfe, 0x32, 0x3b, 0x00, 0xc5, 0x27, 0xc3, 0x00, 0xff, 0xfe, 0x00,
  0x02, 0xe6, 0x01, 0x00, 0x21, 0x29, 0x00, 0x00, 0xff, 0xfe, 0xd6, 0xe5,
  0xdb, 0xff, 0xfe, 0xfe, 0xe0, 0xfd, 0xfc, 0xfe, 0x00, 0x9c, 0x02, 0xfe,
  0x00, 0xff, 0x00, 0x02, 0x02, 0x02, 0xff, 0x33, 0x00, 0x1f, 0xfe, 0xfe,
  0xff, 0x00, 0x00, 0xff, 0xe4, 0x00, 0xff, 0xfe, 0x2a, 0x28, 0xfd, 0x19,
  0x48, 0xc8, 0x1d, 0x00, 0x01, 0xe6, 0x02, 0x03, 0x03, 0x34, 0xff, 0x00,
  0x00, 0x00, 0x01, 0x1d, 0x20, 0x1d, 0x01, 0x00, 0x00, 0x01, 0x00, 0xff,
  0xff, 0xfe, 0xfe, 0xc0, 0x00, 0xff, 0x03, 0xff, 0x01, 0x02, 0xe1, 0x02,
  0xdc, 0x01, 0x00, 0x01, 0x00, 0x01, 0xe9, 0x01, 0x1d, 0x19, 0xff, 0xff,
  0x1d, 0x01, 0x00, 0x1f, 0x30, 0xff, 0xc9, 0xe0, 0x18, 0xff, 0x1e, 0x00,
  0x03, 0x1b, 0x02, 0x03, 0x02, 0x01, 0x01, 0x01, 0xdf, 0xde, 0x00, 0xfe,
  0xfe, 0xff, 0x18, 0xff, 0x00, 0x01, 0x1e, 0x35, 0x2e, 0x00, 0xa9, 0xc3,
  0x00, 0x4a, 0x02, 0x02, 0xd6, 0x1f, 0x1b, 0x23, 0x00, 0x00, 0x00, 0xff,
  0x00, 0x01, 0xe4, 0xd1, 0xfe, 0xe6, 0xff, 0xff, 0x00, 0x2b, 0x25, 0x2b,
  0x34, 0x04, 0xb6, 0xdc, 0x00, 0x18, 0x33, 0x04, 0x01, 0x00, 0x21, 0xff,
  0x1a, 0x1c, 0xff, 0x18, 0xff, 0x00, 0xfe, 0xdc, 0xc8, 0xe3, 0xe3, 0xfe,
  0x00, 0x22, 0x2c, 0x21, 0x47, 0x00, 0x9c, 0xda, 0xe0, 0x00, 0x3d, 0x02,
  0x1a, 0x1e, 0x34, 0x3c, 0x16, 0x1a, 0x44, 0x2f, 0x1e, 0xff, 0x00, 0xde,
  0xe1, 0xdd, 0xfc, 0xfe, 0xff, 0x00, 0x2b, 0x55, 0x46, 0x1a, 0xe7, 0x2d,
  0x00, 0xda, 0xbf, 0xd5, 0xfc, 0x29, 0x3b, 0x2f, 0x19, 0x32, 0x3d, 0x40,
  0x25, 0x17, 0xff, 0xe3, 0xe2, 0xfa, 0xfc, 0xfe, 0xff, 0x00, 0x3a, 0x35,
  0x3a, 0x29, 0x00, 0x1e, 0x00, 0x00, 0xc5, 0xd3, 0xd9, 0xfe, 0xfd, 0x31,
  0xfe, 0x18, 0x25, 0x25, 0x21, 0xfe, 0xfe, 0xe1, 0xfb, 0xfb, 0xfd, 0xe5,
  0xff, 0x00, 0x01, 0x1b, 0x34, 0x3e, 0xb9, 0x2f, 0x00, 0xd3, 0x02, 0xb6,
  0xfe, 0xff, 0xfe, 0xfe, 0x1f, 0x32, 0x2c, 0x34, 0x20, 0xfe, 0xfe, 0xfd,
  0x17, 0x40, 0xfe, 0xff, 0xff, 0x02, 0x01, 0x03, 0x04, 0x4d, 0x00, 0x3d,
  0x00, 0xd6, 0x26, 0xb9, 0x01, 0x01, 0x00, 0xff, 0x25, 0x3d, 0x2f, 0x30,
  0x1c, 0xfe, 0xfd, 0xfe, 0x29, 0x28, 0xfe, 0x00, 0x01, 0x02, 0x02, 0x04,
  0x04, 0x5d, 0x00, 0x49, 0x00, 0xdb, 0x00, 0xc5, 0xeb, 0xe9, 0x04, 0x03,
  0x2b, 0x25, 0x26, 0x1e, 0x2b, 0x22, 0xfe, 0xff, 0x18, 0xfd, 0x00, 0x00,
  0x00, 0x00, 0x02, 0x05, 0x05, 0x22, 0x00, 0x00, 0xce, 0xca, 0x02, 0xce,
  0xea, 0x05, 0x04, 0x04, 0x04, 0xfe, 0x17, 0x2d, 0x37, 0x17, 0xff, 0xff,
  0xfe, 0xff, 0x01, 0x01, 0x00, 0x01, 0x02, 0x05, 0x03, 0x02, 0x18, 0x00,
  0x00, 0x27, 0x21, 0xe1, 0x02, 0x03, 0x03, 0x04, 0x04, 0x01, 0x1e, 0x28,
  0x25, 0x00, 0xff, 0xff, 0xfe, 0xff, 0x01, 0x02, 0x01, 0x01, 0x02, 0xcc,
  0xe6, 0xcb, 0x03, 0xe7, 0xe8, 0x00, 0x00, 0xfd, 0x03, 0x02, 0x03, 0x02,
  0x03, 0x25, 0x22, 0x01, 0x01, 0x00, 0xff, 0xff, 0xff, 0xff, 0x01, 0x02,
  0xda, 0xdc, 0x01, 0x02, 0x05, 0xd8, 0x61, 0x00, 0x00, 0x00, 0x29, 0xfd,
  0x02, 0xea, 0x01, 0x00, 0x22, 0x28, 0x29, 0x1b, 0x02, 0x22, 0x01, 0x02,
  0x00, 0xfe, 0x01, 0x01, 0xd0, 0xfe, 0x1b, 0xff, 0xff, 0x03, 0x03, 0x00,
  0x00, 0x00, 0xaf, 0xfd, 0xde, 0xcc, 0xfe, 0xfd, 0x1f, 0x1f, 0x01, 0x02,
  0x03, 0x03, 0x1c, 0x03, 0x01, 0xff, 0x00, 0x00, 0xfd, 0xfc, 0x36, 0x33,
  0xff, 0x00, 0xa4, 0x00, 0x00, 0x00, 0x00, 0xd3, 0xc7, 0xe1, 0xce, 0xe0,
  0x00, 0x01, 0xff, 0x00, 0x00, 0x02, 0x04, 0x05, 0x2c, 0xff, 0xff, 0xfe,
  0xfc, 0xfb, 0x49, 0xff, 0x26, 0x55, 0xe6, 0x00, 0x00, 0x00, 0x00, 0x22,
  0xfe, 0xe1, 0xc8, 0xc0, 0x8b, 0x9d, 0x00, 0xff, 0xba, 0xcf, 0x01, 0x00,
  0x22, 0x01, 0x21, 0x01, 0xff, 0xfd, 0xff, 0xff, 0xb6, 0x1a, 0x1a, 0x00,
  0x00, 0x00, 0x00, 0xff, 0x31, 0x1a, 0x02, 0xe2, 0xeb, 0xd5, 0xc6, 0xd7,
  0x04, 0x04, 0x2a, 0x1c, 0x02, 0xdf, 0x02, 0x02, 0xff, 0xff, 0x00, 0x00,
  0x2a, 0x00, 0x00, 0x00, 0x00, 0x00, 0x00, 0x00, 0xdd, 0xdf, 0xbb, 0xc4,
  0xc4, 0xde, 0xcb, 0x01, 0x2c, 0x3c, 0x28, 0x30, 0x1b, 0x54, 0x34, 0x42,
  0x00, 0xd4, 0xca, 0xd8, 0x00, 0x00, 0x00, 0x00, 0x00, 0x00, 0x00, 0x00,
  0x00, 0x00, 0x00, 0x00, 0x00, 0x00, 0x00, 0x00, 0x00, 0x00, 0xe0, 0x00,
  0x00, 0x00, 0x00, 0x00, 0x00, 0x00, 0x00, 0x00, 0x00, 0x00, 0x00, 0x00,
  0x00, 0x00, 0x00, 0x00, 0x00, 0xd4, 0xdc, 0x00, 0xde, 0xd1, 0xff, 0xbb,
  0xbc, 0xe0, 0x02, 0x8e, 0x81, 0x8a, 0x9e, 0xd8, 0xbf, 0xc2, 0xc1, 0xd8,
  0x00, 0x00, 0x00, 0x00, 0x00, 0x00, 0x00, 0xc0, 0xa8, 0x00, 0x00, 0x00,
  0x00, 0x00, 0xbf, 0xc6, 0x02, 0x02, 0x01, 0x03, 0x04, 0x03, 0x01, 0x02,
  0xe0, 0x03, 0xdf, 0xbd, 0xcc, 0xdf, 0x00, 0x00, 0x00, 0x00, 0x00, 0xd4,
  0xa6, 0x39, 0x00, 0x03, 0xb0, 0x91, 0xb1, 0xd8, 0xa5, 0x8b, 0x06, 0x06,
  0x06, 0x06, 0x06, 0x06, 0xe7, 0x06, 0x03, 0x1e, 0xa7, 0xbf, 0x00, 0x00,
  0x00, 0x00, 0xe0, 0x00, 0xcf, 0x05, 0x03, 0xdc, 0xbf, 0xb6, 0xca, 0xba,
  0x03, 0x25, 0x07, 0x08, 0x08, 0x30, 0x09, 0x08, 0x2a, 0x40, 0x00, 0x00,
  0x34, 0x00, 0x00, 0x40, 0x00, 0x00, 0xca, 0xcf, 0x03, 0x04, 0xdd, 0xff,
  0xff, 0x00, 0x29, 0x05, 0x34, 0x06, 0x07, 0x08, 0x08, 0x08, 0x08, 0x07,
  0x05, 0x28, 0x03, 0x25, 0x45, 0x02, 0x03, 0x4c, 0x00, 0x00, 0x00, 0x01,
  0xe0, 0x04, 0x01, 0x00, 0xff, 0x30, 0x04, 0x06, 0x05, 0x04, 0xe6, 0x02,
  0x01, 0x02, 0x01, 0xff, 0xff, 0x01, 0x03, 0x02, 0x20, 0x04, 0x03, 0xe2,
  0x00, 0xc7, 0xfd, 0x33, 0x01, 0x29, 0x2d, 0x00, 0x21, 0x00, 0x01, 0x04,
  0x01, 0x01, 0x00, 0xfe, 0xd0, 0xfe, 0xc8, 0xfc, 0xfd, 0x00, 0x02, 0x29,
  0x29, 0xd6, 0x33, 0xbb, 0xb1, 0xa0, 0x25, 0x24, 0x03, 0x01, 0x22, 0x35,
  0xfe, 0x25, 0x00, 0x00, 0x00, 0x01, 0x00, 0xff, 0xc2, 0xd2, 0xfc, 0xda,
  0xd3, 0x02, 0x03, 0x03, 0x23, 0x03, 0x1f, 0xa1, 0x00, 0xc9, 0x21, 0x02,
  0xc1, 0x2f, 0x28, 0x2b, 0xfe, 0x26, 0xfe, 0x25, 0x02, 0x01, 0x00, 0xff,
  0xff, 0xfe, 0xfe, 0xff, 0x00, 0x30, 0x04, 0x01, 0xff, 0x03, 0x1c, 0x1e,
  0x00, 0xff, 0xfc, 0xd5, 0xfd, 0x23, 0x02, 0x01, 0x1d, 0xfd, 0x00, 0x02,
  0x03, 0xda, 0xcd, 0x00, 0xd5, 0xfe, 0xff, 0x00, 0x01, 0x02, 0x03, 0xde,
  0x01, 0x24, 0xba, 0x00, 0x00, 0xca, 0xfd, 0x21, 0xfe, 0x02, 0x01, 0x00,
  0x20, 0x39, 0x01, 0x04, 0x26, 0x02, 0xe0, 0xff, 0xff, 0xfd, 0x00, 0x01,
  0x02, 0x04, 0x06, 0xd7, 0xc0, 0xe0, 0xd2, 0x00, 0x00, 0x30, 0xfd, 0xfc,
  0xe0, 0x03, 0xff, 0xfd, 0xff, 0x01, 0x03, 0x21, 0x26, 0x25, 0xfe, 0x00,
  0xff, 0x24, 0x00, 0x00, 0x02, 0x04, 0x05, 0x03, 0x05, 0xe4, 0x02, 0x2b,
  0x00, 0x00, 0x02, 0x00, 0x03, 0x02, 0x00, 0x00, 0x03, 0x05, 0x26, 0x04,
  0x34, 0xff, 0x00, 0x01, 0x00, 0x2b, 0x1f, 0x02, 0x29, 0x05, 0xe8, 0x07,
  0x06, 0x03, 0x02, 0x21, 0x00, 0x21, 0x00, 0x01, 0x04, 0x02, 0x03, 0x05,
  0x05, 0x06, 0x02, 0x03, 0x00, 0x01, 0x01, 0x00, 0x33, 0x32, 0x01, 0x04,
  0x06, 0x06, 0x08, 0xea, 0x06, 0x25, 0xd0, 0x00, 0xe2, 0x00, 0x00, 0x47,
  0x05, 0x02, 0xd9, 0x07, 0x08, 0x08, 0x06, 0x05, 0x02, 0x04, 0x27, 0x30,
  0x30, 0x23, 0x02, 0x06, 0x06, 0x06, 0x08, 0x06, 0xc1, 0x04, 0x41, 0x47,
  0x00, 0x25, 0xfd, 0x5b, 0x04, 0x05, 0x07, 0x08, 0x09, 0x09, 0x08, 0x04,
  0x02, 0x26, 0x2c, 0x28, 0x26, 0x20, 0x02, 0x05, 0x24, 0x06, 0xe1, 0x08,
  0x07, 0x27, 0x02, 0x00, 0x00, 0xd5, 0x3e, 0x29, 0x03, 0x06, 0x07, 0x2e,
  0x09, 0x0a, 0x0b, 0x08, 0x06, 0x3a, 0x39, 0x2a, 0x2c, 0xff, 0x25, 0x2a,
  0x2d, 0x31, 0x06, 0x05, 0x07, 0x03, 0x00, 0xb7, 0xcb, 0x00, 0x32, 0x30,
  0x20, 0x02, 0x04, 0x06, 0x08, 0x0a, 0x09, 0x08, 0x2e, 0x4c, 0x02, 0x01,
  0x32, 0x02, 0x04, 0x07, 0x26, 0x2c, 0x05, 0x05, 0x06, 0xe1, 0x00, 0x00,
  0x00, 0xbd, 0xe0, 0x49, 0x36, 0x01, 0x01, 0x03, 0x05, 0x08, 0xe4, 0x08,
  0x06, 0x03, 0x2e, 0x01, 0x04, 0x03, 0x2b, 0x07, 0x07, 0x06, 0xe5, 0x03,
  0x04, 0x02, 0x00, 0x00, 0x00, 0xde, 0x03, 0x00, 0x03, 0xff, 0xff, 0x02,
  0x03, 0xdd, 0xcb, 0xde, 0xd9, 0x01, 0x02, 0x02, 0x29, 0x23, 0x23, 0x23,
  0x27, 0x22, 0x21, 0x04, 0x03, 0x04, 0xc3, 0x1e, 0x00, 0x00, 0xcd, 0xff,
  0x03, 0x2c, 0xfd, 0x00, 0x02, 0x03, 0xd8, 0x04, 0xda, 0x02, 0xdf, 0x01,
  0x03, 0x29, 0x06, 0x04, 0x27, 0x03, 0x24, 0x37, 0x52, 0xe1, 0xb1, 0x00,
  0x00, 0x00, 0xd5, 0xe0, 0x31, 0x1c, 0xfd, 0xd3, 0xd9, 0xdd, 0x01, 0x00,
  0xe2, 0xe0, 0xe4, 0x02, 0x03, 0x03, 0x03, 0x47, 0x30, 0x3b, 0x3a, 0x2b,
  0x51, 0x02, 0x02, 0x00, 0x00, 0x00, 0xad, 0xd1, 0xfa, 0xd7, 0xfc, 0xfd,
  0xfb, 0xfd, 0xfe, 0xfd, 0xfe, 0xff, 0x00, 0xff, 0xff, 0x20, 0x31, 0x51,
  0x26, 0x51, 0xff, 0x00, 0x2e, 0x53, 0x3a, 0x00, 0x00, 0x00, 0x00, 0xd0,
  0x8c, 0xfc, 0xfe, 0xfc, 0xfa, 0xfc, 0xfb, 0x23, 0xfc, 0xff, 0x1a, 0x1a,
  0x27, 0xff, 0xfe, 0x21, 0x02, 0x02, 0x23, 0x22, 0xe1, 0x33, 0x00, 0x00,
  0x00, 0x00, 0xd5, 0x1c, 0xfc, 0xfd, 0x1b, 0xfb, 0xd6, 0xfb, 0x1a, 0x1a,
  0xf9, 0xf7, 0x20, 0xf7, 0xf7, 0xf9, 0x30, 0xe1, 0x02, 0xff, 0xfe, 0xfe,
  0xb8, 0xdb, 0x00, 0x00, 0x00, 0x00, 0x00, 0xc5, 0xfc, 0x2f, 0x23, 0xfe,
  0x00, 0xff, 0xf8, 0xc5, 0xfb, 0xd9, 0xd2, 0xf9, 0xf9, 0xfb, 0xda, 0xd3,
  0x99, 0xc7, 0xc4, 0x00, 0x00, 0x00, 0x00, 0x00, 0x00, 0x00, 0x00, 0x00,
  0x00, 0x2c, 0xd2, 0xb2, 0xb1, 0xd3, 0xbe, 0xbf, 0xb1, 0xfe, 0xce, 0xfa,
  0xd5, 0xdc, 0xfe, 0xdb, 0x40, 0x26, 0x00, 0x21, 0x00, 0x00, 0x00, 0x00,
  0x00, 0x00, 0x00, 0x00, 0x00, 0x00, 0x00, 0x00, 0x00, 0x00, 0x00, 0x00,
  0x00, 0x16, 0x10, 0x00, 0x00, 0x00, 0x00, 0x00, 0x00, 0x00, 0x00, 0x00,
  0x00, 0x00, 0x00, 0x00, 0x00, 0x00, 0x00, 0x00, 0x00, 0x00, 0x00, 0x00,
  0x0e, 0x0f, 0x00, 0x00, 0xdc, 0xe9, 0xee, 0x00, 0x00, 0x00, 0xd8, 0xd2,
  0xd5, 0xcd, 0x00, 0x00, 0x00, 0x00, 0x00, 0x00, 0x00, 0x00, 0x00, 0xe9,
  0xe7, 0x00, 0x00, 0x00, 0xef, 0x00, 0x27, 0x01, 0x11, 0x1b, 0x15, 0xff,
  0xff, 0xff, 0xff, 0xef, 0xff, 0xff, 0xe7, 0xec, 0x00, 0x00, 0x00, 0x00,
  0x00, 0x00, 0x20, 0xed, 0x00, 0x00, 0x00, 0x00, 0x01, 0x15, 0x28, 0x17,
  0x2d, 0x1d, 0x24, 0x1b, 0xff, 0xff, 0xff, 0xff, 0xff, 0xff, 0xd6, 0xcb,
  0xe1, 0xf0, 0x00, 0x00, 0x00, 0x00, 0x1d, 0x25, 0x28, 0xff, 0x18, 0x01,
  0x27, 0x19, 0x1c, 0x01, 0x14, 0x17, 0x10, 0x10, 0x12, 0xff, 0x1a, 0xff,
  0x00, 0x00, 0xfe, 0xc4, 0xd8, 0xd4, 0x00, 0x00, 0x00, 0x00, 0x00, 0x19,
  0x1c, 0x01, 0x00, 0x28, 0x23, 0x12, 0x02, 0x12, 0x13, 0x00, 0x00, 0x00,
  0x0f, 0x00, 0x00, 0x00, 0x00, 0x01, 0x01, 0x00, 0xdd, 0xe6, 0x12, 0x00,
  0x00, 0x17, 0x1a, 0xff, 0x10, 0x02, 0x2d, 0x22, 0x01, 0x01, 0x15, 0x18,
  0x00, 0x18, 0x00, 0x00, 0x01, 0x00, 0x00, 0x00, 0x01, 0x01, 0x01, 0x00,
  0xfe, 0xf0, 0x00, 0xdf, 0x00, 0x28, 0x1a, 0x23, 0x1e, 0x11, 0x1f, 0x14,
  0x01, 0x10, 0x15, 0x1e, 0x10, 0x12, 0x12, 0x00, 0x00, 0x01, 0xf2, 0x00,
  0x00, 0xea, 0x02, 0x00, 0xe7, 0xff, 0xea, 0xda, 0x00, 0x37, 0xf1, 0x1c,
  0x01, 0x00, 0x10, 0x0e, 0x00, 0x00, 0x01, 0xec, 0xec, 0xec, 0xff, 0xf1,
  0x01, 0x02, 0x02, 0x00, 0x00, 0xf0, 0x0f, 0xff, 0xdc, 0xff, 0x2b, 0xe2,
  0x17, 0x29, 0x01, 0x01, 0xdf, 0xe9, 0xff, 0xde, 0xd2, 0xbb, 0xa6, 0xac,
  0xd2, 0xd5, 0xe8, 0x01, 0x03, 0x04, 0x02, 0x01, 0x00, 0xf1, 0x00, 0xfe,
  0xce, 0x31, 0x01, 0x00, 0x21, 0x14, 0x10, 0x01, 0xc2, 0xb6, 0xbc, 0x8c,
  0x81, 0x99, 0xbd, 0xd7, 0xe5, 0xf0, 0x00, 0x03, 0x14, 0x03, 0x01, 0x00,
  0xff, 0xff, 0xff, 0xd0, 0xd7, 0x01, 0xe0, 0x10, 0x00, 0x00, 0x01, 0x01,
  0xce, 0xba, 0xc3, 0xdb, 0xe7, 0xff, 0xff, 0xfe, 0xfe, 0xff, 0x02, 0x04,
  0x03, 0x02, 0x00, 0x16, 0x0f, 0xfe, 0xfe, 0xdf, 0xe5, 0x0e, 0x00, 0x00,
  0x00, 0x00, 0x00, 0x01, 0xff, 0xff, 0xff, 0x00, 0x00, 0x1d, 0x22, 0x18,
  0x2e, 0x19, 0x02, 0x02, 0x01, 0x00, 0xff, 0xfe, 0xfe, 0xfe, 0xfe, 0xd9,
  0x0f, 0x2a, 0x00, 0x00, 0x00, 0xee, 0xff, 0x1c, 0xff, 0x10, 0x10, 0x11,
  0x00, 0x22, 0x26, 0x1a, 0x00, 0x01, 0x01, 0x01, 0x00, 0x00, 0xff, 0xed,
  0xfe, 0xfe, 0xff, 0x00, 0x0f, 0x00, 0x00, 0xe6, 0x00, 0x00, 0x00, 0x1d,
  0x24, 0x15, 0x20, 0x00, 0x0f, 0x12, 0x10, 0x11, 0x00, 0x01, 0x01, 0x00,
  0x00, 0x00, 0xff, 0xfe, 0xfe, 0x0d, 0xff, 0x11, 0x00, 0x15, 0x2c, 0x00,
  0x00, 0x00, 0x16, 0x26, 0x15, 0x19, 0x11, 0x00, 0xff, 0xff, 0xff, 0xfe,
  0xff, 0xff, 0x00, 0x0f, 0x00, 0x00, 0xff, 0xff, 0xfe, 0xff, 0xff, 0x0f,
  0x14, 0x02, 0x2a, 0x1f, 0x00, 0x16, 0x14, 0x1f, 0x12, 0xff, 0xff, 0xff,
  0xfe, 0xe9, 0xfe, 0xec, 0xfe, 0xff, 0xff, 0xff, 0x00, 0x00, 0x10, 0xff,
  0xfe, 0xff, 0xff, 0x18, 0x01, 0x02, 0x2d, 0x00, 0x00, 0x23, 0x00, 0x0f,
  0xff, 0xff, 0xff, 0xec, 0xfe, 0xeb, 0xec, 0xef, 0xff, 0xf0, 0xff, 0xff,
  0x00, 0x00, 0x00, 0xff, 0xff, 0xff, 0xff, 0xff, 0x02, 0x13, 0x1f, 0x00,
  0x1a, 0x15, 0x01, 0x1b, 0xff, 0xff, 0xff, 0xff, 0xfe, 0xfe, 0xfe, 0xff,
  0xff, 0xff, 0xff, 0x00, 0x00, 0x00, 0x00, 0x00, 0xff, 0x0f, 0x00, 0x00,
  0x01, 0x19, 0x00, 0x29, 0xe3, 0x19, 0x02, 0x01, 0x01, 0x00, 0x00, 0xff,
  0xff, 0xff, 0xff, 0xff, 0xff, 0x13, 0x00, 0x00, 0x00, 0x00, 0x00, 0xf1,
  0xff, 0xff, 0xef, 0xed, 0x01, 0x11, 0x00, 0x1f, 0x00, 0x14, 0x01, 0x02,
  0x01, 0x01, 0x01, 0x00, 0xff, 0xff, 0xff, 0xff, 0xff, 0x00, 0x00, 0x00,
  0x01, 0x00, 0x00, 0x00, 0xff, 0xff, 0xef, 0xe9, 0xe4, 0x01, 0x00, 0xf0,
  0xe5, 0x15, 0x1c, 0x02, 0x01, 0x01, 0x01, 0x01, 0x00, 0x00, 0x00, 0x00,
  0x00, 0x00, 0xf2, 0x01, 0x01, 0x00, 0x00, 0xff, 0xff, 0xea, 0x00, 0x02,
  0xe9, 0x26, 0x2e, 0x00, 0xe9, 0x00, 0x12, 0x01, 0x02, 0x01, 0x01, 0x01,
  0x01, 0x01, 0x01, 0x01, 0x01, 0x02, 0x02, 0x01, 0x01, 0x00, 0xff, 0xff,
  0xff, 0xff, 0x00, 0x01, 0xff, 0x00, 0x1c, 0x00, 0x00, 0x00, 0x1d, 0x2e,
  0x02, 0x02, 0x02, 0x01, 0x01, 0x02, 0x02, 0x01, 0x01, 0x01, 0x01, 0x00,
  0xff, 0x00, 0x00, 0x00, 0x00, 0x02, 0x01, 0xf2, 0xff, 0xe4, 0x19, 0x00,
  0x00, 0x00, 0xf0, 0x24, 0x02, 0xf4, 0x15, 0x14, 0x17, 0x13, 0x01, 0x10,
  0x01, 0x02, 0x12, 0xff, 0xff, 0xff, 0x01, 0xf3, 0xec, 0x02, 0x02, 0xce,
  0x00, 0x00, 0x11, 0x00, 0x00, 0x00, 0x00, 0x00, 0x01, 0x01, 0x01, 0x01,
  0x01, 0x11, 0x21, 0x00, 0x0f, 0x17, 0x00, 0xff, 0xef, 0xef, 0x02, 0x12,
  0xf2, 0xd3, 0xe2, 0xe7, 0xeb, 0x00, 0x00, 0x00, 0x00, 0x00, 0x00, 0x00,
  0x00, 0x12, 0x02, 0xf0, 0x00, 0xff, 0x00, 0x13, 0x16, 0x12, 0x16, 0x1a,
  0x1e, 0x18, 0x18, 0x00, 0xee, 0x00, 0x1b, 0x1d, 0x00, 0x00, 0x00, 0x00,
  0x00, 0x00, 0x00, 0x00, 0x00, 0x00, 0x01, 0x01, 0x01, 0xe9, 0xe8, 0xe6,
  0xdd, 0xef, 0xd5, 0x00, 0x18, 0x22, 0x00, 0x16, 0x00, 0x00, 0x00, 0x00,
  0x00, 0x00, 0x00, 0x00, 0x00, 0x00, 0x00, 0x00, 0x00, 0x00, 0x00, 0x00,
  0x00, 0x00, 0x00, 0x00, 0x00, 0x00, 0x00, 0x00, 0x00, 0x00, 0x00, 0x00,
  0x00, 0x00, 0x00, 0x00, 0x00, 0x00, 0x00, 0x00, 0x00, 0x00, 0x00, 0x00,
  0x00, 0xe7, 0xde, 0xdc, 0x00, 0x00, 0xff, 0xc6, 0xc2, 0xb9, 0x01, 0x02,
  0x01, 0x01, 0xc8, 0xc4, 0xd2, 0xcd, 0xd7, 0xe0, 0x00, 0x00, 0x00, 0x00,
  0x00, 0x00, 0x00, 0xc2, 0xb5, 0x00, 0x00, 0xd0, 0x00, 0x34, 0x00, 0xe4,
  0x02, 0x02, 0x21, 0x00, 0x21, 0x2a, 0x00, 0x00, 0x00, 0x24, 0xe9, 0xd9,
  0x21, 0x1e, 0x00, 0x00, 0x00, 0x00, 0x00, 0xc4, 0xe5, 0x3b, 0x00, 0x01,
  0x02, 0x03, 0x01, 0x21, 0x24, 0xdf, 0x02, 0x01, 0x00, 0x01, 0xe3, 0x21,
  0x03, 0x19, 0x1e, 0xe1, 0x00, 0x2e, 0x23, 0x00, 0x00, 0x00, 0x00, 0xcf,
  0xe5, 0x02, 0x2b, 0x21, 0x1f, 0x37, 0x41, 0x32, 0x02, 0x02, 0x02, 0x01,
  0x01, 0x02, 0x03, 0x04, 0x03, 0x01, 0x01, 0x02, 0x00, 0x2f, 0x2e, 0x00,
  0x00, 0x00, 0xd6, 0x27, 0xff, 0x00, 0x3e, 0x1d, 0xfe, 0xfe, 0xff, 0xff,
  0x00, 0x00, 0x00, 0x00, 0x01, 0x02, 0x02, 0x02, 0x01, 0x00, 0xe8, 0xe1,
  0xfe, 0x29, 0x00, 0xd9, 0x00, 0x00, 0x21, 0x16, 0xff, 0xff, 0xfe, 0xfd,
  0xfd, 0xfe, 0xff, 0xff, 0xff, 0xff, 0xff, 0xff, 0x00, 0x00, 0x00, 0xff,
  0xff, 0xff, 0xc7, 0xda, 0xdc, 0x17, 0xff, 0xc2, 0x00, 0x00, 0x00, 0xff,
  0xff, 0xff, 0xff, 0xe2, 0xe7, 0xe5, 0xd4, 0xff, 0xdd, 0xff, 0xe5, 0x00,
  0x00, 0x00, 0xff, 0xfe, 0xff, 0xff, 0xff, 0xdc, 0x1b, 0xfe, 0xff, 0xd9,
  0xbc, 0x00, 0x00, 0xff, 0xc8, 0xc8, 0xd1, 0xd2, 0xc2, 0xda, 0xff, 0xff,
  0xff, 0x00, 0x00, 0x00, 0x00, 0xff, 0xfe, 0xfe, 0xff, 0xff, 0xfe, 0xff,
  0xff, 0xfe, 0xff, 0x19, 0x00, 0x00, 0x00, 0x24, 0x9b, 0xc3, 0xd5, 0x00,
  0xd4, 0xff, 0xff, 0xff, 0xff, 0x00, 0x01, 0x00, 0xfe, 0xfd, 0xfe, 0xfe,
  0xfe, 0xfe, 0xfe, 0xdc, 0xff, 0xdd, 0x00, 0x00, 0x00, 0x00, 0x00, 0x18,
  0xbb, 0xff, 0xff, 0xff, 0xd3, 0xe8, 0xff, 0xff, 0xff, 0x00, 0xdc, 0xdf,
  0xe4, 0xfd, 0xfe, 0xfe, 0xde, 0xe1, 0xdd, 0xd8, 0xff, 0xff, 0x00, 0x00,
  0x00, 0xba, 0xcd, 0xff, 0xa2, 0xff, 0xff, 0xfe, 0xff, 0xff, 0xfe, 0xff,
  0x00, 0xe3, 0xd2, 0xbe, 0xe2, 0xdc, 0xfe, 0xfe, 0xff, 0xdd, 0xfe, 0xd1,
  0xd6, 0x00, 0xda, 0xd5, 0x00, 0xe7, 0x00, 0xd5, 0xd2, 0xfe, 0xde, 0xfe,
  0xfe, 0xff, 0xff, 0xff, 0x01, 0x02, 0x04, 0x02, 0xff, 0xd5, 0xd2, 0xff,
  0xff, 0xff, 0xff, 0xc3, 0xc8, 0x1b, 0xe8, 0xcc, 0x00, 0x00, 0x17, 0xdc,
  0xe1, 0xfe, 0xe2, 0xfe, 0xfe, 0xff, 0xff, 0x01, 0x29, 0x21, 0x03, 0x01,
  0xff, 0xff, 0xff, 0xff, 0x00, 0x00, 0x00, 0x01, 0xe8, 0x02, 0x32, 0x2d,
  0x00, 0xde, 0xe6, 0x4d, 0x20, 0xd3, 0xfe, 0x28, 0x31, 0x2d, 0xff, 0x20,
  0xff, 0x00, 0x00, 0x20, 0x20, 0xfe, 0xff, 0x00, 0x00, 0x00, 0x00, 0x00,
  0x21, 0x40, 0x7f, 0x41, 0x00, 0xe1, 0x00, 0x60, 0x4d, 0x14, 0x18, 0xff,
  0x18, 0x22, 0x21, 0xff, 0x21, 0x33, 0xff, 0x29, 0x1f, 0x22, 0xff, 0xff,
  0xe7, 0x00, 0x00, 0x00, 0x23, 0x3c, 0x33, 0x43, 0x00, 0xd2, 0x00, 0x39,
  0xfe, 0x18, 0x17, 0x1a, 0xff, 0xff, 0x1c, 0x1c, 0x3c, 0x1d, 0xfe, 0x2b,
  0x33, 0x35, 0xfe, 0xfe, 0xff, 0x3f, 0x1e, 0x01, 0x04, 0x66, 0x68, 0x17,
  0x00, 0x00, 0xfe, 0x03, 0xff, 0xff, 0x29, 0xfe, 0x21, 0x1a, 0x36, 0x26,
  0xff, 0xfe, 0xfe, 0xfe, 0x24, 0x1b, 0x25, 0xff, 0x00, 0x1e, 0x1d, 0x03,
  0xd8, 0x3c, 0x00, 0x00, 0x00, 0x00, 0xfe, 0x01, 0x26, 0x00, 0x24, 0x00,
  0x01, 0x01, 0x01, 0x01, 0x00, 0x00, 0x00, 0x1d, 0x33, 0x19, 0x21, 0x2a,
  0x1a, 0x25, 0x27, 0x26, 0x03, 0x02, 0xe9, 0x42, 0x00, 0xd8, 0x02, 0x1b,
  0x1d, 0x01, 0x01, 0x02, 0x03, 0xe0, 0x02, 0x02, 0xd1, 0xd8, 0x00, 0x31,
  0x2d, 0x1c, 0x26, 0x24, 0xff, 0x00, 0x35, 0x5a, 0x2d, 0x01, 0x5f, 0x2b,
  0x00, 0xdc, 0x02, 0x03, 0x01, 0x01, 0x02, 0x03, 0xea, 0x03, 0xde, 0x02,
  0xd7, 0xbc, 0xcc, 0xe1, 0x00, 0x00, 0x17, 0xff, 0xff, 0xff, 0x00, 0x28,
  0x3b, 0x02, 0x66, 0x00, 0x00, 0x18, 0xe4, 0x02, 0x1a, 0x00, 0x01, 0x02,
  0x03, 0xe2, 0xeb, 0xe3, 0xe7, 0xe0, 0xd8, 0xc4, 0xcd, 0xdb, 0xff, 0xfe,
  0xfe, 0x1d, 0x19, 0x00, 0x03, 0xe9, 0xce, 0x00, 0x00, 0x00, 0x00, 0x00,
  0x03, 0x02, 0x01, 0x03, 0xda, 0xd9, 0x01, 0x00, 0x00, 0x00, 0xd7, 0xd5,
  0xd3, 0xc9, 0xe0, 0xe0, 0xfe, 0xfe, 0xff, 0xe1, 0x23, 0xe1, 0xd4, 0x00,
  0x00, 0x00, 0x1a, 0x00, 0x02, 0xd0, 0xc0, 0x01, 0xda, 0x00, 0xff, 0xff,
  0xdd, 0xfe, 0xfe, 0xd7, 0xfe, 0xc2, 0xd5, 0xe2, 0xe1, 0xfe, 0xff, 0xe4,
  0x32, 0x00, 0xdf, 0x00, 0x00, 0x00, 0x00, 0xdf, 0xe4, 0xda, 0xd7, 0x02,
  0xec, 0x02, 0xff, 0xfe, 0xe7, 0xde, 0xfd, 0xdf, 0xe6, 0xc1, 0xe7, 0xfd,
  0xfe, 0x19, 0xe3, 0xd2, 0xaf, 0x26, 0x17, 0x00, 0x00, 0x00, 0x32, 0xde,
  0x02, 0x1e, 0x4c, 0x3c, 0x03, 0xeb, 0xfe, 0xfe, 0xfe, 0xfd, 0x1f, 0xfe,
  0xff, 0xdc, 0xfe, 0xfe, 0xfe, 0xfe, 0xff, 0xe1, 0xaa, 0x00, 0x1d, 0x00,
  0x00, 0x00, 0x00, 0x17, 0x00, 0x23, 0x66, 0x42, 0x63, 0x43, 0x30, 0x28,
  0x2b, 0xff, 0x31, 0x1d, 0x01, 0x2a, 0x34, 0x22, 0x27, 0x00, 0xe1, 0x25,
  0x21, 0x00, 0x00, 0x00, 0x00, 0x00, 0x00, 0x00, 0x00, 0x00, 0x00, 0x00,
  0x00, 0x1c, 0x36, 0x00, 0x2f, 0x27, 0x2c, 0x19, 0x25, 0x15, 0x1e, 0x38,
  0x2f, 0xda, 0x00, 0x00, 0x00, 0x00, 0x00, 0x00, 0x00, 0x00, 0x00, 0x00,
  0x00, 0x00, 0x00, 0x00, 0x00, 0x00, 0x00, 0x00, 0x00, 0x00, 0x00, 0x00,
  0x00, 0x00, 0x00, 0x00, 0x00, 0x00, 0x00, 0x00, 0x00, 0x00, 0x00, 0x00,
  0x00, 0x00, 0x00, 0x00, 0x00, 0x00, 0x00, 0x00, 0x00, 0x00, 0x00, 0x00,
  0x00, 0x00, 0x00, 0x00, 0x00, 0x00, 0x00, 0x00, 0x00, 0x00, 0x00, 0x00,
  0x00, 0x00, 0x00, 0x00, 0x00, 0x00, 0x00, 0x00, 0x00, 0x00, 0x00, 0x00,
  0x00, 0x00, 0x00, 0x00, 0xee, 0x01, 0x01, 0x1d, 0xff, 0xff, 0xff, 0x26,
  0x1f, 0x22, 0x1c, 0x21, 0x00, 0x00, 0x00, 0x00, 0x00, 0x00, 0x00, 0x00,
  0x00, 0x00, 0x00, 0x00, 0xdb, 0x18, 0x1b, 0x00, 0x01, 0x30, 0x35, 0x1e,
  0x01, 0x00, 0x25, 0x3a, 0x01, 0xed, 0xe7, 0x00, 0x15, 0x00, 0x00, 0x00,
  0x00, 0x00, 0xde, 0xea, 0xc0, 0xc8, 0x01, 0x18, 0x01, 0x02, 0x02, 0x02,
  0x01, 0x10, 0xff, 0xff, 0xff, 0xff, 0x13, 0x01, 0xef, 0xe0, 0x02, 0x16,
  0x00, 0xe2, 0x1c, 0x00, 0x00, 0x00, 0xe5, 0x00, 0xe0, 0xba, 0x01, 0xec,
  0x02, 0x02, 0x00, 0xff, 0xfe, 0x18, 0xfe, 0xfe, 0xfe, 0xfe, 0xfe, 0xff,
  0xee, 0x01, 0x02, 0x02, 0x02, 0xed, 0x00, 0x00, 0x00, 0x00, 0x14, 0xe2,
  0xdd, 0xce, 0x01, 0x00, 0x00, 0x00, 0x13, 0xfe, 0x11, 0x0f, 0x12, 0xff,
  0xff, 0xfe, 0xff, 0x00, 0xff, 0x00, 0x02, 0x01, 0x01, 0xde, 0xe3, 0x00,
  0x00, 0x00, 0x00, 0xea, 0xed, 0x24, 0x00, 0x1b, 0x00, 0xff, 0x11, 0x11,
  0xff, 0x14, 0x00, 0x01, 0x01, 0x00, 0x00, 0x11, 0x14, 0x1e, 0x00, 0xef,
  0xe5, 0xda, 0x01, 0x00, 0x00, 0x00, 0xcb, 0x01, 0xff, 0xff, 0xff, 0xfe,
  0xff, 0x00, 0xff, 0x15, 0xff, 0x00, 0x01, 0x01, 0x19, 0x14, 0xff, 0xff,
  0x10, 0xff, 0xff, 0xfd, 0xfe, 0xff, 0xe4, 0xec, 0x00, 0x00, 0x00, 0xd9,
  0xfe, 0xff, 0xfe, 0xff, 0x00, 0x00, 0xff, 0xff, 0x15, 0x15, 0x01, 0x02,
  0x00, 0xff, 0xfe, 0xfe, 0xfe, 0xfe, 0xfe, 0xfe, 0xfe, 0xff, 0x00, 0x18,
  0x00, 0xe8, 0x11, 0xef, 0x00, 0xff, 0xfe, 0xfe, 0x00, 0xff, 0xff, 0xfe,
  0xff, 0xe8, 0xe2, 0x01, 0xec, 0xe8, 0xfe, 0xe2, 0xed, 0xfe, 0xfe, 0xfd,
  0x12, 0xef, 0x15, 0x24, 0xef, 0xed, 0xdd, 0xeb, 0x01, 0xff, 0xfe, 0xff,
  0xee, 0xfe, 0xfe, 0xfd, 0xe0, 0xc3, 0xc3, 0xdf, 0xff, 0xfe, 0xfe, 0xe9,
  0xfe, 0xfe, 0xec, 0x14, 0x0f, 0xe7, 0x00, 0x00, 0x00, 0xe4, 0x12, 0x00,
  0x01, 0x00, 0xff, 0xe6, 0xfe, 0xfe, 0xff, 0xff, 0xd9, 0xcd, 0xdd, 0x00,
  0x00, 0x00, 0x00, 0xde, 0xfe, 0xfe, 0xec, 0xfd, 0xfe, 0xe0, 0xee, 0xec,
  0x00, 0x00, 0xdb, 0x11, 0x17, 0xff, 0xff, 0xff, 0xfe, 0xfe, 0xff, 0xec,
  0xdb, 0xeb, 0x01, 0x01, 0xea, 0xec, 0x01, 0x00, 0xe9, 0xfe, 0xfe, 0xfe,
  0xfe, 0xef, 0xe7, 0x00, 0x15, 0xe5, 0xde, 0xff, 0x1c, 0xfe, 0xfe, 0xfe,
  0xfe, 0xfe, 0x00, 0xec, 0xee, 0xe3, 0x00, 0x01, 0x01, 0xeb, 0x01, 0xec,
  0x00, 0x00, 0xff, 0xfe, 0xfe, 0x00, 0x00, 0x15, 0x18, 0x00, 0xb9, 0xff,
  0x1c, 0x0f, 0xfd, 0xfe, 0xfe, 0xfe, 0xff, 0xff, 0xff, 0xff, 0xff, 0x00,
  0xef, 0xdf, 0x00, 0x00, 0xff, 0x16, 0x01, 0xfe, 0xfe, 0x00, 0x1f, 0x11,
  0x00, 0x00, 0xd4, 0xeb, 0x12, 0x15, 0xfd, 0xfe, 0xfe, 0xfe, 0xfe, 0xff,
  0xfe, 0xfe, 0xff, 0x00, 0xee, 0xda, 0x00, 0xff, 0xff, 0x01, 0x02, 0xff,
  0xfe, 0xef, 0x00, 0x00, 0x00, 0xe9, 0xcb, 0x01, 0x01, 0xfe, 0xfd, 0xfe,
  0xfe, 0xfe, 0xfd, 0xfd, 0xfe, 0xff, 0x00, 0xe0, 0xda, 0xeb, 0x00, 0xff,
  0xff, 0x00, 0x01, 0x00, 0xe3, 0x00, 0xde, 0xe9, 0x00, 0x00, 0xc9, 0xff,
  0x00, 0xff, 0xfe, 0xfe, 0xed, 0xfd, 0xfd, 0xe9, 0xed, 0xd2, 0xd0, 0xcb,
  0xd7, 0x00, 0x00, 0xff, 0xfe, 0x00, 0x00, 0xff, 0xfe, 0x00, 0x00, 0xe8,
  0x00, 0xe7, 0x29, 0xef, 0x15, 0xec, 0xfe, 0xff, 0xff, 0xfe, 0xfd, 0xfd,
  0xeb, 0xd2, 0xc6, 0xe2, 0x01, 0x01, 0xff, 0xfe, 0x11, 0x00, 0x00, 0xe6,
  0xfd, 0x00, 0x00, 0xed, 0x00, 0xee, 0x22, 0x21, 0xff, 0x14, 0xff, 0xff,
  0xff, 0xfe, 0xfd, 0xfe, 0xff, 0x02, 0x02, 0x03, 0x14, 0x00, 0xff, 0xfe,
  0xfe, 0xff, 0xff, 0xec, 0xeb, 0xf0, 0x2a, 0x00, 0x00, 0x00, 0x00, 0x23,
  0x17, 0x00, 0x01, 0xeb, 0x00, 0xff, 0xff, 0x10, 0xff, 0x01, 0x28, 0x2e,
  0x19, 0xff, 0xfe, 0xfe, 0x13, 0xff, 0xec, 0x19, 0x02, 0x01, 0x1b, 0x00,
  0x00, 0xef, 0x1e, 0x14, 0x01, 0x15, 0x01, 0x01, 0x01, 0x00, 0x00, 0x17,
  0x11, 0x1c, 0x25, 0x19, 0x23, 0x16, 0x16, 0x14, 0xfe, 0xff, 0x19, 0x32,
  0x02, 0xe2, 0x00, 0x00, 0x00, 0x00, 0x18, 0x17, 0x02, 0x19, 0x1a, 0x02,
  0x12, 0x02, 0x01, 0x00, 0x1c, 0x1d, 0x1c, 0x25, 0x1b, 0x36, 0x12, 0x2e,
  0x21, 0xff, 0x29, 0x01, 0x01, 0xe0, 0x00, 0x00, 0x00, 0x00, 0xd6, 0x01,
  0x02, 0x20, 0x21, 0x2f, 0x19, 0x1d, 0x16, 0x00, 0x1a, 0x23, 0x2b, 0x24,
  0x17, 0x31, 0x2b, 0xfe, 0x23, 0xff, 0x00, 0xef, 0x21, 0x11, 0x00, 0x00,
  0x00, 0x00, 0x2a, 0x01, 0x01, 0x01, 0x18, 0x01, 0x21, 0x01, 0x01, 0x00,
  0x00, 0xff, 0xff, 0xec, 0xe7, 0xff, 0xeb, 0x0f, 0x12, 0xe4, 0x1a, 0x19,
  0x1e, 0x00, 0x00, 0x00, 0x00, 0x00, 0x00, 0x00, 0x00, 0x00, 0x00, 0xd7,
  0xcf, 0xd0, 0x01, 0xd0, 0xaf, 0xbd, 0xb2, 0x8f, 0x81, 0x9e, 0xbd, 0xca,
  0xd7, 0xc8, 0xe7, 0x00, 0x00, 0x00, 0x00, 0x00, 0x00, 0x00, 0x00, 0x00,
  0x00, 0x00, 0x00, 0x00, 0x00, 0xe1, 0xe8, 0xdc, 0xd5, 0xd6, 0xee, 0x00,
  0x00, 0x00, 0x00, 0x00, 0x00, 0xeb, 0x00, 0x00, 0x00, 0x00, 0x00, 0x00,
  0x00, 0x00, 0x00, 0x00, 0x00, 0x00, 0x00, 0x00, 0x00, 0x00, 0x00, 0x00,
  0x00, 0x00, 0x00, 0x00, 0x00, 0x00, 0x00, 0x00, 0x00, 0x00, 0x00, 0x00,
  0x00, 0x00, 0x00, 0x00, 0x00, 0x00, 0x00, 0x00, 0x00, 0x00, 0x21, 0x1d,
  0x00, 0x1b, 0x33, 0x2e, 0x38, 0x41, 0x2d, 0x18, 0x02, 0x37, 0x46, 0x24,
  0x29, 0x1d, 0x2a, 0x1e, 0x00, 0x00, 0x00, 0x00, 0x00, 0x00, 0x00, 0x16,
  0x19, 0x1b, 0x1b, 0x27, 0x26, 0x00, 0x18, 0x22, 0xff, 0x1c, 0x14, 0x01,
  0x21, 0x18, 0x1b, 0x23, 0x02, 0x01, 0x1f, 0x45, 0x00, 0x00, 0x00, 0x00,
  0x00, 0x00, 0x00, 0x2b, 0x38, 0x1a, 0x1f, 0x01, 0x1e, 0x20, 0x01, 0xe2,
  0xe8, 0x16, 0x15, 0x02, 0x02, 0x02, 0x26, 0x1e, 0x27, 0x1a, 0x13, 0x1b,
  0x2e, 0x1c, 0x16, 0x00, 0x00, 0xed, 0x00, 0x14, 0x1f, 0x00, 0x00, 0x02,
  0x03, 0x02, 0x03, 0x17, 0x03, 0x02, 0x02, 0x20, 0x14, 0x01, 0x16, 0x01,
  0x01, 0x15, 0x01, 0x33, 0x44, 0x34, 0x31, 0x00, 0x00, 0x00, 0x26, 0x21,
  0xfe, 0xff, 0x00, 0xe8, 0x01, 0x02, 0x1d, 0x19, 0x03, 0x03, 0x02, 0x02,
  0x02, 0x1a, 0x1d, 0x01, 0x19, 0x1a, 0x1b, 0x02, 0x31, 0x1f, 0x1f, 0x00,
  0x00, 0x00, 0x00, 0xfe, 0xfe, 0xfe, 0x00, 0x00, 0x01, 0x02, 0x02, 0x1d,
  0x17, 0x03, 0x18, 0x03, 0x15, 0x14, 0x24, 0x1c, 0x2c, 0x30, 0x14, 0x01,
  0x51, 0x41, 0x00, 0x00, 0x00, 0xea, 0x00, 0xd2, 0xdb, 0xff, 0x00, 0xff,
  0x16, 0x03, 0x1f, 0x17, 0x02, 0x02, 0x03, 0x03, 0x03, 0x03, 0x03, 0x03,
  0x03, 0x02, 0x00, 0x00, 0x02, 0x31, 0x1f, 0x00, 0x00, 0x00, 0xd6, 0xba,
  0xd1, 0x00, 0x00, 0xff, 0x03, 0x04, 0x03, 0x18, 0x01, 0x02, 0x03, 0x03,
  0xd5, 0xd1, 0xb6, 0xab, 0x9f, 0x99, 0xab, 0xc4, 0xe2, 0xdc, 0x01, 0x00,
  0x00, 0x00, 0xdb, 0xa7, 0x01, 0x01, 0xff, 0xff, 0x02, 0x03, 0x03, 0x01,
  0x01, 0xd7, 0xdc, 0xd2, 0xc1, 0xb3, 0xc3, 0x9c, 0x91, 0x81, 0x81, 0xa5,
  0xe0, 0xad, 0xd1, 0x00, 0x00, 0x00, 0xc3, 0xb3, 0x01, 0x00, 0xff, 0x00,
  0x02, 0x02, 0x02, 0x01, 0xe0, 0xd6, 0xd8, 0xee, 0xff, 0x00, 0x00, 0x01,
  0xee, 0xdd, 0xb2, 0xc3, 0xe0, 0xcd, 0xdd, 0x00, 0x00, 0x00, 0xc7, 0xa5,
  0xdf, 0x01, 0x1e, 0x00, 0x02, 0x03, 0x02, 0x02, 0x02, 0x02, 0x01, 0x13,
  0xff, 0x20, 0x17, 0x1e, 0x22, 0x02, 0xdd, 0x01, 0x24, 0xcc, 0xdf, 0x15,
  0x00, 0x00, 0xcd, 0xa1, 0xc0, 0x01, 0x21, 0x01, 0x02, 0x02, 0x02, 0x03,
  0x03, 0x03, 0x03, 0x03, 0x03, 0x1a, 0x03, 0x03, 0x02, 0x02, 0xec, 0x01,
  0x13, 0xcf, 0x00, 0x00, 0x00, 0x00, 0xd0, 0xb2, 0xa5, 0xe8, 0x01, 0x18,
  0x02, 0x03, 0x03, 0x03, 0x03, 0x02, 0x02, 0x03, 0x04, 0x04, 0x03, 0x03,
  0x02, 0x02, 0x01, 0x00, 0x14, 0xd9, 0x00, 0x00, 0x00, 0xe3, 0x00, 0xd7,
  0xde, 0xed, 0x01, 0x13, 0x01, 0x02, 0x03, 0x03, 0x02, 0x01, 0x02, 0x02,
  0x03, 0x03, 0x03, 0x03, 0x02, 0x02, 0x01, 0xfe, 0x00, 0x01, 0xe3, 0x00,
  0x12, 0xe9, 0xce, 0x00, 0x02, 0x01, 0x01, 0x01, 0x01, 0x02, 0x03, 0x02,
  0x01, 0x01, 0x01, 0x02, 0x03, 0x03, 0x03, 0x03, 0x03, 0x03, 0x02, 0x01,
  0x00, 0x39, 0xe1, 0xd8, 0x00, 0x00, 0xe5, 0x00, 0x01, 0xe7, 0xee, 0xec,
  0x01, 0x02, 0xea, 0x02, 0x02, 0x02, 0x02, 0x02, 0x16, 0x03, 0x17, 0x02,
  0x03, 0x03, 0x02, 0xe5, 0xd9, 0x24, 0xe2, 0x00, 0x00, 0x00, 0xc1, 0x14,
  0xd9, 0xea, 0x02, 0xec, 0x02, 0x02, 0x02, 0x02, 0x02, 0x02, 0x02, 0x02,
  0x03, 0x04, 0x03, 0x02, 0x1e, 0x02, 0x01, 0xff, 0xfc, 0xff, 0xdd, 0x00,
  0x00, 0x00, 0xba, 0x00, 0x01, 0x02, 0x02, 0xec, 0x02, 0x02, 0x01, 0x02,
  0x02, 0x02, 0x02, 0x02, 0x03, 0x03, 0x03, 0x02, 0x01, 0x01, 0x00, 0xff,
  0xfc, 0x20, 0xc1, 0xd0, 0x00, 0xdc, 0xff, 0x1b, 0x24, 0xe6, 0x02, 0x03,
  0x02, 0x02, 0x01, 0x02, 0x15, 0x02, 0x02, 0x02, 0x03, 0x03, 0x03, 0x02,
  0x01, 0x01, 0x00, 0x00, 0x1a, 0x2b, 0xc2, 0xd8, 0x00, 0x00, 0xfe, 0x23,
  0x30, 0xff, 0xeb, 0x01, 0x02, 0x17, 0x02, 0x02, 0x03, 0x03, 0x02, 0x16,
  0x03, 0x03, 0x1a, 0x01, 0x01, 0x01, 0x01, 0xff, 0x1d, 0x36, 0xbc, 0x00,
  0x00, 0xec, 0xfe, 0x00, 0x14, 0x29, 0x01, 0x01, 0x02, 0x03, 0x03, 0x03,
  0x02, 0x02, 0x02, 0x02, 0x02, 0x02, 0x02, 0x01, 0x01, 0x01, 0x00, 0xfe,
  0x24, 0x26, 0xd7, 0x00, 0x00, 0x00, 0xff, 0x1d, 0x02, 0x02, 0x01, 0x01,
  0x01, 0x02, 0x03, 0x02, 0x02, 0xe7, 0x01, 0x00, 0x01, 0x02, 0x02, 0x01,
  0x01, 0x02, 0x01, 0x01, 0x02, 0x00, 0x17, 0x00, 0x00, 0x00, 0x00, 0xff,
  0x02, 0x02, 0x01, 0xdc, 0x03, 0x03, 0x02, 0xed, 0x02, 0xe9, 0x00, 0x01,
  0x02, 0x03, 0x02, 0x01, 0x13, 0x02, 0x24, 0x20, 0x01, 0x00, 0x15, 0x00,
  0x00, 0x00, 0x00, 0xff, 0xed, 0x01, 0x02, 0x02, 0x03, 0x02, 0x01, 0x01,
  0x01, 0xe7, 0x02, 0x02, 0x03, 0x03, 0x03, 0x00, 0x01, 0x01, 0x19, 0x30,
  0x29, 0x00, 0x00, 0x00, 0x00, 0x00, 0x00, 0x00, 0x00, 0xed, 0x17, 0x27,
  0x2c, 0x39, 0x14, 0x01, 0x01, 0x02, 0x17, 0x17, 0x02, 0x19, 0x22, 0x1c,
  0x01, 0x18, 0x1e, 0x39, 0x50, 0x00, 0x00, 0x00, 0x00, 0x00, 0x00, 0x00,
  0x00, 0x12, 0x00, 0x18, 0x1e, 0x1e, 0x00, 0xe4, 0x15, 0x2f, 0x20, 0x02,
  0x00, 0x00, 0x16, 0xfe, 0x00, 0x00, 0x00, 0x25, 0x00, 0x00, 0x00, 0x00,
  0x00, 0x00, 0x00, 0x00, 0x00, 0x00, 0x00, 0x00, 0x00, 0x00, 0xec, 0xe1,
  0xd1, 0xd5, 0xdb, 0x00, 0x1f, 0x02, 0x23, 0x28, 0xdf, 0xca, 0xdb, 0x00,
  0x00, 0x00, 0x00, 0x00, 0x00, 0x00, 0x00, 0x00, 0x00, 0x00, 0x00, 0x00,
  0x00, 0x00, 0x00, 0x00, 0x00, 0x00, 0x00, 0x00, 0x00, 0x00, 0x00, 0x00,
  0x00, 0x00, 0x00, 0x00, 0x00, 0x00, 0x00, 0x00, 0x00, 0x00, 0x00, 0x00,
  0x00, 0x00, 0x00, 0x19, 0x00, 0x00, 0xff, 0xff, 0x00, 0x24, 0xff, 0x19,
  0x20, 0x01, 0x37, 0x29, 0x16, 0x24, 0x1f, 0x16, 0x00, 0x00, 0x00, 0x00,
  0x00, 0x00, 0x15, 0x00, 0xe8, 0xe1, 0xe6, 0xe9, 0x00, 0x00, 0x21, 0xff,
  0xae, 0xb1, 0xe2, 0xff, 0xe0, 0xec, 0xe9, 0xd8, 0xe6, 0xff, 0xff, 0x28,
  0x2c, 0x21, 0x00, 0x00, 0x00, 0x00, 0x00, 0x00, 0xed, 0x00, 0x17, 0x21,
  0x1b, 0xdf, 0xc6, 0xcc, 0xd4, 0xe6, 0xcb, 0xc0, 0xd7, 0xe6, 0xff, 0xff,
  0x3b, 0x37, 0x24, 0x29, 0x19, 0x1b, 0x00, 0x00, 0x00, 0x00, 0x00, 0xd7,
  0xfe, 0xff, 0x27, 0xff, 0x01, 0x01, 0xec, 0x00, 0x02, 0xdb, 0xb2, 0x94,
  0x8d, 0xc4, 0xff, 0xff, 0xff, 0xff, 0xd1, 0x26, 0x00, 0x22, 0x00, 0x00,
  0x00, 0x00, 0x17, 0x00, 0x5e, 0x01, 0x15, 0x00, 0x03, 0xec, 0x00, 0x1c,
  0x02, 0x01, 0xc3, 0xd8, 0xb2, 0xc3, 0xff, 0xff, 0xfe, 0xd0, 0xcd, 0xe0,
  0x00, 0x00, 0x00, 0x00, 0x00, 0x00, 0x00, 0x32, 0x20, 0xd5, 0x12, 0xff,
  0x00, 0x00, 0x00, 0x14, 0x01, 0x01, 0xe9, 0xde, 0xe0, 0xb1, 0xc7, 0xc9,
  0xd8, 0xb7, 0xba, 0xbf, 0x00, 0x17, 0xe4, 0x2a, 0x00, 0x00, 0xfe, 0x01,
  0x21, 0xd5, 0xfe, 0x19, 0x19, 0xff, 0x16, 0x15, 0x02, 0x23, 0x02, 0xe3,
  0xd5, 0xc1, 0xa7, 0x81, 0xad, 0xa2, 0x90, 0xcf, 0x1b, 0x01, 0xe3, 0x01,
  0x00, 0x22, 0xe2, 0xd4, 0x00, 0xfd, 0xfd, 0xff, 0xff, 0xff, 0x29, 0x01,
  0x1a, 0x32, 0x1f, 0x02, 0x00, 0xff, 0xc9, 0xe3, 0xd5, 0xcb, 0xc2, 0xe7,
  0x00, 0xd3, 0x2b, 0x22, 0x00, 0x00, 0x9a, 0xcc, 0x28, 0x2c, 0xeb, 0x01,
  0xee, 0x00, 0x00, 0x15, 0x1e, 0x1e, 0x29, 0x02, 0xe4, 0xec, 0xd6, 0xc9,
  0xe3, 0xfe, 0xe2, 0xd7, 0xfe, 0xfe, 0x20, 0x3b, 0x00, 0xdd, 0xdb, 0x00,
  0x1c, 0x1f, 0x02, 0x03, 0x17, 0x01, 0x01, 0x1d, 0x16, 0x2a, 0x17, 0x04,
  0x00, 0x00, 0xeb, 0xe0, 0x01, 0xff, 0xfe, 0xe3, 0xfe, 0xb5, 0x00, 0x2b,
  0x00, 0xcf, 0x2c, 0x35, 0x30, 0x2d, 0x02, 0x02, 0x01, 0xff, 0x00, 0x01,
  0x01, 0x26, 0x19, 0xee, 0xff, 0x00, 0xff, 0x00, 0xef, 0xdc, 0xdb, 0xdc,
  0xc2, 0xd3, 0xe4, 0x00, 0x00, 0x00, 0x34, 0x2a, 0x33, 0x3d, 0x16, 0x01,
  0x02, 0x00, 0xdd, 0xeb, 0x00, 0x2d, 0x2a, 0x00, 0x17, 0x18, 0x12, 0xff,
  0xe8, 0xff, 0xec, 0xfd, 0x1d, 0xff, 0x00, 0x2f, 0x00, 0x00, 0x32, 0x1d,
  0x22, 0x1d, 0xff, 0x01, 0xec, 0xff, 0xfe, 0xff, 0x00, 0x02, 0x02, 0x00,
  0xff, 0xfe, 0xfe, 0xe3, 0x00, 0xfe, 0xff, 0xfd, 0x28, 0xff, 0x1b, 0x1b,
  0x00, 0x00, 0x2c, 0x00, 0xdb, 0xc6, 0xd4, 0x00, 0x01, 0xff, 0x19, 0xfe,
  0x00, 0x02, 0x02, 0x00, 0xfe, 0xe8, 0xff, 0xff, 0xff, 0x14, 0xfe, 0x2e,
  0x17, 0xff, 0x3d, 0x31, 0x00, 0x00, 0x00, 0x00, 0xac, 0xfe, 0xfd, 0xe7,
  0x00, 0x1a, 0xfe, 0xe8, 0xff, 0x23, 0x1d, 0xfe, 0xfe, 0xff, 0xfe, 0x21,
  0x28, 0x19, 0xfd, 0xfd, 0x15, 0x14, 0xe8, 0x26, 0x00, 0x16, 0x00, 0x00,
  0xdc, 0xfe, 0xfe, 0x00, 0x00, 0xff, 0xfe, 0xfe, 0xff, 0x01, 0x26, 0xfe,
  0xff, 0x00, 0xff, 0x27, 0x26, 0x23, 0x17, 0x1d, 0x15, 0x01, 0x1b, 0x2c,
  0x00, 0x00, 0x00, 0x20, 0x00, 0xfe, 0xfe, 0xfe, 0xff, 0xff, 0xfe, 0xfe,
  0x00, 0x01, 0x15, 0xff, 0xe8, 0x01, 0x00, 0x01, 0x1f, 0x13, 0x00, 0x1a,
  0x01, 0x01, 0xe8, 0x33, 0x00, 0x00, 0x1a, 0x28, 0xfe, 0xfe, 0xff, 0xfe,
  0xfe, 0xfd, 0xfe, 0xff, 0x02, 0x02, 0x02, 0x01, 0x01, 0x1c, 0x00, 0x1a,
  0xff, 0x00, 0x22, 0x01, 0x1d, 0x1c, 0x36, 0x33, 0x00, 0x35, 0xeb, 0x17,
  0xfe, 0xde, 0xd5, 0xff, 0xec, 0xff, 0xff, 0xff, 0x00, 0x00, 0x00, 0x00,
  0x16, 0x02, 0x01, 0x01, 0x00, 0x00, 0x17, 0x01, 0x02, 0xe1, 0x46, 0x16,
  0x00, 0x00, 0x00, 0xe8, 0x00, 0x01, 0x00, 0x00, 0xff, 0xff, 0xff, 0xff,
  0xff, 0x00, 0x00, 0x01, 0x02, 0x01, 0x01, 0x00, 0x00, 0xff, 0xfe, 0xed,
  0xff, 0xca, 0x5a, 0x00, 0x00, 0x19, 0x20, 0x00, 0x19, 0x00, 0xdd, 0xff,
  0x00, 0x01, 0x01, 0xff, 0xff, 0x00, 0xe0, 0x02, 0x02, 0x02, 0x00, 0x00,
  0x00, 0xd4, 0xc0, 0xe7, 0xb9, 0xbf, 0x3e, 0x00, 0x00, 0x00, 0x00, 0x00,
  0x38, 0xdf, 0xd1, 0xcc, 0x00, 0x01, 0xeb, 0xe7, 0xff, 0x00, 0xe0, 0x03,
  0x03, 0x02, 0xed, 0xea, 0x01, 0xcc, 0xe2, 0xd1, 0xc8, 0x00, 0x00, 0x00,
  0x00, 0x00, 0x00, 0x14, 0x1b, 0x15, 0x00, 0xdc, 0xff, 0x01, 0x01, 0xff,
  0xe9, 0x00, 0x00, 0x02, 0x02, 0x01, 0x00, 0xda, 0xee, 0x02, 0xed, 0xd2,
  0x00, 0x00, 0x00, 0x00, 0x00, 0x00, 0x00, 0x00, 0x27, 0x4d, 0x3e, 0xff,
  0xe1, 0x00, 0x01, 0x01, 0xe5, 0xe2, 0x01, 0x02, 0xd6, 0x01, 0x00, 0x00,
  0x01, 0x03, 0xd3, 0xe6, 0xe6, 0x1b, 0x1d, 0x00, 0x00, 0x00, 0x00, 0x00,
  0x26, 0x40, 0x31, 0x2f, 0x45, 0xff, 0x01, 0xd7, 0x01, 0x01, 0x01, 0x02,
  0x04, 0x02, 0xeb, 0x01, 0xdf, 0xce, 0xd2, 0xd2, 0xe5, 0x00, 0x00, 0x00,
  0x00, 0x00, 0x00, 0x00, 0x00, 0x22, 0x34, 0x1a, 0xd6, 0xdb, 0xe6, 0x01,
  0xff, 0xd5, 0x00, 0xe5, 0x03, 0xda, 0x01, 0x1c, 0x01, 0x01, 0x00, 0x23,
  0x1e, 0x00, 0x00, 0x00, 0x00, 0x00, 0x00, 0x00, 0x00, 0x2a, 0x29, 0x2f,
  0x17, 0x15, 0x23, 0x2f, 0x01, 0x02, 0x23, 0x02, 0x17, 0x1c, 0xeb, 0xe0,
  0x00, 0x20, 0x14, 0x14, 0x00, 0x00, 0x00, 0x00, 0x00, 0x00, 0x00, 0x00,
  0x00, 0x00, 0x00, 0x00, 0x00, 0x00, 0x00, 0x00, 0x00, 0x00, 0xe3, 0x00,
  0x00, 0x00, 0x00, 0x00, 0x00, 0x00, 0x00, 0x00, 0x00, 0x00, 0x00, 0x00,
  0x00, 0x00, 0x00, 0x00, 0x00, 0x00, 0x2f, 0x1f, 0x00, 0x1c, 0x4d, 0x2f,
  0x52, 0x45, 0xff, 0x00, 0x01, 0x23, 0x78, 0x49, 0x60, 0x33, 0x38, 0x2d,
  0x00, 0x00, 0x00, 0x00, 0x00, 0x00, 0x00, 0x4a, 0x40, 0x3f, 0x43, 0x5e,
  0x51, 0x00, 0x22, 0x33, 0xfd, 0x1d, 0xff, 0xfe, 0xfe, 0x00, 0x00, 0x32,
  0x28, 0xff, 0x54, 0x5e, 0x00, 0xdc, 0x00, 0x00, 0x00, 0x00, 0xe4, 0x43,
  0x58, 0x1b, 0x20, 0x1c, 0x4e, 0x6c, 0x2f, 0x3f, 0x2c, 0x2a, 0xfa, 0xfa,
  0xfc, 0xfd, 0xfe, 0x35, 0x32, 0x19, 0xff, 0x20, 0x00, 0x00, 0x46, 0x00,
  0x00, 0x00, 0x00, 0x00, 0x00, 0x51, 0x1f, 0x4b, 0x4a, 0x4b, 0x4d, 0xfe,
  0xfe, 0x1d, 0xfd, 0xfb, 0xfd, 0xff, 0xff, 0x1e, 0x1f, 0x3e, 0x22, 0x50,
  0x03, 0x00, 0x37, 0x44, 0x00, 0x00, 0x3d, 0x01, 0xfd, 0x34, 0x38, 0x23,
  0x20, 0xff, 0xfc, 0xd0, 0xbd, 0xdd, 0xff, 0xff, 0xff, 0x22, 0x01, 0x03,
  0x04, 0x2a, 0x04, 0x27, 0x36, 0x33, 0x46, 0x49, 0x00, 0x00, 0x21, 0xd3,
  0xfd, 0x18, 0x02, 0x20, 0x02, 0x02, 0xe2, 0xff, 0xda, 0xdf, 0xdf, 0x00,
  0x01, 0x02, 0x03, 0x05, 0x06, 0x07, 0x22, 0x04, 0x3c, 0x21, 0x78, 0x3e,
  0x00, 0xdf, 0x02, 0xb8, 0x24, 0x53, 0x03, 0x03, 0x04, 0x02, 0x1a, 0xff,
  0x01, 0x01, 0x00, 0x00, 0x01, 0x01, 0x03, 0x05, 0x06, 0x06, 0x06, 0x05,
  0x04, 0x31, 0x69, 0x4a, 0x4a, 0xa1, 0x02, 0x03, 0x02, 0x05, 0x05, 0x04,
  0xd9, 0x01, 0xff, 0x01, 0x1d, 0x28, 0x1e, 0xff, 0xff, 0x30, 0x02, 0x03,
  0x05, 0x06, 0xe9, 0x04, 0x32, 0x48, 0x2d, 0x31, 0xd3, 0xb0, 0xff, 0x01,
  0x02, 0xdf, 0xe9, 0x04, 0x03, 0x01, 0x00, 0x01, 0x01, 0x02, 0x00, 0xfd,
  0x2b, 0x00, 0x00, 0x02, 0x22, 0x05, 0xe7, 0xe8, 0x28, 0x2b, 0x03, 0xb7,
  0xc9, 0xd0, 0xfd, 0x01, 0x00, 0x02, 0xe7, 0x01, 0xff, 0x00, 0x00, 0x00,
  0x28, 0x35, 0x1f, 0x1b, 0xfe, 0x21, 0x00, 0x01, 0x02, 0x03, 0x05, 0x07,
  0x1c, 0x03, 0x2e, 0xc1, 0x00, 0x23, 0xcb, 0x1c, 0xff, 0x02, 0x03, 0xfe,
  0xe4, 0xe4, 0x01, 0x02, 0x03, 0x31, 0x00, 0xfe, 0xff, 0x00, 0x01, 0x00,
  0xff, 0x00, 0xde, 0x06, 0x02, 0xff, 0x2c, 0x00, 0xe5, 0xcf, 0xe6, 0xfe,
  0xfe, 0x02, 0x03, 0xfe, 0xfe, 0x00, 0x01, 0x30, 0x4b, 0x43, 0x22, 0x00,
  0x00, 0x00, 0xe3, 0xff, 0xff, 0x00, 0xe5, 0x06, 0x03, 0xfd, 0xe1, 0xc4,
  0x39, 0x00, 0x02, 0xff, 0xfe, 0x03, 0x23, 0x32, 0x1d, 0x1d, 0xff, 0x24,
  0x48, 0x26, 0x02, 0x32, 0x00, 0x00, 0x00, 0x21, 0xfe, 0x00, 0x02, 0x05,
  0x04, 0xd0, 0xd0, 0x00, 0x20, 0x00, 0xcb, 0x02, 0xff, 0x02, 0x25, 0x01,
  0x20, 0x25, 0x01, 0x01, 0x2e, 0x03, 0x23, 0x01, 0x01, 0x01, 0x01, 0x00,
  0x00, 0x01, 0x02, 0x04, 0x37, 0xfe, 0x81, 0xd0, 0x1b, 0x1b, 0x24, 0xbd,
  0x23, 0x28, 0x03, 0x02, 0x1d, 0x1b, 0x01, 0x03, 0x23, 0x03, 0x31, 0x00,
  0xff, 0x00, 0x02, 0x01, 0x01, 0x02, 0x01, 0x25, 0x2d, 0x1e, 0xfe, 0xb5,
  0x00, 0x00, 0x2f, 0xff, 0x27, 0x04, 0x04, 0x02, 0x00, 0xff, 0x01, 0x04,
  0x04, 0x01, 0x00, 0xff, 0xff, 0x00, 0x1e, 0x00, 0x02, 0x22, 0xff, 0xff,
  0x01, 0x27, 0xbb, 0x00, 0x00, 0x00, 0x2e, 0xff, 0x01, 0x05, 0x03, 0x01,
  0xff, 0x24, 0xff, 0x24, 0x00, 0xff, 0xfe, 0xfe, 0xff, 0x01, 0x01, 0xff,
  0x01, 0x23, 0x31, 0x23, 0xfe, 0xd8, 0xc9, 0x00, 0xb2, 0x1b, 0xfd, 0xfe,
  0x02, 0x30, 0x04, 0x02, 0x28, 0x33, 0xfe, 0xff, 0x25, 0xfe, 0xfd, 0xff,
  0x01, 0x01, 0x01, 0xff, 0xff, 0x00, 0xff, 0x34, 0xfd, 0x00, 0xb1, 0x00,
  0x00, 0xce, 0xfe, 0x35, 0x02, 0x04, 0x3c, 0x02, 0x2b, 0x30, 0x37, 0xfe,
  0x26, 0xfc, 0xfe, 0x01, 0x01, 0x00, 0xfe, 0xfe, 0x2b, 0x1a, 0x1f, 0x2a,
  0xfe, 0x2a, 0xc2, 0xe1, 0x00, 0x00, 0xfe, 0xfe, 0x02, 0x03, 0x21, 0x2b,
  0x02, 0x30, 0x27, 0xff, 0x19, 0xfe, 0x00, 0x01, 0x01, 0xfe, 0x37, 0xfe,
  0x2b, 0x00, 0x31, 0x00, 0xb8, 0xe1, 0xc9, 0x33, 0x00, 0x1d, 0xc4, 0xff,
  0x02, 0x04, 0x25, 0x24, 0x24, 0x2b, 0x00, 0x23, 0xff, 0xff, 0x00, 0x01,
  0xff, 0xfd, 0xff, 0x00, 0x01, 0x03, 0x20, 0xff, 0xc9, 0xfc, 0x19, 0x00,
  0x1b, 0x00, 0xcc, 0x01, 0x04, 0x03, 0x03, 0x02, 0x01, 0x02, 0x03, 0x22,
  0x02, 0x1c, 0x01, 0x00, 0xff, 0xfe, 0x02, 0x02, 0x01, 0x02, 0x03, 0xfe,
  0xb7, 0xfd, 0x3e, 0x00, 0x00, 0x00, 0x4d, 0x24, 0x04, 0x04, 0x03, 0x03,
  0x04, 0x04, 0x05, 0x05, 0x05, 0x04, 0x05, 0x04, 0x02, 0x01, 0x02, 0xff,
  0xfc, 0xfd, 0xd7, 0xfe, 0x8f, 0xd4, 0x51, 0x00, 0x00, 0x00, 0x00, 0x04,
  0xce, 0xd9, 0x00, 0x00, 0x02, 0x24, 0x04, 0x03, 0x03, 0x03, 0x03, 0x02,
  0x02, 0x02, 0x03, 0xfe, 0xfd, 0xd5, 0x01, 0x00, 0x00, 0x00, 0x00, 0x00,
  0x00, 0x00, 0x48, 0xe5, 0x02, 0x00, 0x00, 0x00, 0x00, 0x03, 0x01, 0x01,
  0xff, 0xfc, 0xfe, 0xfe, 0x00, 0x02, 0x26, 0x24, 0x03, 0xdc, 0x1f, 0x00,
  0x25, 0xe2, 0x00, 0x00, 0x00, 0x00, 0x00, 0xd9, 0x25, 0x35, 0xfd, 0xd7,
  0xc6, 0xaf, 0xd7, 0xde, 0xd1, 0xc3, 0xa9, 0xe3, 0x02, 0x02, 0xfc, 0xae,
  0xb7, 0xc3, 0xad, 0xe0, 0xd6, 0x00, 0x00, 0x00, 0x00, 0x00, 0x00, 0x00,
  0xc4, 0xc0, 0x97, 0xc8, 0xb0, 0xd5, 0xaf, 0xc8, 0x01, 0xb1, 0x83, 0xce,
  0xd2, 0x93, 0xbe, 0xb8, 0xcd, 0xb0, 0xbc, 0xba, 0x00, 0x00, 0x00, 0x00,
  0x00, 0x00, 0x00, 0x00, 0x00, 0x00, 0x00, 0x00, 0x00, 0x00, 0x00, 0x00,
  0x00, 0x00, 0x00, 0x00, 0x00, 0x00, 0x00, 0x00, 0x00, 0x00, 0x00, 0x00,
  0x00, 0x00, 0x00, 0x00, 0x00, 0x00, 0x00, 0x00, 0x00, 0x00, 0x00, 0x00,
  0x00, 0x00, 0x00, 0x00, 0x00, 0x00, 0x30, 0x2f, 0x33, 0x00, 0x00, 0x00,
  0x00, 0x00, 0x00, 0x00, 0x00, 0x00, 0x00, 0x00, 0x00, 0x00, 0x00, 0x00,
  0x00, 0x00, 0x00, 0x00, 0xcb, 0xd6, 0xa9, 0xd0, 0x00, 0x00, 0x00, 0x00,
  0x29, 0x20, 0x23, 0x2a, 0x00, 0xe0, 0x00, 0x1b, 0x00, 0x00, 0x00, 0x00,
  0x00, 0x00, 0x27, 0x00, 0x17, 0xe9, 0x2c, 0x30, 0xcb, 0x02, 0xd7, 0xd8,
  0x01, 0xe0, 0xd3, 0xfd, 0x01, 0x01, 0x01, 0xff, 0xff, 0xff, 0xe4, 0xda,
  0x00, 0x00, 0xd4, 0x00, 0x00, 0x00, 0x2b, 0x00, 0xe9, 0xd9, 0x01, 0x02,
  0xd0, 0xce, 0xdb, 0x00, 0xe5, 0xfb, 0xfb, 0xfd, 0xe7, 0x02, 0x02, 0x01,
  0x01, 0x02, 0x03, 0x01, 0xd6, 0x00, 0xe6, 0x00, 0x00, 0x00, 0x22, 0x00,
  0x01, 0x01, 0x1d, 0xe9, 0x98, 0xd0, 0xe1, 0xfd, 0x17, 0xfe, 0xfd, 0xfe,
  0x00, 0x01, 0x01, 0x02, 0x02, 0x03, 0x05, 0x04, 0xec, 0x04, 0xe7, 0x00,
  0x00, 0xd6, 0x30, 0x25, 0x4e, 0xdd, 0x01, 0xd5, 0xca, 0xca, 0xff, 0xff,
  0x15, 0x18, 0x19, 0xff, 0x00, 0x00, 0x01, 0x02, 0x1e, 0x03, 0x03, 0x03,
  0x32, 0x01, 0x01, 0x01, 0x00, 0xb3, 0x00, 0x35, 0x01, 0x01, 0xe5, 0xe8,
  0xea, 0x00, 0x00, 0xff, 0x19, 0xff, 0x00, 0x00, 0x00, 0x01, 0x01, 0x02,
  0x1a, 0x02, 0x02, 0x22, 0x02, 0x17, 0x01, 0x01, 0x00, 0xaf, 0xdd, 0x00,
  0xcc, 0xde, 0x01, 0x00, 0xe9, 0x01, 0x01, 0xff, 0xff, 0x16, 0x00, 0xff,
  0x01, 0x01, 0x01, 0x01, 0x02, 0x01, 0x01, 0x01, 0x38, 0x02, 0x01, 0x00,
  0xd1, 0xcc, 0xc1, 0xe1, 0xd2, 0xbe, 0x02, 0x02, 0x01, 0x02, 0x00, 0xff,
  0x00, 0x02, 0x01, 0xff, 0xe6, 0x00, 0x01, 0x01, 0x01, 0x00, 0x2f, 0x01,
  0x46, 0x1b, 0xc4, 0xd0, 0xe1, 0x01, 0xd0, 0xff, 0x00, 0xe1, 0xb7, 0x00,
  0x00, 0x00, 0x01, 0x01, 0x03, 0x05, 0x2d, 0xfe, 0x00, 0x00, 0xe2, 0x01,
  0x00, 0x01, 0x1a, 0x1e, 0x34, 0x39, 0x02, 0x00, 0xe5, 0x00, 0xfe, 0xfe,
  0xfe, 0x02, 0xa1, 0xe6, 0xff, 0xe7, 0xe9, 0x03, 0x03, 0x2a, 0x16, 0x17,
  0xff, 0x00, 0x01, 0xd9, 0xc8, 0x01, 0x00, 0xff, 0xff, 0x2c, 0x00, 0x20,
  0x00, 0x00, 0xea, 0xfe, 0xfe, 0xcc, 0xfe, 0xdf, 0xe4, 0x00, 0x1b, 0x03,
  0x1b, 0x31, 0x22, 0x1c, 0x01, 0x01, 0x02, 0xeb, 0x01, 0x00, 0xd9, 0xe9,
  0x01, 0x43, 0x2b, 0x00, 0x1a, 0x00, 0xc1, 0xe0, 0x02, 0xbf, 0xe7, 0xfe,
  0xff, 0x01, 0x02, 0x21, 0x22, 0x36, 0x47, 0x35, 0x02, 0x02, 0x02, 0x00,
  0x00, 0xde, 0xba, 0xde, 0xd0, 0x01, 0x00, 0x00, 0x1b, 0x00, 0x00, 0x00,
  0xd1, 0xfe, 0xbb, 0xd1, 0xdb, 0x00, 0x02, 0x02, 0x2c, 0x33, 0x31, 0x2e,
  0x03, 0x02, 0xe2, 0xe0, 0x00, 0xc3, 0xd1, 0xdc, 0xe3, 0x01, 0x1d, 0x00,
  0x16, 0x1d, 0x00, 0x02, 0x03, 0xff, 0xd2, 0xb2, 0xaa, 0xaf, 0xe8, 0x03,
  0x27, 0x24, 0x2f, 0x01, 0x03, 0x02, 0x00, 0xff, 0xd9, 0x02, 0x03, 0xe0,
  0xe0, 0x00, 0x02, 0x00, 0x00, 0xdf, 0xde, 0x1d, 0x28, 0x00, 0xfe, 0xc9,
  0x9f, 0x81, 0xa5, 0xe0, 0x02, 0x01, 0x1c, 0x00, 0x01, 0xe9, 0x00, 0xff,
  0xd1, 0x02, 0x03, 0xd1, 0x00, 0xce, 0x00, 0xd8, 0x00, 0x00, 0xd6, 0x25,
  0x33, 0x02, 0x02, 0x04, 0xc2, 0xc2, 0xaf, 0xbd, 0xc0, 0x01, 0x00, 0x17,
  0x00, 0x01, 0x00, 0xe7, 0xdb, 0x03, 0x1f, 0x04, 0x02, 0xd0, 0x00, 0xe5,
  0xd1, 0x00, 0xfe, 0x00, 0x01, 0xe3, 0x05, 0x03, 0x02, 0x03, 0xd8, 0xd8,
  0xd0, 0xe8, 0xff, 0xfe, 0xff, 0x01, 0x01, 0x01, 0xe2, 0x02, 0x03, 0xe6,
  0x01, 0x00, 0x00, 0x3d, 0x2d, 0xc4, 0xcc, 0xc1, 0x00, 0x01, 0x1c, 0x03,
  0x03, 0x03, 0x03, 0x02, 0xdf, 0xff, 0xfe, 0xfe, 0xfd, 0xfe, 0xea, 0x01,
  0xcd, 0xe8, 0xe0, 0x00, 0xff, 0x39, 0x2a, 0x3c, 0x00, 0xe6, 0xdd, 0xc8,
  0xff, 0x01, 0x03, 0xed, 0x1f, 0x03, 0x03, 0x02, 0x01, 0xff, 0xff, 0xfe,
  0xfe, 0xfe, 0xff, 0x00, 0xd4, 0xde, 0x01, 0xe1, 0xff, 0x00, 0x2e, 0x36,
  0x27, 0xe3, 0xdd, 0x01, 0x32, 0x25, 0x1c, 0x03, 0x03, 0x03, 0x02, 0x01,
  0x00, 0xff, 0xff, 0xff, 0xfe, 0x1a, 0x00, 0x01, 0x02, 0x00, 0xc7, 0xcf,
  0xd9, 0xd4, 0x3a, 0x00, 0x2d, 0x00, 0xbb, 0x1d, 0x31, 0x1e, 0x01, 0x02,
  0x1a, 0x02, 0x1a, 0x00, 0xff, 0xff, 0xfe, 0xfe, 0xfe, 0x01, 0x02, 0x02,
  0x03, 0x04, 0xbd, 0x00, 0x00, 0xdf, 0x38, 0x00, 0x00, 0x00, 0xce, 0xdf,
  0xff, 0x00, 0x01, 0x03, 0x03, 0x01, 0x00, 0x00, 0x00, 0xff, 0xff, 0xfe,
  0xff, 0x02, 0xe6, 0xd5, 0xd8, 0xd7, 0x01, 0x00, 0xe0, 0x00, 0x34, 0x00,
  0x00, 0x00, 0x00, 0xba, 0xff, 0xff, 0xd5, 0x00, 0xff, 0x16, 0x1c, 0x01,
  0x00, 0xe7, 0xe6, 0xd5, 0xfd, 0xca, 0xe8, 0x00, 0x01, 0x00, 0x1a, 0x52,
  0x60, 0x39, 0x2c, 0x00, 0x00, 0x00, 0x2d, 0xe2, 0xfe, 0xfe, 0xdc, 0xfd,
  0xfd, 0xff, 0xff, 0xe9, 0xff, 0xff, 0xfe, 0xff, 0xfe, 0xff, 0xba, 0xca,
  0x01, 0x26, 0x2b, 0x34, 0x00, 0x00, 0x00, 0x00, 0x00, 0x00, 0x00, 0x25,
  0x3b, 0x00, 0xea, 0xda, 0xbc, 0xff, 0xfe, 0xfd, 0xe6, 0xd4, 0xe8, 0x36,
  0x3a, 0x1a, 0x02, 0x00, 0xcd, 0xd3, 0xd2, 0xd4, 0x00, 0x00, 0x00, 0x00,
  0x00, 0x00, 0x00, 0x00, 0x00, 0x00, 0xe3, 0xe7, 0xd0, 0xd4, 0xda, 0x00,
  0xe6, 0xe8, 0x1e, 0x30, 0x23, 0xe2, 0x00, 0x00, 0x00, 0x00, 0x00, 0x00,
  0x00, 0x00, 0x00, 0x00, 0x00, 0x00, 0x00, 0x00, 0x00, 0x00, 0x00, 0x00,
  0x00, 0x00, 0x00, 0x00, 0x00, 0x1d, 0x00, 0x00, 0x00, 0x00, 0x00, 0x00,
  0x00, 0x00, 0x00, 0x00, 0x00, 0x00, 0x00, 0x00, 0x00, 0x00, 0x00, 0x00,
  0x00, 0x00, 0x00, 0x00, 0x00, 0xe7, 0xd6, 0x00, 0x00, 0x1b, 0xff, 0xfe,
  0xe2, 0xcb, 0x01, 0xdf, 0xd5, 0xdd, 0xe6, 0x00, 0x00, 0x00, 0x00, 0x00,
  0x00, 0x00, 0x00, 0x33, 0x2f, 0xe8, 0xc8, 0xc1, 0xb2, 0xc8, 0xc4, 0xc5,
  0x03, 0x01, 0xff, 0xfe, 0xfe, 0xe3, 0xfd, 0xfd, 0x28, 0x3b, 0xff, 0xdb,
  0x00, 0x00, 0x00, 0x00, 0x00, 0x00, 0x00, 0x00, 0xc8, 0xcb, 0xc2, 0xc3,
  0xd8, 0x01, 0x02, 0xe0, 0xce, 0xff, 0x1e, 0x2c, 0x28, 0x37, 0x27, 0xfe,
  0xda, 0xfe, 0xff, 0xff, 0x00, 0xe4, 0xd1, 0x00, 0x00, 0x00, 0x00, 0xe0,
  0x02, 0xa8, 0xc8, 0xfe, 0x01, 0x29, 0xff, 0xff, 0xe2, 0x00, 0x00, 0x00,
  0x28, 0x40, 0x29, 0x1f, 0xff, 0xd6, 0x02, 0x03, 0xdc, 0x00, 0xd1, 0x00,
  0x00, 0x00, 0xcc, 0xc8, 0x02, 0xde, 0x00, 0xd5, 0x03, 0x04, 0x01, 0x02,
  0xdb, 0x01, 0x01, 0x01, 0x00, 0x18, 0x2a, 0x25, 0x00, 0x00, 0x02, 0x02,
  0xc5, 0xd1, 0xe0, 0xe8, 0x00, 0xe3, 0x00, 0x01, 0x26, 0x01, 0xff, 0xd2,
  0xd0, 0x03, 0x02, 0x01, 0x02, 0x01, 0x00, 0xff, 0xff, 0xff, 0x22, 0x1d,
  0x2e, 0x3c, 0xff, 0xda, 0xa3, 0x9d, 0xb1, 0xc1, 0x00, 0xcc, 0x02, 0x5b,
  0x39, 0x01, 0x2a, 0x04, 0xbe, 0x03, 0x02, 0x02, 0x02, 0x00, 0xfe, 0xfe,
  0xff, 0x1a, 0x20, 0x27, 0x28, 0x18, 0x29, 0xfd, 0xe5, 0xd3, 0xc4, 0xb3,
  0x35, 0x00, 0x31, 0x03, 0x04, 0xe5, 0x03, 0x05, 0x03, 0x01, 0x01, 0x01,
  0x00, 0xff, 0xfe, 0xde, 0xff, 0x01, 0x01, 0x34, 0x00, 0x20, 0x25, 0xfe,
  0xfd, 0xc2, 0xff, 0xc9, 0x00, 0x00, 0xe8, 0xcf, 0x03, 0x02, 0x04, 0x04,
  0x02, 0x01, 0x00, 0xe8, 0xff, 0xfd, 0xfe, 0xca, 0xe7, 0x03, 0x4a, 0x45,
  0x41, 0x1a, 0x01, 0x1d, 0x01, 0xba, 0xbc, 0xe2, 0x18, 0x00, 0xd9, 0xdb,
  0xc3, 0x03, 0x04, 0x04, 0x02, 0x02, 0x01, 0x00, 0xff, 0xfe, 0xe2, 0xc6,
  0xbf, 0x03, 0x32, 0x2d, 0x23, 0x1d, 0x25, 0x1d, 0x01, 0x02, 0x81, 0x00,
  0x00, 0x34, 0xe4, 0xc3, 0xbe, 0x03, 0x04, 0x04, 0x02, 0x00, 0x00, 0xff,
  0xff, 0x00, 0xdc, 0xb8, 0xae, 0xe7, 0x1e, 0x36, 0x32, 0x2d, 0x2d, 0x00,
  0x00, 0xc2, 0xa4, 0x00, 0x00, 0x00, 0x00, 0xc6, 0x03, 0x03, 0x20, 0x02,
  0x01, 0xff, 0xff, 0x1a, 0x1b, 0xff, 0xfe, 0xad, 0xbf, 0xe8, 0x01, 0x34,
  0x22, 0x27, 0x35, 0x27, 0x00, 0xaf, 0xb0, 0x00, 0x00, 0x00, 0xfe, 0x02,
  0x03, 0x03, 0x2c, 0x00, 0x18, 0xff, 0xfe, 0xfd, 0xfe, 0xff, 0xdd, 0xd0,
  0xc5, 0xff, 0xff, 0x2a, 0x00, 0xfe, 0x2d, 0xff, 0x00, 0xca, 0xbb, 0x00,
  0x00, 0xd7, 0x1e, 0xdf, 0x02, 0x23, 0x21, 0x37, 0xff, 0xfe, 0xfd, 0xfc,
  0xfe, 0xff, 0xff, 0xff, 0xcd, 0xe5, 0xff, 0x00, 0x00, 0xfe, 0xff, 0x00,
  0x01, 0xdc, 0x37, 0x21, 0x00, 0xd7, 0xd1, 0xfd, 0xea, 0x21, 0x02, 0x22,
  0xff, 0xfe, 0xfd, 0xe0, 0xfd, 0xfe, 0xe7, 0xe6, 0xda, 0xfe, 0xff, 0x00,
  0x00, 0xfe, 0x15, 0xff, 0x02, 0xcf, 0x19, 0x00, 0x00, 0x00, 0xd1, 0x01,
  0x03, 0x02, 0x01, 0x1c, 0xff, 0xff, 0xe0, 0xe6, 0xfe, 0xfe, 0xff, 0xd9,
  0xe5, 0xfe, 0x1e, 0x00, 0xff, 0xfe, 0xfe, 0xe9, 0xe6, 0xe0, 0x2f, 0x21,
  0x00, 0xc3, 0xd5, 0x01, 0x19, 0x01, 0x02, 0xff, 0x23, 0x00, 0x01, 0x00,
  0x00, 0x00, 0xff, 0xfe, 0xfe, 0xfd, 0xfd, 0xff, 0x00, 0x1b, 0x1b, 0xe7,
  0x03, 0xfc, 0x23, 0x43, 0x00, 0xe8, 0xfe, 0xe4, 0x00, 0x00, 0x01, 0x00,
  0x1d, 0x26, 0x01, 0x00, 0xe5, 0xdd, 0xfe, 0xfd, 0xfd, 0x26, 0xfd, 0xff,
  0x02, 0x02, 0x02, 0x03, 0x03, 0xfe, 0x35, 0x3b, 0x00, 0x00, 0x02, 0x01,
  0xff, 0x01, 0x00, 0x00, 0x00, 0x2f, 0x23, 0x00, 0xff, 0xfd, 0xdf, 0xfc,
  0xfd, 0xfd, 0xfe, 0x01, 0x03, 0x02, 0x1a, 0x25, 0x03, 0x02, 0x49, 0x24,
  0x00, 0x26, 0x01, 0x2a, 0xff, 0x1e, 0x00, 0x02, 0x01, 0x01, 0x1b, 0xff,
  0xfe, 0xfd, 0xfc, 0xfc, 0x1b, 0xff, 0xff, 0x1c, 0x04, 0x03, 0x04, 0x03,
  0x4c, 0x1a, 0x52, 0x00, 0x00, 0x00, 0x1a, 0x1a, 0xff, 0x1a, 0x24, 0x01,
  0x01, 0x00, 0xff, 0xfe, 0xfe, 0xe6, 0xe3, 0xff, 0x00, 0x00, 0x01, 0x04,
  0x05, 0x05, 0x04, 0x03, 0x3b, 0x02, 0x3d, 0x00, 0x00, 0x00, 0x21, 0xfe,
  0xfc, 0x1d, 0x32, 0x27, 0x1e, 0xff, 0xff, 0x00, 0x00, 0x02, 0xe7, 0x03,
  0x03, 0x03, 0x02, 0x04, 0x06, 0x05, 0x2b, 0x02, 0x02, 0x02, 0xdf, 0x00,
  0x00, 0x00, 0xc4, 0xfd, 0xfc, 0xfd, 0x17, 0x18, 0xfe, 0x19, 0x00, 0x01,
  0x03, 0xec, 0x05, 0x05, 0xe9, 0x02, 0x02, 0x05, 0xe2, 0x04, 0x03, 0x03,
  0x36, 0x00, 0xc6, 0x00, 0x00, 0x00, 0x00, 0xfd, 0xfd, 0xfe, 0x00, 0x01,
  0x00, 0x20, 0x02, 0x02, 0x03, 0xe3, 0x03, 0x03, 0x02, 0xff, 0x00, 0xdd,
  0xe1, 0x02, 0x02, 0x1f, 0x34, 0x2a, 0x00, 0x00, 0x00, 0x00, 0xc5, 0x29,
  0x1c, 0x00, 0x00, 0x01, 0x04, 0x27, 0x03, 0x01, 0x01, 0x01, 0xff, 0xe3,
  0xfe, 0xfd, 0xfc, 0x2a, 0x20, 0x02, 0x01, 0x01, 0xe3, 0x2c, 0x00, 0x00,
  0x00, 0x00, 0x00, 0x25, 0x02, 0xcf, 0x03, 0x29, 0x28, 0x05, 0x04, 0xe1,
  0xcc, 0xd5, 0x00, 0xff, 0x25, 0xfe, 0x02, 0x02, 0x00, 0x4b, 0x54, 0x36,
  0x41, 0x00, 0x00, 0x00, 0x00, 0x00, 0x00, 0x00, 0x00, 0x1b, 0x3b, 0x42,
  0x3d, 0x63, 0x01, 0x01, 0x01, 0x2c, 0x5f, 0x56, 0x53, 0x53, 0x01, 0x00,
  0x52, 0x56, 0x53, 0x27, 0x00, 0x00, 0x00, 0x00, 0x00, 0x00, 0x00, 0x00,
  0x00, 0x00, 0x00, 0x00, 0x00, 0x00, 0x00, 0x00, 0x00, 0x00, 0x00, 0x00,
  0x00, 0x00, 0x00, 0x00, 0x00, 0x00, 0x00, 0x00, 0x00, 0x00, 0x00, 0x00,
  0x00, 0x00, 0x00, 0x00, 0x00, 0x00, 0xe7, 0xd8, 0x00, 0xe7, 0xdf, 0xd8,
  0xce, 0xd9, 0xd1, 0xd0, 0xd8, 0xc4, 0xc3, 0xc8, 0xd5, 0x00, 0x00, 0x00,
  0x00, 0x00, 0x00, 0x00, 0x00, 0x00, 0x00, 0x00, 0x1b, 0xde, 0xdf, 0xc8,
  0xbf, 0xd0, 0xff, 0xc1, 0xe2, 0xd1, 0xcd, 0xbe, 0xdc, 0xd7, 0xdf, 0xd7,
  0xdf, 0xeb, 0xdd, 0xdc, 0x00, 0x1d, 0x00, 0x00, 0x00, 0x00, 0x1c, 0x00,
  0x00, 0x00, 0xec, 0x02, 0x02, 0xe7, 0x00, 0xff, 0x14, 0x00, 0x23, 0x22,
  0xfd, 0xfd, 0xfd, 0xfd, 0xfd, 0xfe, 0xd4, 0xca, 0x12, 0x1e, 0x23, 0x00,
  0x00, 0x00, 0x1a, 0x36, 0xfe, 0xdd, 0x02, 0x02, 0x03, 0x01, 0x19, 0x21,
  0x1b, 0x02, 0xff, 0x17, 0xfe, 0xfd, 0x12, 0xfd, 0xff, 0x00, 0x00, 0xff,
  0xfe, 0x1f, 0x00, 0xe9, 0x00, 0x00, 0xe6, 0x33, 0xe6, 0x11, 0xff, 0x01,
  0x01, 0x00, 0x00, 0x00, 0x01, 0xff, 0xff, 0xfe, 0xfe, 0xff, 0xfe, 0xfe,
  0xfe, 0xef, 0x00, 0xff, 0xe9, 0xe3, 0xff, 0xe9, 0x00, 0x2d, 0x14, 0x28,
  0xfe, 0xea, 0x00, 0xe0, 0x00, 0xff, 0xff, 0x00, 0x00, 0x1f, 0x18, 0x14,
  0x19, 0x00, 0x13, 0xff, 0x00, 0x14, 0xff, 0x14, 0x17, 0xfe, 0xfe, 0xff,
  0x00, 0x38, 0x11, 0x25, 0xff, 0xe8, 0xff, 0xfe, 0xff, 0x00, 0x01, 0x00,
  0x01, 0x01, 0x28, 0x02, 0x1d, 0x03, 0x01, 0x17, 0x19, 0xfe, 0xfe, 0x16,
  0xfe, 0xfe, 0xfe, 0x1d, 0x00, 0x1c, 0xfe, 0x02, 0x00, 0x01, 0xff, 0xfd,
  0xfe, 0x00, 0x14, 0x14, 0x00, 0x00, 0x00, 0x02, 0x20, 0x03, 0x01, 0x15,
  0x00, 0xff, 0x12, 0x11, 0xfe, 0xfe, 0xfe, 0x32, 0x00, 0x00, 0x17, 0x02,
  0x01, 0xff, 0xfd, 0xfd, 0xfd, 0x00, 0x00, 0x00, 0xff, 0xff, 0x01, 0x1f,
  0x04, 0x19, 0x01, 0x00, 0x00, 0x00, 0x26, 0xfe, 0x1c, 0x23, 0xe2, 0x00,
  0x00, 0xe8, 0x1b, 0x32, 0x01, 0xfc, 0x18, 0x1a, 0x13, 0xff, 0xff, 0xff,
  0xfe, 0x00, 0x02, 0x04, 0x03, 0x02, 0x01, 0x00, 0x00, 0xff, 0xff, 0x01,
  0x01, 0x31, 0x00, 0x26, 0x00, 0x00, 0x02, 0x00, 0xfe, 0xe3, 0xfd, 0xfe,
  0xff, 0xff, 0xff, 0xfe, 0xfe, 0x00, 0x03, 0x03, 0x02, 0x01, 0x00, 0x00,
  0x00, 0x00, 0x00, 0x01, 0xe7, 0x1a, 0xfe, 0xe4, 0x00, 0x00, 0x00, 0xec,
  0xfd, 0xfd, 0x00, 0xff, 0x00, 0xff, 0xff, 0xff, 0xff, 0x00, 0x1a, 0x16,
  0x01, 0x01, 0x01, 0x01, 0x21, 0xec, 0x00, 0x00, 0xc3, 0xeb, 0x2b, 0xe2,
  0x00, 0xec, 0xfe, 0xe8, 0xec, 0xff, 0x00, 0x00, 0xe7, 0xdf, 0x00, 0x00,
  0xff, 0x00, 0x00, 0x00, 0x01, 0x02, 0x01, 0x01, 0x17, 0xff, 0xfe, 0xde,
  0xff, 0xd1, 0xe4, 0xdb, 0x00, 0x00, 0x00, 0x00, 0xfe, 0xdf, 0x00, 0x00,
  0xff, 0x00, 0x00, 0x01, 0x12, 0x00, 0x00, 0x02, 0xea, 0x03, 0x01, 0x14,
  0x19, 0xff, 0xfd, 0xfe, 0x16, 0x00, 0xe5, 0xe3, 0x00, 0x1f, 0x00, 0x03,
  0x13, 0x00, 0x16, 0xfe, 0xe9, 0xe9, 0xff, 0xff, 0xff, 0x00, 0xe4, 0x01,
  0xe0, 0x03, 0x00, 0x1b, 0x1b, 0x18, 0xfe, 0x15, 0x23, 0xe2, 0x00, 0x00,
  0x00, 0x2b, 0x23, 0x03, 0x00, 0xff, 0xff, 0xfd, 0xfd, 0xea, 0xfd, 0xfd,
  0xfe, 0xff, 0xe2, 0xe9, 0xe7, 0x03, 0x2a, 0x1f, 0x24, 0xfe, 0xfd, 0x16,
  0x27, 0xdd, 0x00, 0x20, 0x00, 0x3d, 0xeb, 0x1e, 0x01, 0x00, 0xfe, 0xfe,
  0xfd, 0xdd, 0xe4, 0xdf, 0xe8, 0xfd, 0xd6, 0x01, 0x02, 0x19, 0x13, 0x1d,
  0xfd, 0xfd, 0x10, 0x16, 0xfd, 0xd8, 0x00, 0x1b, 0x1d, 0x1d, 0xef, 0x2b,
  0x19, 0x01, 0x15, 0xfe, 0xfc, 0xfc, 0xfc, 0xfd, 0xd8, 0xd8, 0x00, 0x15,
  0x00, 0x1b, 0xfe, 0x1c, 0xfd, 0xfd, 0x25, 0xfe, 0xfe, 0xdf, 0xe7, 0x00,
  0xe4, 0x00, 0x16, 0x1d, 0x2e, 0x26, 0x01, 0xff, 0xfd, 0xfc, 0xfd, 0xfd,
  0xfe, 0x00, 0x00, 0x01, 0x00, 0xff, 0xff, 0x11, 0x10, 0xfe, 0x00, 0xfe,
  0x00, 0xeb, 0x00, 0x00, 0x00, 0x12, 0xec, 0x34, 0x22, 0x36, 0x03, 0x00,
  0xfe, 0xfe, 0xfe, 0xfe, 0xff, 0x01, 0x01, 0x01, 0x01, 0xff, 0xff, 0xfe,
  0xfe, 0xff, 0x00, 0xff, 0x00, 0xfe, 0xfe, 0x00, 0xe9, 0x00, 0x01, 0x1f,
  0x02, 0xee, 0x03, 0x01, 0xff, 0xff, 0xff, 0x00, 0x00, 0x01, 0xed, 0x02,
  0x01, 0xea, 0xff, 0xff, 0xff, 0x00, 0xf0, 0x01, 0x02, 0xfd, 0xfe, 0x00,
  0xeb, 0x00, 0x02, 0x02, 0xe7, 0xde, 0x02, 0x01, 0x00, 0x01, 0x00, 0x00,
  0x01, 0x02, 0x02, 0x01, 0x00, 0x00, 0xff, 0xfe, 0xff, 0x01, 0x01, 0x00,
  0x02, 0xfe, 0xec, 0x00, 0x00, 0x00, 0x3f, 0x30, 0x03, 0x03, 0x16, 0x15,
  0x02, 0x01, 0x1b, 0x20, 0x00, 0x00, 0x00, 0x00, 0xff, 0xff, 0xfe, 0xff,
  0x00, 0xee, 0x00, 0xe9, 0x16, 0xed, 0x1d, 0x00, 0x00, 0x00, 0x00, 0x4a,
  0x7f, 0x40, 0x2e, 0x29, 0x18, 0xff, 0x1e, 0x01, 0x01, 0x00, 0x00, 0xff,
  0xfe, 0xfd, 0xff, 0xe9, 0x01, 0x02, 0x02, 0x01, 0x14, 0xcb, 0x00, 0x00,
  0x00, 0x00, 0x26, 0xe1, 0x44, 0x5b, 0x31, 0x36, 0x3c, 0x2b, 0x2d, 0x2b,
  0x21, 0x23, 0x03, 0x16, 0x16, 0x00, 0xfe, 0xfd, 0xff, 0x01, 0x01, 0x01,
  0x01, 0x16, 0x15, 0x00, 0x00, 0x00, 0x00, 0x1d, 0x01, 0x03, 0x02, 0x1f,
  0x1d, 0x29, 0x41, 0x38, 0x1c, 0x44, 0x53, 0x41, 0x32, 0x19, 0xff, 0x24,
  0x37, 0x20, 0x27, 0x1b, 0x1c, 0x00, 0x00, 0x00, 0x00, 0x00, 0x00, 0x00,
  0xe3, 0xe0, 0x13, 0x24, 0x1e, 0xff, 0x3e, 0x26, 0xff, 0x00, 0x47, 0x4a,
  0x1a, 0xff, 0x00, 0x01, 0x00, 0xe4, 0x00, 0x00, 0x00, 0x00, 0x00, 0x00,
  0x00, 0x00, 0x00, 0x00, 0x00, 0x00, 0x00, 0x00, 0x00, 0x00, 0x00, 0x00,
  0x00, 0x00, 0x00, 0x00, 0x00, 0x00, 0x00, 0x00, 0x00, 0x00, 0x00, 0x00,
  0x00, 0x00, 0x00, 0x00, 0x00, 0x00, 0x00, 0x00, 0x00, 0x00, 0x00, 0x00,
  0x00, 0x00, 0x00, 0x00, 0xef, 0x00, 0x00, 0xed, 0xeb, 0xdd, 0xee, 0xee,
  0xf0, 0x00, 0x00, 0x00, 0x00, 0x00, 0x00, 0x00, 0x00, 0x00, 0x00, 0xe7,
  0xe0, 0x00, 0xf1, 0xe9, 0xf1, 0xe7, 0xe3, 0xd6, 0xdb, 0x00, 0x00, 0xd0,
  0xe1, 0x0e, 0x00, 0xd5, 0xd5, 0xf3, 0x00, 0xe5, 0x00, 0x00, 0x00, 0x00,
  0x00, 0x00, 0x00, 0xe1, 0xe8, 0xda, 0xe1, 0xd8, 0xce, 0xc0, 0xce, 0xd5,
  0xf2, 0xcc, 0xc0, 0xce, 0xcf, 0xe7, 0xeb, 0x00, 0xff, 0x18, 0x10, 0x00,
  0x00, 0x15, 0x16, 0x00, 0x00, 0x00, 0xf0, 0x00, 0xff, 0xc7, 0xbc, 0xca,
  0xb5, 0x85, 0x81, 0xcf, 0xbf, 0xc8, 0xd3, 0xfe, 0xea, 0xed, 0xdd, 0xc9,
  0xed, 0xf1, 0x01, 0xff, 0xff, 0x11, 0x00, 0xe5, 0x00, 0x00, 0xe1, 0xff,
  0xcf, 0xe6, 0xdc, 0xe5, 0x01, 0xdd, 0xd8, 0xda, 0xd5, 0xca, 0xd3, 0xcc,
  0xd5, 0xdf, 0xd7, 0xce, 0xe7, 0xed, 0xff, 0xeb, 0xe4, 0x00, 0xff, 0xf0,
  0x00, 0xe5, 0x10, 0x0d, 0xff, 0x0f, 0xfe, 0x00, 0x01, 0x00, 0xf1, 0xff,
  0xff, 0xff, 0xff, 0xed, 0xeb, 0x00, 0xec, 0xff, 0xfe, 0xfe, 0xfe, 0xfe,
  0xfe, 0x12, 0x0f, 0xff, 0x00, 0x00, 0x17, 0x18, 0xf2, 0xff, 0x00, 0x02,
  0x01, 0x02, 0x17, 0x01, 0x0f, 0x0f, 0x00, 0x01, 0x01, 0x01, 0x00, 0x00,
  0xff, 0xff, 0xff, 0xfe, 0x10, 0xfe, 0xfe, 0xff, 0xd8, 0x34, 0x02, 0x01,
  0x01, 0x02, 0x02, 0x02, 0x16, 0x02, 0x01, 0x0f, 0x01, 0x00, 0x01, 0x02,
  0x02, 0x02, 0x11, 0x00, 0x12, 0xfe, 0xfe, 0x14, 0x26, 0x2b, 0xe9, 0x32,
  0x18, 0x37, 0x02, 0x01, 0x02, 0x02, 0x17, 0x02, 0x02, 0x01, 0x01, 0x11,
  0x1e, 0x15, 0x13, 0x04, 0x03, 0x17, 0x13, 0x0d, 0x0f, 0xfe, 0xfe, 0xfe,
  0x23, 0x47, 0x11, 0x2d, 0x1e, 0x1b, 0x02, 0x02, 0x02, 0x1b, 0x21, 0x0f,
  0x02, 0x01, 0x01, 0x01, 0x1a, 0x21, 0x1a, 0x16, 0x13, 0x01, 0x11, 0x1d,
  0x12, 0x13, 0xfe, 0xe9, 0x1e, 0x42, 0x21, 0x1f, 0x1d, 0x00, 0x1f, 0x02,
  0x18, 0x11, 0x10, 0x14, 0x12, 0x00, 0x0f, 0x28, 0x25, 0x24, 0x01, 0x01,
  0x01, 0x01, 0x01, 0x00, 0x00, 0xff, 0xff, 0xe4, 0x00, 0x13, 0x16, 0x17,
  0x00, 0x26, 0x1a, 0x02, 0x15, 0x0f, 0x00, 0x1c, 0x28, 0x0d, 0x00, 0x11,
  0xfe, 0xfe, 0xff, 0x00, 0x00, 0x01, 0x00, 0x01, 0xf3, 0x00, 0x00, 0xe7,
  0xeb, 0x21, 0x58, 0x19, 0xee, 0x24, 0x1e, 0x01, 0x1e, 0x13, 0xff, 0x10,
  0x10, 0xff, 0xff, 0xff, 0xfe, 0xfe, 0xff, 0xff, 0x00, 0x01, 0xf1, 0xf2,
  0x01, 0x00, 0xff, 0xdf, 0xff, 0x15, 0x24, 0x00, 0x00, 0x0f, 0x34, 0x0e,
  0x14, 0xff, 0x00, 0xff, 0x00, 0xff, 0xff, 0xff, 0xef, 0xef, 0xff, 0x00,
  0x02, 0x02, 0x01, 0x00, 0x00, 0xff, 0x00, 0xfe, 0xff, 0x01, 0x1b, 0x00,
  0x00, 0x00, 0x00, 0x02, 0xfe, 0xff, 0xff, 0xef, 0xfe, 0xee, 0xfe, 0xfe,
  0xfe, 0xfe, 0xf1, 0x01, 0x02, 0x02, 0x01, 0x00, 0xff, 0xff, 0x00, 0xff,
  0xf0, 0xdf, 0x01, 0x23, 0x00, 0xe2, 0xed, 0xea, 0xe2, 0xff, 0xed, 0xfe,
  0xfe, 0xfe, 0xfe, 0xfe, 0xfe, 0xfe, 0x00, 0x02, 0x02, 0x10, 0x02, 0x01,
  0xff, 0xff, 0xff, 0xfe, 0xfd, 0xe9, 0x3d, 0x0f, 0x00, 0xda, 0xf0, 0xe5,
  0xe3, 0xff, 0xeb, 0xef, 0xfe, 0xfe, 0xfe, 0xfe, 0xff, 0xff, 0x01, 0x11,
  0x02, 0x01, 0x01, 0x00, 0xfe, 0xff, 0x0d, 0xff, 0xfe, 0xfe, 0x31, 0xde,
  0x1f, 0xe9, 0x16, 0xe4, 0xde, 0x00, 0xff, 0xfe, 0xfe, 0xfd, 0xec, 0xfe,
  0xfe, 0xff, 0x01, 0x02, 0x01, 0x00, 0xfe, 0xfe, 0xfe, 0xf1, 0xff, 0xff,
  0xf2, 0xff, 0x27, 0x00, 0x00, 0x1d, 0x21, 0xe1, 0xef, 0xe2, 0xfe, 0xff,
  0xfe, 0xfe, 0xe4, 0xf0, 0xff, 0x00, 0x01, 0x01, 0xf1, 0x00, 0xfe, 0xfe,
  0xff, 0xff, 0x00, 0x00, 0xff, 0x00, 0x1e, 0x00, 0x00, 0xe3, 0x0f, 0xcf,
  0xc8, 0xe0, 0xdc, 0xea, 0xfe, 0xfe, 0xfe, 0xff, 0x00, 0x01, 0x00, 0xff,
  0xff, 0x00, 0xeb, 0xff, 0xff, 0xf1, 0x00, 0x1d, 0x31, 0x1a, 0x0e, 0x00,
  0x00, 0xe9, 0x00, 0xd4, 0xe0, 0xe8, 0xe0, 0xd3, 0xff, 0xff, 0xff, 0x00,
  0x00, 0x01, 0x00, 0xff, 0x00, 0x00, 0xe9, 0xff, 0xea, 0xff, 0xeb, 0xf2,
  0x01, 0xff, 0xdf, 0x00, 0x00, 0x00, 0xe6, 0xde, 0xe0, 0xe2, 0xeb, 0xff,
  0xff, 0x17, 0xff, 0x00, 0x00, 0x01, 0x00, 0x00, 0x00, 0x00, 0xee, 0xff,
  0xe9, 0xec, 0xe0, 0xe2, 0x11, 0xff, 0xda, 0x00, 0x00, 0x00, 0xe5, 0xeb,
  0xff, 0xff, 0x00, 0xef, 0x00, 0xff, 0x0d, 0x00, 0x00, 0xf2, 0x01, 0x01,
  0x00, 0x00, 0xff, 0xff, 0x00, 0xe2, 0xe6, 0xe7, 0x00, 0x00, 0xe7, 0x00,
  0x00, 0x00, 0xec, 0xff, 0xff, 0x00, 0x00, 0x01, 0x01, 0xff, 0x00, 0x01,
  0x01, 0x01, 0x02, 0x02, 0x01, 0x01, 0x00, 0x00, 0x12, 0x0e, 0xff, 0xee,
  0x13, 0xe7, 0xec, 0x00, 0x00, 0x00, 0xdf, 0xff, 0x00, 0xf1, 0xe6, 0xef,
  0xed, 0xf5, 0xeb, 0x01, 0x02, 0x03, 0x03, 0x15, 0x13, 0x1d, 0x00, 0xff,
  0xff, 0x32, 0x22, 0x00, 0x30, 0x0e, 0x00, 0x00, 0x00, 0x00, 0x00, 0x01,
  0xec, 0xe4, 0xe5, 0x02, 0x02, 0x1c, 0x03, 0x1c, 0x20, 0x27, 0x22, 0x24,
  0x14, 0x17, 0x1a, 0x3f, 0x22, 0x1f, 0x2a, 0x00, 0x00, 0x00, 0x00, 0x00,
  0x00, 0x00, 0x00, 0x00, 0x1a, 0x26, 0x1f, 0x02, 0x16, 0x1a, 0x28, 0x20,
  0x19, 0x37, 0x39, 0x15, 0x1a, 0x39, 0x1c, 0x16, 0x00, 0x25, 0x15, 0x26,
  0x00, 0x00, 0x00, 0x00, 0x00, 0x00, 0x00, 0x00, 0x00, 0x00, 0x00, 0x00,
  0x00, 0x00, 0x00, 0x00, 0x00, 0x00, 0x00, 0x00, 0x00, 0x00, 0x00, 0x00,
  0x00, 0x00, 0x00, 0x00, 0x00, 0x00, 0x00, 0x00, 0x00, 0x00, 0x00, 0x00,
  0x00, 0x00, 0x00, 0x00, 0x00, 0x00, 0xff, 0xff, 0xe8, 0x00, 0xff, 0xff,
  0x39, 0x30, 0x00, 0x00, 0x00, 0x00, 0x00, 0x00, 0x00, 0x00, 0x00, 0x00,
  0x00, 0x00, 0x00, 0x00, 0xe6, 0xe0, 0x00, 0xda, 0x26, 0x1c, 0xff, 0x19,
  0x50, 0x40, 0x31, 0x2f, 0x1b, 0xff, 0xff, 0xa9, 0xaa, 0xb8, 0xb7, 0xd8,
  0x00, 0x00, 0x00, 0x00, 0x00, 0x00, 0x27, 0x2d, 0x00, 0x24, 0x39, 0x19,
  0xbf, 0xfe, 0xfe, 0xfe, 0x18, 0x18, 0x1a, 0x01, 0x1e, 0x00, 0xe7, 0x00,
  0xfe, 0xd9, 0xfe, 0xb7, 0xc9, 0x00, 0xdc, 0x00, 0x00, 0x00, 0x29, 0xcb,
  0x00, 0x27, 0x19, 0xfe, 0xe5, 0xfd, 0xfd, 0xfd, 0xfe, 0xff, 0x00, 0x02,
  0x04, 0x05, 0x03, 0x01, 0x00, 0xdf, 0x01, 0xe6, 0xaf, 0xbe, 0xbe, 0xd2,
  0x00, 0x00, 0x35, 0x21, 0x2d, 0xfe, 0xfe, 0xfe, 0xfe, 0xfd, 0xfd, 0xfd,
  0xfe, 0xff, 0x00, 0x04, 0x04, 0x04, 0xeb, 0xe5, 0x03, 0x03, 0x03, 0x3b,
  0x00, 0xce, 0xb9, 0xbb, 0x00, 0x00, 0xe6, 0xe3, 0x02, 0xe4, 0xe6, 0xfe,
  0xff, 0xfd, 0xfd, 0xfe, 0xff, 0x00, 0x02, 0x04, 0x05, 0x05, 0x03, 0x02,
  0x03, 0x02, 0x02, 0x02, 0x02, 0xb4, 0xd0, 0x00, 0x00, 0x00, 0x00, 0xff,
  0x00, 0xfe, 0xfe, 0xfe, 0xfe, 0x00, 0x01, 0x02, 0x02, 0x1d, 0x03, 0x04,
  0x04, 0x23, 0x04, 0x2d, 0x03, 0x03, 0x02, 0x01, 0xd1, 0x81, 0xe6, 0x00,
  0x00, 0x00, 0xe7, 0x01, 0xfe, 0xfd, 0xfd, 0xfd, 0xff, 0x00, 0x01, 0x01,
  0x01, 0xde, 0x04, 0x31, 0x1b, 0x03, 0x03, 0x1d, 0x02, 0xe5, 0x01, 0x00,
  0xb1, 0x95, 0xd1, 0x00, 0x00, 0x1d, 0x1b, 0xdf, 0xe5, 0xfb, 0x1a, 0xfd,
  0xe6, 0xfe, 0x00, 0x00, 0x01, 0xbd, 0xe3, 0x1f, 0x1d, 0x04, 0x03, 0xea,
  0xd6, 0x01, 0x01, 0x00, 0xc7, 0xac, 0xc6, 0x00, 0x00, 0x24, 0x00, 0xd5,
  0xff, 0x1b, 0xfb, 0xfd, 0xfd, 0xfe, 0xff, 0xd9, 0xe7, 0xcb, 0xd1, 0x04,
  0x04, 0x03, 0xe8, 0xde, 0xd2, 0x01, 0xd6, 0xe0, 0xc2, 0xe5, 0x00, 0x32,
  0x00, 0x00, 0x00, 0xb9, 0xff, 0x21, 0xfd, 0xfe, 0xff, 0xff, 0xd8, 0xe6,
  0xd2, 0xb4, 0xd2, 0x04, 0x21, 0x02, 0x00, 0x00, 0xe6, 0x01, 0xe0, 0xd1,
  0xd8, 0xe7, 0x00, 0x00, 0x00, 0x00, 0xe5, 0xd1, 0x00, 0xfe, 0xdb, 0xe2,
  0x00, 0xd6, 0xd4, 0x9e, 0xc9, 0xca, 0xe7, 0x03, 0x1a, 0x00, 0xff, 0xd3,
  0xe3, 0xff, 0xe1, 0xfe, 0x00, 0xdc, 0x00, 0xd2, 0x31, 0x00, 0x00, 0xe0,
  0xcd, 0xdb, 0xa0, 0xb2, 0xbe, 0xcb, 0xca, 0xe3, 0xe5, 0x01, 0x02, 0x03,
  0x01, 0x00, 0xff, 0xff, 0xfe, 0x2e, 0xfe, 0xff, 0x00, 0x00, 0x00, 0x00,
  0x00, 0x00, 0x17, 0x00, 0xc7, 0x93, 0xc3, 0xcc, 0xc3, 0xfd, 0xfd, 0xfd,
  0xfe, 0xe9, 0x01, 0x03, 0x02, 0x01, 0x00, 0xff, 0xfd, 0xfd, 0xfd, 0xd7,
  0x00, 0x00, 0x5b, 0x32, 0x00, 0x00, 0x24, 0xdd, 0xab, 0x8a, 0xc3, 0xd9,
  0x18, 0xfd, 0xfd, 0xfc, 0xe7, 0x02, 0xdd, 0x02, 0x01, 0x02, 0xce, 0xe6,
  0xac, 0xe2, 0xab, 0xbe, 0xde, 0xd4, 0x1e, 0x24, 0x00, 0x00, 0x30, 0xc7,
  0xa0, 0xd4, 0x01, 0x00, 0x00, 0x23, 0x22, 0xfd, 0x01, 0x04, 0xe4, 0x02,
  0x02, 0xe2, 0xbf, 0xe1, 0xc8, 0xfd, 0xc6, 0xd1, 0xfd, 0xfe, 0x00, 0x23,
  0x00, 0x00, 0x00, 0xe5, 0xd3, 0xde, 0x03, 0x00, 0x00, 0x16, 0x1c, 0x29,
  0x02, 0x1c, 0x03, 0x02, 0x02, 0xd5, 0xe0, 0xfd, 0xe5, 0xfb, 0xfa, 0xfc,
  0x2e, 0x51, 0x4b, 0x4a, 0x00, 0x00, 0xd4, 0xfe, 0x00, 0xdc, 0xeb, 0x2c,
  0x19, 0x14, 0x1d, 0xff, 0x30, 0x02, 0x02, 0x00, 0xfd, 0xfd, 0x17, 0x1a,
  0xfb, 0x12, 0x17, 0x2f, 0x3a, 0x40, 0x58, 0x30, 0x00, 0x00, 0x02, 0xff,
  0xff, 0xd8, 0x01, 0x00, 0xfe, 0x25, 0x1c, 0x37, 0x41, 0x3e, 0x01, 0x00,
  0xfd, 0x28, 0xfd, 0x1a, 0xfd, 0xfe, 0xff, 0xe6, 0x00, 0x45, 0x53, 0x28,
  0x00, 0x00, 0x01, 0x1b, 0xff, 0x04, 0x02, 0x00, 0x16, 0xff, 0x01, 0x28,
  0x22, 0x02, 0xff, 0xff, 0x1b, 0x37, 0x1c, 0x18, 0x18, 0x01, 0x04, 0x04,
  0x1c, 0x54, 0x50, 0x00, 0x00, 0x00, 0x00, 0xfd, 0xfe, 0x20, 0x04, 0x03,
  0x03, 0x23, 0x26, 0x04, 0x29, 0x01, 0x00, 0xe0, 0xff, 0x1c, 0x1b, 0x39,
  0x25, 0x2a, 0x1c, 0x34, 0x46, 0x59, 0x4e, 0x00, 0x1e, 0x00, 0x1e, 0xfd,
  0x18, 0x3f, 0x02, 0x03, 0x05, 0x03, 0x23, 0x04, 0x05, 0x05, 0x04, 0xce,
  0xdb, 0xff, 0x1a, 0xfd, 0xfd, 0x1e, 0x01, 0xd8, 0x28, 0x22, 0x00, 0x00,
  0x00, 0x00, 0xc4, 0xce, 0xff, 0x00, 0x01, 0x03, 0x03, 0x03, 0x03, 0x23,
  0x26, 0x05, 0x04, 0xb5, 0xc2, 0xce, 0xff, 0xfe, 0xe1, 0xfe, 0x02, 0xe7,
  0x02, 0x00, 0x00, 0x00, 0x00, 0x00, 0xd1, 0xd0, 0xff, 0x00, 0xcf, 0x02,
  0x03, 0x03, 0x04, 0x03, 0x22, 0x05, 0x04, 0xe3, 0x8e, 0xbf, 0xe3, 0xd4,
  0xca, 0xfd, 0x18, 0x00, 0x51, 0x21, 0x00, 0x00, 0x00, 0x00, 0xdb, 0x2c,
  0x1b, 0x01, 0x02, 0x39, 0x03, 0xd4, 0xcd, 0x03, 0x04, 0x04, 0x04, 0x03,
  0x00, 0xdd, 0xa7, 0xa1, 0xc8, 0xe6, 0x00, 0x00, 0x1f, 0x00, 0x00, 0x00,
  0x00, 0x00, 0x00, 0x00, 0xca, 0xd9, 0xd6, 0x02, 0x1d, 0x25, 0x02, 0x03,
  0x04, 0x25, 0x02, 0xbb, 0xa1, 0xcb, 0xcc, 0xca, 0xbf, 0xc0, 0x00, 0x00,
  0x00, 0x00, 0x00, 0x00, 0x00, 0x00, 0x00, 0x00, 0x00, 0x00, 0x23, 0x34,
  0x1c, 0x00, 0x2c, 0x5b, 0x30, 0x01, 0x01, 0x1a, 0x00, 0x00, 0x00, 0x00,
  0x00, 0x00, 0x00, 0x00, 0x00, 0x00, 0x00, 0x00, 0x00, 0x00, 0x00, 0x00,
  0x00, 0x00, 0x00, 0x00, 0x00, 0x00, 0x00, 0x00, 0x00, 0x00, 0x00, 0x00,
  0x00, 0x00, 0x00, 0x00, 0x00, 0x00, 0x00, 0x00, 0x00, 0x00, 0x00, 0x00,
  0x00, 0x00, 0x00, 0x00, 0x00, 0x00, 0x18, 0x00, 0x00, 0x00, 0xff, 0x1c,
  0x19, 0x00, 0xff, 0x40, 0x5b, 0x63, 0x4e, 0x32, 0x21, 0x24, 0x24, 0x18,
  0x00, 0x00, 0x00, 0x00, 0x00, 0x00, 0x17, 0x00, 0x00, 0x00, 0x28, 0x26,
  0x20, 0x5f, 0x47, 0x35, 0x1b, 0x29, 0x45, 0x72, 0x7f, 0x43, 0x67, 0x27,
  0x16, 0x2c, 0xff, 0x1e, 0x26, 0x28, 0x00, 0x00, 0x00, 0x00, 0x3a, 0x3e,
  0x59, 0x3a, 0x53, 0x16, 0x2b, 0x57, 0x3d, 0x2a, 0x53, 0x3f, 0xff, 0x2b,
  0x3f, 0x19, 0x27, 0x29, 0xff, 0x00, 0xff, 0xff, 0x3f, 0x39, 0x23, 0x00,
  0x00, 0x00, 0x38, 0xd6, 0xdf, 0x03, 0x21, 0xff, 0x1f, 0x36, 0x28, 0x2e,
  0x1d, 0xfe, 0x2e, 0x25, 0x3b, 0x22, 0x20, 0xff, 0xff, 0xd5, 0xdb, 0xc7,
  0xd0, 0x00, 0x00, 0xcb, 0x00, 0x00, 0x3b, 0x34, 0x02, 0xcf, 0xd3, 0x01,
  0xcb, 0xfe, 0xff, 0xfe, 0xfc, 0xfd, 0x15, 0x17, 0x23, 0x17, 0xfd, 0xfd,
  0x1d, 0x15, 0x24, 0xfc, 0xe3, 0xfb, 0xfe, 0xd2, 0x00, 0x1e, 0x00, 0x00,
  0xd4, 0xc6, 0xd0, 0x00, 0xda, 0xfd, 0xfd, 0xfd, 0xfc, 0xfd, 0xfd, 0xfe,
  0xfd, 0xfd, 0xfe, 0xfe, 0xfd, 0xfe, 0xfe, 0xfd, 0xfd, 0x28, 0xfd, 0xff,
  0x00, 0x2a, 0xfe, 0x01, 0x2b, 0x01, 0xff, 0xfd, 0xfc, 0xfc, 0xfd, 0xfd,
  0xfe, 0xfe, 0xfe, 0xfe, 0xfe, 0xfe, 0xfe, 0x19, 0xfe, 0x1e, 0x1b, 0xdf,
  0xce, 0x1d, 0xff, 0xff, 0x2e, 0x1f, 0xfd, 0x1a, 0x19, 0xfe, 0xfc, 0xfc,
  0xe3, 0xe0, 0xfe, 0xfe, 0xfe, 0xfe, 0xfe, 0xfe, 0xfe, 0x1d, 0xfe, 0x15,
  0xfe, 0xfe, 0x26, 0x27, 0xff, 0xff, 0x00, 0x47, 0x00, 0xdc, 0xfd, 0xfd,
  0xfd, 0xfc, 0xfe, 0xfe, 0x17, 0xfe, 0xfe, 0xfe, 0xfd, 0xfe, 0xfd, 0xfd,
  0xfd, 0xfe, 0xfe, 0xfe, 0xfd, 0xfd, 0x2e, 0x31, 0xe5, 0xff, 0x01, 0xd3,
  0x00, 0xff, 0xfe, 0xfe, 0xfe, 0xff, 0xfe, 0xfe, 0xfe, 0xfe, 0x1f, 0x16,
  0xfd, 0xfd, 0xfd, 0xfe, 0xfd, 0xfe, 0xfe, 0x18, 0xfd, 0x16, 0xfc, 0x19,
  0xfe, 0xd1, 0x32, 0xd8, 0x00, 0x00, 0xb6, 0xff, 0x44, 0xff, 0xfe, 0xff,
  0xfe, 0xfe, 0xfd, 0xfd, 0xfd, 0xfd, 0xfe, 0xff, 0xfe, 0xdf, 0xfd, 0xfd,
  0xfd, 0xfd, 0xfc, 0xfd, 0xfe, 0x1e, 0x42, 0xe6, 0x00, 0xdb, 0xba, 0xe2,
  0x26, 0xfe, 0xfc, 0xfe, 0xe0, 0xfe, 0xfd, 0xfd, 0xfd, 0x17, 0x1b, 0xfe,
  0xdf, 0xfd, 0xfd, 0xfd, 0xfd, 0xfd, 0xfd, 0xdd, 0xfc, 0x1f, 0x2e, 0xca,
  0x36, 0xe6, 0xd8, 0xff, 0xcb, 0xd7, 0xd6, 0xe3, 0xdf, 0xfe, 0xc0, 0xfe,
  0x19, 0x29, 0x1b, 0xfd, 0xd7, 0xfd, 0xfd, 0x1c, 0xfd, 0xfd, 0xfd, 0xd5,
  0xfb, 0xfd, 0x43, 0x2e, 0x00, 0x00, 0x00, 0xff, 0xce, 0x9a, 0xdf, 0xcc,
  0xd7, 0xc9, 0xde, 0xfe, 0xfe, 0x23, 0x15, 0xfd, 0xfd, 0xfe, 0xfe, 0xfd,
  0xfd, 0xfd, 0xd7, 0xc6, 0xfb, 0x00, 0x60, 0x42, 0x00, 0xd6, 0x1c, 0xfe,
  0xd5, 0xcb, 0xfd, 0xd6, 0xe0, 0xfe, 0xe1, 0x16, 0x25, 0x25, 0x32, 0xfd,
  0xfd, 0xda, 0xfe, 0xfd, 0xdd, 0xfd, 0xc2, 0xc3, 0x19, 0x04, 0x02, 0x48,
  0x00, 0x00, 0xfe, 0xfc, 0xfd, 0xfd, 0xfd, 0xdc, 0xdc, 0xfd, 0xfd, 0xfe,
  0xfe, 0x22, 0x22, 0xfd, 0xfd, 0xfe, 0xfd, 0xe2, 0xce, 0xfd, 0xfe, 0x1e,
  0x2a, 0x49, 0x2d, 0x2c, 0x00, 0x1f, 0xfe, 0x24, 0xfd, 0xfd, 0xfd, 0xfd,
  0xfd, 0xfd, 0x15, 0x1f, 0x18, 0xfd, 0x20, 0xfd, 0xfe, 0xfe, 0xe0, 0xfe,
  0xc6, 0xe6, 0xff, 0xff, 0x2b, 0x41, 0x00, 0x34, 0x00, 0x00, 0xd3, 0x28,
  0x20, 0xfd, 0xfc, 0xfc, 0xd7, 0xfd, 0xfc, 0xfc, 0xfd, 0xfe, 0xfe, 0xfe,
  0xff, 0xe7, 0xff, 0xde, 0xdb, 0x00, 0x00, 0x19, 0x40, 0x2b, 0xde, 0x68,
  0x00, 0x19, 0xfe, 0xfd, 0x00, 0xfd, 0xfb, 0xfc, 0xe2, 0xfd, 0xfd, 0xfd,
  0xfe, 0x1f, 0xfe, 0xff, 0x00, 0xff, 0xfe, 0xfe, 0xff, 0xff, 0xfe, 0x37,
  0x00, 0x42, 0x57, 0x5d, 0x00, 0x00, 0x3b, 0xfe, 0x00, 0xfe, 0x18, 0x25,
  0x21, 0x18, 0x1d, 0xfd, 0x29, 0xfe, 0x1a, 0x19, 0x1b, 0xfe, 0x25, 0xfd,
  0x3a, 0x3d, 0x36, 0x48, 0x04, 0x3d, 0x32, 0x00, 0x00, 0x1e, 0x4f, 0x48,
  0x23, 0xff, 0x2c, 0x41, 0xfc, 0x27, 0x18, 0x2c, 0xfe, 0x1c, 0xfe, 0xfe,
  0xfe, 0x2c, 0x32, 0x2a, 0x27, 0x30, 0x44, 0x47, 0x1f, 0x3f, 0x46, 0x00,
  0x00, 0x00, 0x42, 0x39, 0x32, 0x30, 0x1b, 0x37, 0x1e, 0x3a, 0xfe, 0xfe,
  0xfd, 0xfd, 0xfe, 0xfe, 0xfd, 0x21, 0x2f, 0xfd, 0x18, 0x16, 0x28, 0x32,
  0x3f, 0x35, 0xfd, 0x00, 0x00, 0x00, 0x4c, 0x31, 0x19, 0x17, 0xff, 0x18,
  0x2f, 0x45, 0x24, 0xfe, 0x16, 0x1e, 0xfd, 0xfd, 0x1b, 0x18, 0x26, 0x22,
  0x19, 0x25, 0x30, 0x43, 0x20, 0x00, 0x48, 0x00, 0x00, 0x00, 0x00, 0x03,
  0xd6, 0xcd, 0xff, 0xff, 0xff, 0x00, 0xff, 0xfe, 0x17, 0xfd, 0x19, 0xfc,
  0xfd, 0x18, 0x43, 0xff, 0xff, 0x23, 0x1c, 0xff, 0xff, 0x00, 0x18, 0x00,
  0x00, 0x00, 0x19, 0xdd, 0xc9, 0xd1, 0x00, 0xff, 0xfe, 0x01, 0xff, 0xe4,
  0x1c, 0x15, 0xfd, 0xfc, 0x16, 0x01, 0x02, 0x1c, 0x02, 0xda, 0xff, 0xff,
  0x35, 0x00, 0x00, 0x00, 0x00, 0x00, 0x00, 0xff, 0xd6, 0xfd, 0xd0, 0xdc,
  0xe6, 0xda, 0xfe, 0xfe, 0xd9, 0xfd, 0xcd, 0xe2, 0x01, 0x01, 0xe7, 0xbe,
  0xad, 0xa6, 0xbf, 0xe9, 0x00, 0x00, 0x00, 0x00, 0x00, 0x00, 0x00, 0x00,
  0x00, 0x00, 0x02, 0x35, 0x30, 0x00, 0xc3, 0x01, 0xff, 0xdf, 0xd7, 0xe6,
  0xcd, 0xbc, 0xc5, 0xcf, 0xcb, 0xb6, 0xc3, 0x00, 0x00, 0x00, 0x00, 0x00,
  0x00, 0x00, 0x00, 0x00, 0x00, 0x00, 0x00, 0x00, 0x00, 0x00, 0x00, 0x00,
  0x00, 0x00, 0x00, 0x00, 0x00, 0x00, 0x00, 0x00, 0x00, 0x00, 0x00, 0x00,
  0x00, 0x00, 0x00, 0x00, 0x00, 0x00, 0x00, 0x00, 0x00, 0x00, 0xd6, 0xe4,
  0x00, 0x00, 0x01, 0x01, 0xe5, 0xff, 0xff, 0xc2, 0xbd, 0xbf, 0xc7, 0xd4,
  0xda, 0xda, 0xcd, 0xce, 0x00, 0x00, 0x00, 0x00, 0x00, 0x00, 0x00, 0xd9,
  0xc7, 0x00, 0x00, 0xd3, 0xe2, 0xdb, 0xd4, 0xc5, 0x00, 0x28, 0xff, 0xcb,
  0x81, 0xff, 0x18, 0xff, 0xff, 0xd4, 0xd0, 0xb7, 0xe3, 0xd3, 0x00, 0x00,
  0x00, 0x00, 0x00, 0xcc, 0xdb, 0xda, 0xb9, 0xb1, 0xa0, 0xb2, 0x9e, 0xa9,
  0xfd, 0xd4, 0xc9, 0xcd, 0xc1, 0xfe, 0x21, 0xfd, 0xfd, 0xff, 0x01, 0x01,
  0xaa, 0x00, 0x00, 0x00, 0x00, 0x00, 0xe2, 0x48, 0x00, 0x00, 0x00, 0x00,
  0xcc, 0xd0, 0xd6, 0x00, 0xfd, 0xe4, 0xdb, 0xda, 0xff, 0xff, 0x18, 0xfd,
  0xff, 0x02, 0x02, 0x32, 0x2b, 0x2b, 0x24, 0xda, 0x00, 0x00, 0xdb, 0x01,
  0xd5, 0xe3, 0xfe, 0xe3, 0x01, 0x02, 0x01, 0x01, 0x2f, 0x00, 0xff, 0xd9,
  0xdf, 0x00, 0xd1, 0xe7, 0x01, 0x04, 0x05, 0xcf, 0x05, 0x05, 0x02, 0xe2,
  0x00, 0xc5, 0x38, 0x02, 0xde, 0x24, 0x02, 0x02, 0x03, 0x1c, 0x03, 0x03,
  0x02, 0x01, 0x01, 0xe1, 0x02, 0x03, 0x02, 0x03, 0x03, 0xeb, 0x07, 0x05,
  0x05, 0x03, 0x2d, 0x01, 0x00, 0xc7, 0x46, 0x03, 0xdc, 0x02, 0x03, 0x02,
  0x20, 0x03, 0x03, 0x02, 0x25, 0x01, 0x01, 0x01, 0x01, 0x02, 0x1d, 0x1e,
  0x03, 0x2c, 0x05, 0x1f, 0xe1, 0x03, 0x2a, 0x01, 0xcd, 0xa1, 0x3b, 0x02,
  0x01, 0x03, 0x03, 0x02, 0x02, 0x02, 0x02, 0x00, 0x00, 0x26, 0x00, 0xff,
  0x01, 0x01, 0x00, 0x02, 0x03, 0x03, 0x03, 0x02, 0x43, 0x71, 0x23, 0x5e,
  0x00, 0x01, 0xfd, 0x01, 0x00, 0x02, 0x02, 0x00, 0x19, 0x00, 0xff, 0xff,
  0xff, 0x00, 0xff, 0xff, 0x00, 0x01, 0x1b, 0x02, 0x02, 0x03, 0x03, 0xe9,
  0x3d, 0x68, 0x4b, 0xd6, 0x00, 0x01, 0xcd, 0xff, 0x23, 0xff, 0x00, 0xff,
  0x1e, 0xff, 0x1a, 0xe5, 0x01, 0xe7, 0xc6, 0xfe, 0xe7, 0xdf, 0x02, 0x02,
  0x02, 0x02, 0x03, 0x02, 0x1e, 0x32, 0x32, 0xd4, 0x00, 0xc3, 0xfe, 0x1b,
  0xfd, 0x1e, 0x02, 0x1b, 0x1f, 0x00, 0x1d, 0x02, 0x01, 0xff, 0xfe, 0xff,
  0x00, 0x01, 0x02, 0x01, 0x01, 0x02, 0x03, 0x03, 0x21, 0x3f, 0x5f, 0xd1,
  0x00, 0x00, 0xff, 0x1a, 0x00, 0x29, 0x39, 0x00, 0x25, 0x01, 0x1c, 0x03,
  0x02, 0x00, 0xff, 0x00, 0x00, 0x02, 0x02, 0x02, 0x00, 0x1c, 0x03, 0x04,
  0x04, 0x02, 0x38, 0xc5, 0x00, 0x00, 0xe0, 0xfd, 0x29, 0x30, 0x01, 0x3b,
  0x41, 0x25, 0x28, 0x30, 0x26, 0x20, 0x1f, 0x01, 0x02, 0x03, 0x03, 0x01,
  0x00, 0x01, 0x03, 0x04, 0xd9, 0x03, 0x00, 0xd3, 0x00, 0x00, 0xc4, 0x01,
  0x03, 0x28, 0x29, 0x22, 0x35, 0x41, 0x2e, 0x26, 0x04, 0x03, 0x2c, 0x02,
  0x04, 0x04, 0x03, 0x01, 0x01, 0x02, 0x02, 0x03, 0x04, 0xdb, 0xc0, 0xda,
  0x00, 0x00, 0xdb, 0x21, 0x04, 0x04, 0x04, 0x04, 0x3a, 0x2e, 0x30, 0x3c,
  0x32, 0x1d, 0x2e, 0x03, 0x04, 0x04, 0x02, 0x01, 0xd8, 0x03, 0x02, 0x02,
  0x04, 0xdc, 0x02, 0xad, 0x00, 0x00, 0xfe, 0x00, 0xdc, 0xd5, 0x05, 0x04,
  0x03, 0x1e, 0x2e, 0x1e, 0x40, 0x39, 0x02, 0x03, 0x05, 0x1d, 0x02, 0xdd,
  0xe4, 0x01, 0x20, 0x01, 0xfe, 0xd4, 0xd1, 0xcc, 0x00, 0x00, 0x02, 0xd6,
  0xc9, 0xd4, 0xdd, 0xea, 0xdf, 0x1c, 0x03, 0x1f, 0x25, 0x28, 0x1e, 0x03,
  0x21, 0x03, 0x01, 0xe5, 0x01, 0x01, 0x01, 0xfe, 0xe1, 0xc1, 0x00, 0xce,
  0xcb, 0x00, 0xfe, 0xc4, 0xab, 0xdd, 0xcd, 0xd0, 0xd3, 0xe5, 0x03, 0x20,
  0x04, 0x02, 0x01, 0x01, 0x02, 0x02, 0x00, 0x00, 0x01, 0x02, 0x01, 0xfe,
  0xb6, 0xe8, 0xcf, 0xbb, 0x1c, 0xcd, 0xfe, 0xc4, 0xba, 0xd7, 0xd9, 0xd2,
  0xd9, 0xd7, 0xe6, 0xd4, 0xdc, 0xe4, 0xdb, 0x00, 0x01, 0x00, 0x00, 0x00,
  0x01, 0x02, 0x03, 0xde, 0x01, 0x02, 0xe7, 0xc7, 0x00, 0xe3, 0x27, 0xe2,
  0xcc, 0xe9, 0x02, 0x01, 0xd2, 0xde, 0xda, 0xe1, 0xd7, 0xe2, 0xd0, 0x00,
  0x00, 0x00, 0x00, 0x01, 0x01, 0x03, 0x04, 0x02, 0xff, 0x26, 0x00, 0x30,
  0x00, 0x00, 0x01, 0x03, 0x00, 0x03, 0x02, 0x01, 0x02, 0x02, 0x02, 0x00,
  0xd6, 0xde, 0xdd, 0x00, 0xff, 0x01, 0x01, 0x02, 0x03, 0x04, 0x03, 0x03,
  0x1c, 0xfd, 0xb3, 0x00, 0x00, 0x00, 0xb5, 0x1d, 0xff, 0x01, 0x02, 0x1a,
  0x01, 0x01, 0x00, 0x00, 0x00, 0x00, 0xff, 0xfe, 0xff, 0x02, 0x02, 0x02,
  0x03, 0x04, 0x02, 0x33, 0x01, 0x00, 0x00, 0x00, 0x00, 0x00, 0xe2, 0x25,
  0x01, 0x01, 0x28, 0x20, 0x2d, 0x00, 0x00, 0x00, 0x01, 0x01, 0x01, 0xff,
  0x00, 0x03, 0x02, 0xe9, 0x03, 0x04, 0x01, 0x01, 0xcb, 0xe5, 0x00, 0x00,
  0x00, 0x00, 0x00, 0x1d, 0x01, 0x02, 0x2f, 0x2f, 0x23, 0xfe, 0x00, 0x01,
  0x1e, 0x29, 0x00, 0xfe, 0x00, 0xe1, 0xe8, 0x02, 0x03, 0xdb, 0x02, 0x38,
  0x01, 0xb7, 0xdc, 0x00, 0x00, 0x00, 0x34, 0xfe, 0xff, 0x21, 0x1a, 0xfd,
  0xfa, 0xfb, 0xff, 0x00, 0xff, 0x28, 0xff, 0xff, 0xfe, 0x23, 0x33, 0x3f,
  0x2b, 0x4d, 0x59, 0x60, 0x39, 0x00, 0x00, 0x00, 0x00, 0x00, 0x00, 0x2d,
  0x5f, 0x47, 0x25, 0xfe, 0xfc, 0xfb, 0xfb, 0xfc, 0x1d, 0x2a, 0x1b, 0xfe,
  0x27, 0x55, 0x3c, 0xdc, 0x2f, 0x27, 0x00, 0x1f, 0xd5, 0x00, 0x00, 0x00,
  0x00, 0x00, 0x00, 0x00, 0xba, 0x9c, 0xe0, 0xfd, 0xfe, 0xff, 0xfe, 0xfe,
  0xfe, 0xc3, 0xd2, 0xfd, 0xfd, 0xcc, 0x02, 0x1b, 0x00, 0xc5, 0xc9, 0xbb,
  0x00, 0x00, 0x00, 0x00, 0x00, 0x00, 0x00, 0x00, 0x00, 0x00, 0x00, 0x00,
  0x00, 0x00, 0x00, 0x00, 0x00, 0x00, 0x00, 0x00, 0x00, 0x00, 0x00, 0x00,
  0x00, 0x00, 0x00, 0x00, 0x00, 0x00, 0x00, 0x00, 0x00, 0x00, 0x00, 0x00,
  0x00, 0x00, 0x00, 0x00, 0x00, 0xde, 0xe8, 0xff, 0x00, 0xe0, 0xe1, 0x00,
  0x00, 0x17, 0x00, 0x00, 0x00, 0x00, 0x00, 0x00, 0x00, 0x00, 0x00, 0x00,
  0x00, 0x00, 0x00, 0x00, 0xe4, 0x00, 0x00, 0xd2, 0x00, 0x1a, 0xff, 0xff,
  0x01, 0xb7, 0xbc, 0xb0, 0xac, 0xca, 0xe4, 0xdd, 0xce, 0xd2, 0xdc, 0x00,
  0x00, 0x00, 0x00, 0x00, 0x00, 0x00, 0x22, 0x17, 0x21, 0x18, 0x43, 0x38,
  0x33, 0x00, 0x1e, 0xff, 0x1a, 0x02, 0xdd, 0xe4, 0xd4, 0xe3, 0xeb, 0x00,
  0x01, 0x20, 0x15, 0x00, 0x32, 0x2e, 0x00, 0x00, 0x00, 0x00, 0x2f, 0x3c,
  0x00, 0x02, 0x42, 0x1a, 0xff, 0xfd, 0xfd, 0xfe, 0x00, 0x02, 0x02, 0x01,
  0xfe, 0xfd, 0x17, 0xfe, 0xfd, 0x19, 0xfd, 0xfd, 0x40, 0x21, 0x00, 0x00,
  0x00, 0x00, 0x00, 0x2b, 0x36, 0x21, 0x2e, 0x20, 0x01, 0x00, 0x01, 0x01,
  0x21, 0xff, 0xff, 0xff, 0xff, 0xfe, 0xfd, 0xfc, 0xfc, 0xfd, 0x1a, 0xfc,
  0x1a, 0x58, 0x22, 0xe2, 0x00, 0x21, 0x00, 0x20, 0x26, 0x4f, 0x39, 0x02,
  0x00, 0x1f, 0x2e, 0x00, 0x00, 0x19, 0x2e, 0x2c, 0x27, 0x00, 0x01, 0x00,
  0xff, 0xff, 0xfe, 0xfe, 0xfd, 0x2b, 0x16, 0x00, 0x00, 0x42, 0x21, 0x37,
  0x23, 0x02, 0x21, 0xff, 0x27, 0x25, 0x17, 0x01, 0x1e, 0x01, 0x24, 0x1e,
  0x02, 0x1b, 0x02, 0x01, 0x01, 0x00, 0xeb, 0xfe, 0xfc, 0xff, 0x21, 0x00,
  0x00, 0x3c, 0x39, 0x2d, 0x27, 0x1c, 0xfe, 0xff, 0x2d, 0x2d, 0x32, 0x36,
  0x2e, 0x30, 0x27, 0x26, 0x1d, 0x1d, 0x02, 0x02, 0x02, 0x01, 0x00, 0xff,
  0xc9, 0xce, 0x1c, 0x27, 0x16, 0x00, 0x4c, 0x02, 0x25, 0x2a, 0x00, 0x00,
  0x22, 0x29, 0x01, 0x19, 0x1a, 0x18, 0x31, 0x20, 0x02, 0x02, 0x02, 0x01,
  0x01, 0x02, 0xff, 0x1c, 0xc3, 0xc7, 0x00, 0x23, 0x00, 0x00, 0x40, 0x02,
  0x04, 0x02, 0x00, 0x01, 0x02, 0x01, 0x01, 0x00, 0xdf, 0x00, 0xec, 0xea,
  0x03, 0x03, 0x02, 0xe6, 0x01, 0xe9, 0xe7, 0xfe, 0xc6, 0xff, 0x00, 0xe1,
  0x00, 0x00, 0x2e, 0x01, 0x02, 0x00, 0xff, 0xee, 0xde, 0xdf, 0xd1, 0xd4,
  0xb6, 0xc0, 0xb5, 0xdd, 0x04, 0x02, 0x02, 0x01, 0xe4, 0xd4, 0xe3, 0xfe,
  0xff, 0xfe, 0xfe, 0xd3, 0x00, 0x17, 0x00, 0x01, 0xd8, 0xdb, 0xd1, 0xd0,
  0xda, 0xc4, 0xc7, 0xb4, 0xd2, 0xb4, 0xe6, 0x04, 0x1a, 0x02, 0x02, 0x01,
  0x00, 0xe5, 0xd5, 0xfd, 0xff, 0xfe, 0xfe, 0xd5, 0x00, 0x00, 0x20, 0xe4,
  0xb2, 0xaf, 0xc8, 0xde, 0xc6, 0xd9, 0xeb, 0xe0, 0x01, 0x01, 0x01, 0xe3,
  0x02, 0x03, 0x03, 0x02, 0x01, 0xff, 0xfc, 0xfc, 0xfe, 0xfe, 0xfe, 0x00,
  0x00, 0x00, 0x2b, 0x00, 0xbd, 0x92, 0xd6, 0xff, 0x00, 0x00, 0x01, 0x01,
  0x00, 0x00, 0x1c, 0x00, 0x01, 0x02, 0x03, 0x02, 0x01, 0xfe, 0xfb, 0x14,
  0xfd, 0x03, 0x00, 0x2b, 0x00, 0x00, 0x23, 0xe0, 0xc9, 0xc0, 0xfe, 0xeb,
  0x00, 0x01, 0x01, 0x01, 0x00, 0x00, 0xff, 0x00, 0x00, 0x02, 0x03, 0x02,
  0x00, 0xfe, 0xfc, 0xfc, 0xfe, 0xda, 0x00, 0x2e, 0x00, 0x2a, 0x2c, 0x01,
  0xc7, 0xd4, 0xfe, 0x00, 0x00, 0x00, 0x00, 0xe8, 0x00, 0x00, 0xff, 0x00,
  0x00, 0x02, 0x02, 0x01, 0xff, 0x27, 0xff, 0xff, 0x02, 0xd2, 0x00, 0x29,
  0x00, 0x34, 0x28, 0x02, 0xff, 0x00, 0xfe, 0xfe, 0xfe, 0xfe, 0xe1, 0xfe,
  0xff, 0x00, 0x00, 0x00, 0x02, 0x02, 0x02, 0x01, 0x00, 0x00, 0x01, 0x00,
  0x05, 0x02, 0x16, 0x49, 0x00, 0x16, 0x15, 0x32, 0x1c, 0x00, 0xfe, 0xe6,
  0xfd, 0xfc, 0xfc, 0xfd, 0x01, 0x02, 0x02, 0x03, 0x1e, 0x03, 0x02, 0x00,
  0xe4, 0x01, 0x01, 0x01, 0x04, 0x02, 0x25, 0x00, 0xe2, 0x00, 0x19, 0x36,
  0x20, 0x18, 0xfe, 0xfd, 0xfd, 0xfd, 0xfd, 0xff, 0x02, 0x03, 0x04, 0x1c,
  0x05, 0x03, 0x01, 0x00, 0x00, 0x00, 0xe2, 0xff, 0x03, 0x00, 0x23, 0x00,
  0x00, 0x00, 0x3d, 0x7f, 0x38, 0x19, 0x23, 0x1b, 0xfc, 0xfe, 0xfe, 0x00,
  0x02, 0x04, 0x04, 0x04, 0x04, 0x02, 0x00, 0xe1, 0xfe, 0xfe, 0xe5, 0xff,
  0x03, 0x1f, 0x18, 0xe3, 0xe7, 0x00, 0x59, 0x3b, 0x1a, 0x00, 0xfe, 0xfd,
  0xfc, 0xfd, 0xff, 0x02, 0x03, 0x03, 0x03, 0x03, 0x03, 0x00, 0xfe, 0xfc,
  0xfc, 0xfd, 0xfe, 0x00, 0x01, 0xfe, 0x2c, 0x00, 0x00, 0x00, 0x64, 0xff,
  0xff, 0xff, 0xfe, 0x17, 0xfd, 0xff, 0x00, 0x01, 0x02, 0x02, 0x03, 0x02,
  0x01, 0xff, 0xfd, 0xfb, 0xfc, 0xfd, 0x26, 0x1a, 0x25, 0xfe, 0xe4, 0x00,
  0x00, 0x00, 0x2b, 0x27, 0x43, 0x17, 0x16, 0x2a, 0x00, 0x02, 0x01, 0x01,
  0x01, 0x00, 0xff, 0xff, 0xff, 0xfe, 0xfc, 0xfc, 0xfd, 0xfe, 0x15, 0x32,
  0x5a, 0x00, 0x00, 0x00, 0x00, 0x00, 0x1d, 0x64, 0x68, 0x19, 0x30, 0x1a,
  0x02, 0x04, 0x03, 0x01, 0x01, 0xff, 0xfe, 0xff, 0xde, 0x00, 0xfe, 0x15,
  0x00, 0xff, 0xff, 0xff, 0x34, 0x00, 0x00, 0x00, 0x00, 0x00, 0xd6, 0x2b,
  0x02, 0x02, 0x02, 0x2a, 0x3a, 0x38, 0x20, 0x1e, 0x2a, 0x01, 0x18, 0x16,
  0x02, 0x22, 0x19, 0x00, 0x02, 0x02, 0x15, 0x27, 0x40, 0x00, 0x00, 0x00,
  0x00, 0x00, 0x00, 0x00, 0xd5, 0xc9, 0xda, 0x16, 0x38, 0x1b, 0x21, 0x04,
  0x03, 0x02, 0x18, 0x03, 0x02, 0x00, 0xfe, 0xfe, 0xff, 0xc7, 0xd3, 0x00,
  0x00, 0x00, 0x00, 0x00, 0x00, 0x00, 0x00, 0x00, 0x29, 0x1e, 0x48, 0x75,
  0x4c, 0x00, 0x4c, 0x2a, 0x55, 0x48, 0x16, 0x34, 0x58, 0x4c, 0xfe, 0xdc,
  0x00, 0x00, 0xda, 0x00, 0x00, 0x00, 0x00, 0x00, 0x00, 0x00, 0x00, 0x00,
  0x00, 0x00, 0x00, 0x00, 0x00, 0x00, 0x00, 0x00, 0x00, 0x00, 0x00, 0x00,
  0x00, 0x00, 0x00, 0x00, 0x00, 0x00, 0x00, 0x00, 0x00, 0x00, 0x00, 0x00,
  0x00, 0x00, 0x00, 0x00, 0x00, 0x1e, 0x25, 0x00, 0x1e, 0x2e, 0x46, 0x18,
  0x27, 0x01, 0xc7, 0x02, 0x01, 0x20, 0x2f, 0x43, 0x45, 0x26, 0x21, 0x1d,
  0x00, 0x00, 0x00, 0x00, 0x00, 0x00, 0x00, 0xd9, 0x00, 0x32, 0x30, 0x56,
  0x6b, 0x64, 0x57, 0x7f, 0x4a, 0x01, 0x1b, 0xfe, 0x1f, 0x31, 0x4e, 0xfe,
  0x27, 0x3a, 0x37, 0x36, 0x00, 0xdf, 0x00, 0x00, 0x00, 0x00, 0xd2, 0xdb,
  0x00, 0x3c, 0x45, 0x3b, 0x5e, 0x52, 0x01, 0x2f, 0x28, 0x01, 0x01, 0xfe,
  0xfd, 0xfe, 0x37, 0x00, 0xd5, 0x01, 0x00, 0x42, 0x00, 0xd2, 0x00, 0x00,
  0x00, 0x00, 0x00, 0x00, 0x1e, 0x25, 0x01, 0xfe, 0x17, 0xfc, 0xfe, 0xff,
  0x01, 0xe2, 0x00, 0xfe, 0xfd, 0x1d, 0xfe, 0xfe, 0xff, 0xfe, 0xfc, 0xfe,
  0xfe, 0x25, 0x4b, 0x47, 0x00, 0x00, 0x2b, 0xa7, 0x02, 0xd1, 0xcc, 0xfe,
  0xfd, 0xe3, 0x00, 0x2f, 0x22, 0xff, 0xfe, 0xfd, 0x17, 0x1e, 0xfd, 0xfd,
  0xfd, 0xfd, 0xdf, 0xc0, 0xfb, 0x46, 0x55, 0x3f, 0x00, 0xe0, 0x00, 0xd9,
  0x01, 0xd1, 0xcc, 0xfe, 0xfc, 0x20, 0xfd, 0xfe, 0xfe, 0xfe, 0xfe, 0x29,
  0x19, 0x19, 0xfe, 0x29, 0x19, 0xfd, 0xfc, 0xfb, 0xfc, 0x39, 0xfd, 0xff,
  0x00, 0xe8, 0x00, 0xe4, 0xff, 0xff, 0xe4, 0xd8, 0xfc, 0xfd, 0xfd, 0xfe,
  0xfe, 0xfe, 0xfe, 0x21, 0xff, 0xff, 0xff, 0xfe, 0xfe, 0xfd, 0x16, 0xfc,
  0xfd, 0x1b, 0xfe, 0xff, 0xc2, 0xd2, 0xdc, 0xe0, 0x23, 0x20, 0x16, 0xfb,
  0xfc, 0xfe, 0x19, 0xfe, 0xfe, 0xfe, 0xe2, 0xd6, 0xfe, 0xfe, 0xff, 0xfe,
  0xfe, 0xfd, 0xfc, 0xfe, 0xfe, 0x1c, 0x32, 0x3d, 0x00, 0xd9, 0xac, 0xff,
  0xfe, 0xfb, 0x15, 0xfd, 0xfe, 0xfe, 0xfe, 0xfd, 0xfd, 0xdf, 0xdb, 0xc7,
  0xfd, 0xfe, 0xfe, 0xfe, 0xfd, 0xfd, 0xfc, 0x18, 0xfe, 0xff, 0x01, 0xd3,
  0x00, 0xc4, 0xa4, 0xff, 0xfe, 0xfc, 0xfd, 0xfd, 0xfe, 0xfe, 0xfd, 0xfd,
  0xfd, 0xc2, 0xdc, 0xc5, 0xfd, 0xe1, 0xfe, 0xfe, 0xfd, 0xfd, 0xfc, 0x26,
  0x1a, 0xcc, 0xfe, 0xc3, 0x00, 0xb5, 0xb8, 0xdf, 0xfd, 0x2b, 0xfc, 0xfd,
  0xfe, 0xfe, 0xfd, 0xfd, 0xfd, 0xd5, 0xff, 0x00, 0xff, 0xfe, 0xfe, 0xfd,
  0xfd, 0x1b, 0x1c, 0x28, 0x28, 0x17, 0x1e, 0xbe, 0x00, 0xcf, 0x00, 0xff,
  0x38, 0x37, 0xfc, 0xfc, 0xfe, 0xfe, 0xe5, 0xe4, 0xe5, 0xfe, 0x1e, 0x19,
  0x1a, 0x27, 0xfd, 0xfd, 0xfd, 0xfe, 0xfd, 0x2a, 0x1e, 0x03, 0xb4, 0xbc,
  0xdf, 0xdb, 0xdf, 0xff, 0xfd, 0xfc, 0xd7, 0xe2, 0xfe, 0xfe, 0xfe, 0xfe,
  0xfe, 0x44, 0x2b, 0x3d, 0x2e, 0xfd, 0xfe, 0x1f, 0xfd, 0xfe, 0x29, 0x32,
  0xfc, 0xd1, 0x00, 0x30, 0x00, 0xdf, 0xc8, 0xff, 0xdb, 0xfc, 0xfd, 0xe0,
  0xfe, 0xfe, 0xfe, 0x28, 0x1c, 0x50, 0x39, 0x32, 0x29, 0x26, 0x24, 0xfd,
  0xfd, 0xfe, 0xfe, 0xfe, 0xd5, 0xde, 0x00, 0x00, 0x00, 0x00, 0x96, 0xff,
  0xe1, 0xfd, 0xfd, 0xdc, 0xfe, 0xfe, 0xfe, 0xfe, 0x1e, 0x2d, 0x30, 0x24,
  0x18, 0xfd, 0xfe, 0xfd, 0xfd, 0xfe, 0xfe, 0xfe, 0xc2, 0x05, 0xb1, 0x3d,
  0x00, 0x00, 0xac, 0xfd, 0xdb, 0xfd, 0x1a, 0xfd, 0xfd, 0xfe, 0xfe, 0x16,
  0x22, 0x29, 0xfc, 0xfc, 0xfd, 0xfd, 0xfd, 0xfd, 0xfd, 0xdf, 0xfe, 0xd6,
  0xc3, 0x29, 0x00, 0x00, 0x00, 0xd5, 0x9f, 0xfd, 0xda, 0xfd, 0xfc, 0xfc,
  0x27, 0x1b, 0xfd, 0xfd, 0xfd, 0xfc, 0xe4, 0xfd, 0xfe, 0xfe, 0xe1, 0xfd,
  0xfd, 0xd1, 0xe6, 0xc5, 0xbe, 0x03, 0xa6, 0xcb, 0x25, 0xdf, 0x98, 0x18,
  0xd5, 0xfe, 0x3f, 0x21, 0x22, 0x19, 0x34, 0x2a, 0x30, 0xfd, 0xfd, 0xff,
  0xff, 0xff, 0xe1, 0xdf, 0xfe, 0xe5, 0x00, 0x00, 0xdf, 0x03, 0xca, 0xca,
  0x00, 0xd7, 0xa0, 0xfd, 0x00, 0x16, 0x29, 0x19, 0x1d, 0x1c, 0x37, 0x21,
  0xfe, 0xfe, 0xd4, 0xd4, 0x00, 0xff, 0xfe, 0xfd, 0xfd, 0xfe, 0xfe, 0xfe,
  0xd3, 0xe7, 0x00, 0xe6, 0x00, 0xcd, 0x02, 0xfe, 0x00, 0x35, 0xfe, 0x22,
  0xfd, 0x2a, 0x2a, 0xfe, 0xff, 0xff, 0xe0, 0xff, 0xff, 0xfe, 0xfd, 0xe0,
  0xfd, 0xfd, 0xfd, 0xfe, 0xc8, 0x22, 0xda, 0xd6, 0xd6, 0x24, 0x2f, 0x00,
  0x01, 0xff, 0xfd, 0xfd, 0xfd, 0x29, 0xfe, 0xfe, 0xff, 0xff, 0xff, 0xff,
  0xfe, 0xfc, 0xfc, 0xfc, 0xfc, 0xfc, 0xfc, 0xe0, 0xc7, 0xd6, 0xc8, 0x00,
  0xe0, 0x00, 0x01, 0x28, 0x1a, 0x01, 0xfe, 0xfd, 0xfd, 0xfe, 0xfe, 0x18,
  0xff, 0xff, 0xff, 0xfe, 0xfd, 0xfc, 0xfc, 0xfc, 0xfb, 0xfb, 0xfe, 0xff,
  0xff, 0xe7, 0x00, 0x00, 0x00, 0x00, 0x00, 0x4c, 0x02, 0x00, 0xff, 0x17,
  0x25, 0xff, 0xff, 0xfe, 0xfe, 0xfe, 0xfe, 0xfd, 0xfc, 0xfb, 0x24, 0xfc,
  0xfc, 0x1e, 0x48, 0x7f, 0x4b, 0x2c, 0xdf, 0x00, 0x00, 0x00, 0x00, 0x03,
  0x02, 0xe4, 0xff, 0x00, 0x00, 0x00, 0x00, 0xff, 0x21, 0xfe, 0xfd, 0x17,
  0x4b, 0xfd, 0x16, 0x3a, 0x3a, 0xfd, 0x2b, 0x3b, 0xff, 0xd5, 0xde, 0x00,
  0x00, 0x00, 0x32, 0xc0, 0xc7, 0x00, 0x00, 0x1c, 0xde, 0xd9, 0x2b, 0x27,
  0xff, 0xfd, 0x33, 0x29, 0x23, 0x33, 0x41, 0x5f, 0x5c, 0xfe, 0xd3, 0xff,
  0xff, 0x00, 0x00, 0x00, 0x00, 0x00, 0x00, 0x20, 0x59, 0x38, 0x3f, 0x43,
  0x44, 0x28, 0x1b, 0xfc, 0x43, 0x36, 0x33, 0x00, 0x25, 0x4c, 0x26, 0xdb,
  0x4d, 0x28, 0x23, 0x30, 0x36, 0x00, 0x00, 0x00, 0x00, 0x00, 0x00, 0x00,
  0xc1, 0xb5, 0x00, 0x00, 0x00, 0x00, 0x00, 0x00, 0x23, 0xff, 0x18, 0xfe,
